#version: 0.2
Ġ <
a d
ad d
e r
o n
d e
i n
o r
a t
e t
) ;
de l
s t
i on
r e
a l
l e
t e
Ġ =
Ġ {
i c
Ġ p
( )
s s
Ġ i
r o
m e
a c
n t
g et
S t
m p
a n
Ġ t
r i
c e
Ġ }
Ġ c
Ġ n
t ion
h e
a p
in g
at e
a r
u t
u r
s e
Ġ f
R e
or t
u e
e w
u l
l ic
u b
Ġ (
i l
E x
a me
a ss
e c
C on
Ġi mp
ac he
St r
Ġ "
i t
Ġimp ort
Str ing
ub lic
Ġp ublic
g e
i s
a b
( );
I n
Ġ e
Ġ Ġ
p tion
Ġn ew
( "
Ġ r
Ġt h
l o
or g
Ġ s
at ion
Ġ org
in t
C o
ab le
p e
o o
ce ption
i st
ur n
Ġ +
et urn
Ex ception
v er
ap ache
Ġ b
Ġr eturn
i d
c k
Ġ v
n d
ul l
f i
er t
Ġi f
v e
Ġ st
l ass
ro w
N ame
Ġ re
e y
a m
c o
i e
c h
i z
u m
u p
a s
in al
y pe
a ge
0 0
t o
" ,
i le
ec t
P ro
p ut
x t
ri v
t er
Ġ String
o de
Ġ @
e d
Ġf inal
Ġth row
riv ate
Ġn ull
Ġp rivate
Ġ T
al ue
() );
L ist
o id
Ġ m
() .
g er
ar t
s et
i me
D e
Ġv oid
fi g
ul t
u n
) );
ac t
e n
Ġ j
o t
I d
ass ert
at a
Ġ S
L o
Ġst at
s p
T ype
y te
r y
q u
a se
te d
me nt
e st
Ġth is
Ġc on
b j
B u
Ġ o
" );
Ġ get
c on
a v
Ġstat ic
ĠĠ ĠĠ
f f
Ġ I
Ġ< /
M ap
Ġe x
Ġ in
Ġ A
iz e
l d
Ġthrow s
t h
av a
bj ect
K ey
s er
Ġ 0
il d
F ile
an d
S er
c t
on g
Ġ int
Ġ d
te xt
i ve
Ġ assert
O bject
at or
T est
re am
p er
r a
p o
h ad
or e
f o
q ue
oo p
at h
() ,
) .
al s
g n
Con fig
b u
Ġc o
Ġ l
Co l
or y
a in
T o
Ġ C
le an
u nt
p ro
i tion
er s
M e
ce ss
Ġj ava
M et
o w
had oop
ss age
s c
n ew
N ode
qu als
at ch
E R
ac k
oo lean
s o
k ey
l u
r ue
Ġ w
i r
s ult
re ss
Ġ 1
Ġp ro
ur ce
re ate
i te
() )
V alue
o d
e l
O ver
B yte
St ate
ur ation
[ ]
Ġf or
ild er
i al
ri de
ame l
Over ride
um n
Ġ L
ie nt
c lass
Ġ !
u re
Ġ P
D ata
c tion
an ge
St ream
as k
Ġ= =
Con text
O N
ut il
or d
) ,
ie ld
t ain
te st
po int
o ck
Co mp
l ient
l in
o b
que st
T ime
c he
ra y
S T
ic e
al se
ad er
ri d
m m
on e
In fo
S et
an ce
g ion
Ġ H
Me ssage
s h
ff er
re ad
E quals
I N
U t
re nt
Ġ! =
r ray
R E
lo ck
v ice
a st
a ger
ac e
Ut il
) )
or m
gn ite
an ager
Ġb oolean
Ġ .
e x
T able
C lass
Bu ilder
I D
so urce
Ġt o
Config uration
st r
O Exception
F ield
C ache
I nt
al l
Ġ h
Lo g
art ition
co l
Ġ :
p t
ut put
it h
u s
Ġ G
ri te
Ġc lass
M anager
c ord
e xt
lo g
it y
act ory
p l
E n
st ance
\ "
P ath
nt ry
e m
ar g
nd point
lo c
de x
S ize
an n
T I
sc ri
Ġ Exception
n ame
ial iz
Ġ Re
M E
Ġl ong
ar am
In te
tain er
l l
Col umn
O G
ch ange
St at
m o
Inte ger
Ġ *
F actory
Ġ Object
ur rent
p lic
c amel
f a
l se
p ert
Pro to
Ġ M
A L
i re
p r
Ġf alse
In put
Re quest
r an
Ġassert Equals
he ck
Ġe lse
b ase
ro m
i m
t y
Ġ de
p ec
d u
sp on
Ġ List
i o
Bu ffer
L E
U n
Ġ B
Ġ test
S e
spon se
p ress
ec tion
o ut
Ġ -
as h
Co unt
Ġ &
in d
u te
g th
y st
C h
st a
Byte s
A d
Ġ key
Ġs et
Ġi s
ro up
cess or
c ted
v al
Ġ D
Ser vice
ie s
yst em
Ġ R
ĠI OException
ect or
r ic
ve nt
lin k
lu st
T E
l et
f s
Ġt rue
lust er
ate d
00 00
k en
> >
nd s
pro to
ar n
a x
Ġ F
ĠL OG
y n
h base
Re gion
t t
Ġex te
n ection
St ore
h od
s ize
te cted
T h
Ġ se
t able
Ġb u
c reate
Ġv alue
il ter
Ġpro tected
J ob
Util s
le n
Ex ec
i f
P o
plic ation
fa ult
co mp
Ġt ry
a re
T ask
C lient
Ġ arg
Col le
press ion
Ġ& &
" )
ĠĠĠĠ ĠĠĠĠ
r or
n er
er y
Pro pert
O utput
Ġexte nds
Q u
A rray
O per
Ġc reate
ss ion
Int er
E ndpoint
ran s
N ull
Lo c
Ġ V
v alue
Ġre sult
a g
h er
th is
one nt
a il
le ment
o m
s um
pt or
D E
n al
A p
Ġc atch
e s
orm at
Ser ver
" ;
f t
O f
en er
O R
Ġb yte
r ap
Con tainer
len gth
R ow
f link
De scri
ĠG rid
p ort
i p
co mm
g ist
W ith
or k
A R
P artition
E vent
ss ert
mp l
0 2
pec ted
Re source
Re sponse
up er
H e
up le
ack age
Ġ 2
F or
c urrent
o st
Ġ u
E ntry
Ġ g
W ri
Ġ Map
a y
In dex
Re cord
pe nd
G roup
Re sult
S che
Ex pression
Ġ a
q l
N ot
b er
H and
Colle ction
un ction
Ġ U
N A
w rite
bu f
B e
Ġ( !
ric s
Ġn ame
i g
ar y
Q ue
Ġt he
P re
Ġt able
B lock
< >
L ong
Que ue
Ġ File
o p
S E
Ad d
Ġm et
Ġp ackage
Ġ ?
m a
Con nection
ac tion
Ġs er
ĠA rray
Ġco l
l er
s on
ializ er
D ir
Ġcon f
Ġ O
un it
N um
Ġ me
lo se
A C
i gn
d ate
t ype
Stat us
P aram
Met hod
Descri ptor
ire ct
fi le
sum er
A nd
m et
c ache
Met a
Con f
unt ime
T rue
to String
Me m
i fi
A r
o urce
ap pend
Ġf ile
a f
p re
ow n
ter ator
sta nt
st art
k er
ut ure
ann el
< ?
Ġ _
F I
u tion
Ġco mp
+ +
In stance
Ġ log
T A
Ġ |
Ġs uper
k e
Ġcon fig
c er
O n
i gnite
Ex change
A c
To ken
o f
mp ty
V er
C heck
tt p
Ġc ache
Ġt ype
K E
mo ve
lin e
Qu ery
comm on
Co mm
am il
R I
l an
o u
p ic
TI ON
e quals
proto buf
l y
j unit
ers ion
Ġo ut
S up
B ase
Ġc ase
f orm
u ment
F ormat
int er
ĠA ssert
ate g
F A
n ull
le ct
R O
oo l
bu g
H el
Ġn ot
Ġ >
Ġn ode
n ap
str act
od y
in fo
U p
S I
Ġd o
ff set
V ersion
Ġin stance
S h
Ġ add
e p
et er
F ilter
NA ME
ge ner
con f
m in
U L
te mp
t r
Ġ J
h ive
yn c
ĠI gnite
it er
il l
Ġ N
sp ace
Log ger
ap i
ad ata
sh ot
able d
amil y
nap shot
in k
ub le
u ct
t x
Ġd ata
Ġin put
Ar g
Con stant
A l
Ġn um
U T
Ġc h
E r
C luster
ri ft
v o
O r
du cer
" ));
L e
ast er
L I
Hand ler
Pro cessor
get Name
Ġ W
S ystem
Propert y
Ġc heck
00 0
N T
Ġb e
F rom
p ar
O ption
( (
f inal
d ul
Ġ Integer
ut or
t rue
loc al
F unction
co de
C ON
mp le
Proto s
Co de
De fault
te x
Loc al
ĠArray List
G rid
Ġ ver
C all
Ġco m
ser ver
M A
lo ad
ash Map
A ll
Ġ row
Exec ution
- -
o in
pr int
L O
Ġe n
C O
Add ress
Er ror
P er
b e
Ġt ime
sta mp
S c
Ġ| |
o ute
ri bu
if y
iz ed
m l
lement s
n ode
Ġf rom
ar get
m ock
Th read
rap h
ĠC lass
s ion
Hel per
T Y
ĠS ystem
Ġs h
in e
h t
C E
re e
s g
F uture
ap p
Oper ator
U E
A s
re sult
Ġst art
KE Y
ĠT h
ro ker
Ġassert True
ĠT est
U ser
ile d
Constant s
Oper ation
Ġinstance of
Ġ 3
pl it
Ġv al
er ror
st ream
Re ader
u se
th rift
b yte
M ode
ateg y
Re gist
Ġex change
n ext
con fig
I terator
Ġj ob
A t
Met rics
C amel
Ġp re
lo t
H E
Ġ( (
her e
g le
ck et
A D
Ġ{ }
ou nd
a k
ĠP ath
Ġ E
le g
Mem ory
S S
Ser ializer
Byte Buffer
1 0
Lo ck
or age
ĠL ong
S ub
En abled
P E
w ork
A T
lo w
Propert ies
Ġ on
T r
Ġ '
He ader
IN G
lic y
pe n
oo gle
L en
a ir
Ġ K
e nd
k a
b ack
ind ow
f in
ifi er
" ).
A N
temp t
1 2
que ue
Ġcon text
Re ad
T rans
d ata
Ġo f
Comp onent
S ource
M ock
Ġme ssage
g re
a it
I OException
val id
Con sumer
D is
Ġ Collection
dul er
++ )
de bug
P ar
de nt
Ġcol umn
Input Stream
E mpty
B LE
u st
u ri
g oogle
o ld
Ġc lient
T uple
ul d
UL T
or ted
p c
Ġst ate
R un
he n
tain s
Key s
Wri ter
a rent
Ġw h
l ist
Field s
b stract
Ġ k
le d
st ore
M P
et ers
= "
G et
h as
del et
pro cessor
d b
gre g
re ak
a iled
Str ategy
m ap
ĠS er
B y
p y
B ody
Ġt ask
che ck
o s
f alse
() ));
En v
ut h
f er
Ġf ield
F amily
ation s
St art
Ġimp lements
Ch annel
Exec utor
Proto col
o v
Ġ an
FA ULT
ar d
act ive
proto col
assert Equals
Num ber
at o
sp here
P ort
" ),
c lient
Ġb reak
ato sphere
Ġex pected
Ġi d
Ġ al
Ġm ap
str atosphere
du ce
ĠT ime
S ER
o uble
Ġst r
let e
Ġe u
Ġre gion
Ġre ad
id er
pro t
Ġm ax
z one
r on
i b
m it
Ap plication
c lose
ar ator
U ri
Ver tex
gener ated
f g
Be an
ot her
ro ov
roov y
m s
c cess
Ġex ec
g r
0 3
U ID
af ka
ir on
t ime
co ver
g ment
iron ment
G ener
r c
r untime
G E
fi x
. *
qu ery
ri g
de d
] ;
0 1
F S
ic ation
up date
ex ec
ve l
Un it
A TE
t ask
m i
so l
V al
con tains
Met adata
en ce
n ce
Regist ry
Ġwh ile
Type s
Time out
f ace
ab el
/ /
i ver
Ġre quest
M I
lo b
R oute
Po licy
in put
d er
I gnite
comp onent
Ġ ro
l n
St orage
st in
Ġs c
v ider
Ġe ntry
ĠI nt
<> (
Ġ Data
. ");
S ec
I mpl
ex pected
Wri table
y arn
Ġl ist
Ġ" ,
inter nal
Ap p
Z E
and ra
Ġ Comp
ass andra
Arg ument
Ġ In
ann ot
Ġint er
Ġp ath
get Value
Ġo utput
print ln
ing s
o uld
Key Value
ter n
ribu te
Sche ma
O ut
M aster
n et
ic ate
p ath
and om
N ext
U M
Comm and
> ();
S napshot
bu ild
Ġw rite
mpl ate
W rite
a ri
delet e
Ġu ser
P ool
De sc
r up
col umn
a z
s ub
() ).
.* ;
Output Stream
> (
yn ch
<> ();
At tempt
Name s
stin ation
E nt
S p
\" :
N O
ynch ron
s u
i ew
oo t
B oolean
Ġp aram
c y
Ġ %
Ġ 4
t ro
Ġc urrent
S u
j ob
V ector
in ary
at tern
Se ssion
L A
Ġ Job
Len gth
e ld
V AL
: //
co unt
fi eld
mo te
ial ize
Ġr un
uri ty
Ġin dex
i mple
Env ironment
T ER
g rid
Ġbu ilder
Ġde fault
ri ver
Ġs che
a w
leg al
d irect
ock et
\ \
ct x
el l
l legal
atch er
1 1
<? >
Ġp artition
ĠS et
List ener
to m
Ġ 5
C T
ar k
d s
ir st
S pec
c lu
lan g
Pro vider
To pic
D ec
ann er
pl y
sp ector
fin ition
con text
se d
e nt
c assandra
N o
j ava
Option s
re move
02 2
Ġs ize
U R
f ore
O P
ar sh
ĠT ype
Ġ un
M ax
ĠH ashMap
ĠM ock
Ġ he
u ser
S plit
Ġ Stream
p orted
e e
Ġco unt
SI ZE
Ġs ub
lu me
O ffset
Ġin it
Loc ation
p s
S C
d ition
Sup port
Up date
a ve
Not Null
Con ver
mi ssion
re cord
S lot
Ġf s
r ame
Pro ducer
ĠTh read
Ġr et
Ġ Configuration
R ange
ĠC ache
l ong
an age
h ost
tom ic
Ġser ver
ri ter
Po s
form ation
G raph
is Empty
D irect
c re
a use
A tt
Ġbu ffer
in dex
f ormat
Con n
D I
p artition
Lo ader
w er
Ġc all
Ġw ith
ĠT able
Ġ at
b l
qu ire
s ure
s l
pe d
p aram
ic s
ĠH ive
Ġe ndpoint
f or
Ac cess
De l
ct or
r et
e ntry
V E
d fs
H ost
Ġarg s
con current
Ġm ock
Ġp ar
Ġc tx
d icate
u le
Ġcon tainer
st ate
A ss
get Key
m q
Ġjava x
Stat s
gist er
Ġc luster
ce ive
oo k
g in
Ġ- >
Ġb lock
I s
Ġ le
Ġp art
x y
. .
re gion
De finition
File s
B atch
Ġ )
Ġl ast
D at
F ailed
g greg
get C
W ork
loc ation
c l
T x
pr eter
Node s
Ġ te
get Class
Ġst ream
ynchron ized
is it
ri es
cover y
ializ ed
R et
Ġ ab
me ssage
te nt
T ext
DE FAULT
are d
r un
se nt
T e
ct ive
Time stamp
Ġre cord
er ge
ran sp
Ġs b
= =
Q L
Ġre sponse
ĠInt er
lu sh
V ER
sc he
ĠĠĠĠ ĠĠ
n um
In spector
arg s
TY PE
} ,
J son
ĠT uple
Ġt rans
A TION
) ));
Lo ad
Ġst ore
ransp ort
ĠRe source
J oin
ĠI llegal
scri ption
par se
Ġ app
row able
ce d
le ar
m y
l is
O L
R eturn
im it
Camel Context
f ter
Ġs ynchronized
fer ence
get Message
Ġ Un
Ġ Message
rup ted
F ail
Ġr m
U N
po s
il ity
T H
P art
Le vel
u d
E lement
h ttp
up ported
Ġ queue
Param eters
Meta Data
Pro cess
G ate
Ġre s
Ġ ac
ser vice
P age
o lume
Inter nal
Ġ \
S ocket
value Of
P ri
w ith
it o
Ġ} ;
H ive
R M
at al
o l
con n
ab ase
Ass ign
Ġ Bytes
Ġ} );
B ack
Ġ ByteBuffer
d own
Ġcon nection
M S
V iew
Ġco mm
que nce
n ot
M o
M ill
ot al
" ))
A ssert
Met ric
ST R
TI ME
po log
In it
co m
g fs
re quest
m ax
W indow
Ġpro cess
Ġtable Name
Att ribute
active mq
se nd
ad ers
Ġmet hod
As ync
ĠA bstract
Ġcon n
i pe
Null able
polog y
Comp arator
State ment
ut able
O p
e b
C ell
ĠĠĠĠ Ġ
F F
Y arn
x ml
Check point
Ġf ail
ar ch
tr act
d ir
Ġf ilter
in it
Conver ter
Count er
H ashMap
s wer
j ect
ced ure
Ġt arget
Ġconfig uration
Ġ ap
ON E
lo at
P lan
an ode
] ,
A ction
Ġfinal ly
M ult
Ġh as
U P
()) )
te n
Ġsh ould
se c
u al
qu al
C reate
o g
ĠGrid Cache
Inter face
D B
ll er
re source
3 2
ce iver
Ġn ext
lect or
Ġ Log
ut down
Direct ory
Ġc l
ap ac
a mple
s ing
De lete
00 1
L OG
M Q
Ġ or
at er
P AR
get In
C ase
Ġm sg
Byte Array
Ġ Con
H ash
lo sure
Colle ctor
Ġme m
me m
In formation
] .
Ġ+ =
C H
h a
O UT
VAL UE
d is
Ġ Column
E nd
LO C
A ggreg
k ip
Type Info
A P
it ies
tro ller
if ication
File System
ust om
P air
Re port
Sche duler
Ġs ource
id ate
r ing
02 4
c luster
ĠĠĠĠĠĠĠĠ ĠĠĠĠĠĠĠĠ
st at
Bu cket
g ing
Be fore
ac h
M in
ĠB oolean
W arn
Ġ1 0
V ar
MA X
Ġ update
H ttp
Mill is
ist s
rame work
A ut
f oo
Ġin fo
S H
al le
Re plication
ack er
n own
vo ke
Ġver ify
Ch ar
ĠC amel
k afka
n ing
F alse
m d
apac ity
Ġ and
Ġs u
s had
Region Info
t rans
f rom
ass ign
c p
config uration
w arn
Ex pr
Table Name
shad ed
con tainer
Str uct
TA BLE
Ġc f
ializ ation
o te
ink ed
atal og
at ive
s To
or ity
p ing
sp ring
e er
un k
Ġt x
ap ter
Ġ as
Ġre source
Ġo per
Argument Exception
B roker
De stination
s ist
E d
Ġ 6
ĠT ask
[] {
old er
Ġ other
Re f
U RI
Ġth at
val u
str ing
Ġ [
Ch ild
P ER
Ġ z
ĠCollection s
w ord
Or der
ption s
] );
Ġstr uct
Ġ del
Sup press
w it
Ġd b
le m
Ġex ception
-- --
Ġo ld
Ġd is
Par ser
Ġ Logger
cre ment
L ine
at ure
Ġ q
. ",
D own
Ġpro pert
Se gment
b oolean
Ġ" /
in stance
Ġen v
Ġse ssion
le ep
) ).
L abel
Pro cedure
ceive d
Ġ local
Ġo ffset
Ġab stract
et ch
D S
I dent
ex change
m ary
c ur
A bstract
p art
Ġ error
Ġte mplate
Ġ Z
Pre dicate
R pc
S ink
T R
ĠD E
Ġ );
f ramework
In valid
ist ics
Pre fix
rupted Exception
clu de
T ag
Warn ings
g roup
Ġdo uble
at che
ipe line
o c
m anager
N E
Param eter
Ġto ken
ut ation
Trans action
T O
Array List
get A
Ent ity
W rap
f ilter
X ml
ser v
iter ator
ar ray
Mock Endpoint
Object Inspector
Suppress Warnings
t in
common s
get S
ress ion
Ch ange
le ction
()) ,
B inary
Ġp ut
Ġw riter
Ġre ader
comp are
Ġmet a
9 9
a ke
Ġi o
assert True
let ed
Q U
str uct
P attern
to pic
l ast
H Base
Ad min
sol ve
ST able
1 4
Value s
R oot
it Set
end ing
C tx
bu ffer
Hand le
Ġ Key
C nt
e g
U UID
de fault
P RE
Sc anner
2 0
FI LE
I O
Ad apter
Ġ> =
get Type
Pro xy
T ree
I f
Ġe vent
> ()
1 6
as List
untime Exception
Re ference
table Name
bu ilder
St op
processor s
Ġm in
e ar
tain ers
g roovy
Tr ace
Val id
Ġcon sumer
Ġb atch
Ġe nt
ee per
to ken
iz er
Ġe nd
im al
ed Exception
te m
I ter
N on
get Bytes
lob al
ur l
Ġan swer
d ing
AC HE
ic al
E L
Name space
Ġse nd
Ġ query
ĠS che
D ouble
i v
ĠS e
i ss
Ġh and
Ġ{} ",
ĠC h
s or
A fter
e lem
o per
Ġre move
rig ger
ĠA p
Ġi t
D A
m ain
M od
Ġ Container
i er
ser ializer
pre c
P RO
re n
F ound
F s
he nt
r int
Ġg roup
ist ribu
su ccess
or ed
ce ll
w ay
Ġ KeyValue
pl ace
Ġ Execution
1 5
ĠĠ Ġ
A n
exec ute
ver t
ctive MQ
iz ation
to Bytes
value s
Per mission
get P
anage ment
le ase
Ġbyte s
D FS
A GE
m b
A M
Pos ition
Ġi ter
local host
0000 0000
Ġ Default
he d
1 3
c all
Comm it
Check edException
sec urity
Ġ ad
met rics
ĠA tomic
Ġh ash
in is
A uth
re d
ff in
me d
ffin ity
pro cess
Ġbu f
\ ",
03 0
ifi ed
N ew
Ġ \"
( _
> ,
Stat istics
o utput
A ST
ser ialize
w ait
Call back
Ġo p
De bug
Test ing
mit ive
ĠIllegal ArgumentException
er r
ab ility
Ġp age
E X
Task s
ing le
loc ate
it Field
Ġ /
Ġs plit
A v
C lose
k nown
ass word
l it
E N
Ġf irst
im um
ib le
Ġconfig ure
" .
re sh
Wrap per
Ġver sion
c c
in c
r l
Ident ifier
LO W
Ġc lose
ro u
Inter val
rig ht
MI L
Tr acker
S P
b o
ot a
ĠR oute
has Next
Ġw hen
Se quence
RE AD
Arg s
Ġp er
s With
at is
re gister
ad oop
s upported
ast ore
d at
Test Support
Ġser vice
Ġ Builder
t ing
b lock
L ast
sol ver
act or
sl f
Ġ{ @
e mpty
E ST
im er
Id s
wit ch
Descri ption
S ql
a nt
C l
c lear
stream ing
D ate
ĠP act
: "
Region s
ig ht
get Configuration
gn ore
sp lit
Sp i
let ion
K eeper
Ġi prot
V olume
< /
SI ON
F irst
Ġ all
e ndpoint
ĠH ash
Conn ector
alle lis
TI L
_ .
allelis m
Row s
o pen
Ġp arent
c f
t arget
db c
Ġnum ber
annot ation
U rl
Ġ" .
UR L
Partition s
st able
ha us
Ġ x
ializ able
p act
} );
code haus
Ġ+ +
Ġ lock
co py
Ġc fg
Ġto pic
Ġc ur
current Time
i a
L imit
ĠArray s
Ġvalue s
Ġex p
Ġ up
st op
ag greg
Ġo bject
C ACHE
( \
3 4
i de
P act
ari able
Ġmet rics
In vo
ĠP re
gr am
util s
Column s
Fail ure
Array s
j o
Comp action
Ġlog ger
af e
I T
SE CON
Sc an
Ġch ild
++ ;
ĠS QL
Ġt otal
Ġpar se
E D
h dfs
i x
arsh all
co pe
ro p
ĠT o
s ql
Ġp ort
W AL
Ġc amel
Ġp o
ĠB itSet
C re
En um
ĠT EST
FI X
arsh al
OR T
Ġ delete
t hen
Ex p
Ġexec ute
B U
Ġb roker
M atch
g ress
Re duce
Ġt mp
Ġu se
Ġ length
Ġcomp onent
g ain
s leep
quire d
Ġ 8
u id
pre sent
let on
1 7
con dition
Ġtime out
LI C
Inter preter
Ġ Node
Po int
ĠDE FAULT
Ġ Exchange
D river
Ġh ost
at ing
col lect
6 4
Ġf ind
m t
R ule
1 8
c ast
' ,
p are
DI R
be an
Ġst op
P ut
Column Family
Ġassert NotNull
get Re
S K
Map per
Ġo prot
Se nd
1 9
St ack
ĠG ener
o bject
St and
Ġth read
fi r
ĠString Builder
et work
byte s
CO L
T he
w rap
De leg
ic tion
o zone
Test Utils
p arent
C RE
Ġassert False
i mpl
T arget
prec ated
Qu ota
Table Descriptor
co ding
r s
Ġ" \
Debug Enabled
Ġ load
loc ated
ce pt
Ġt bl
new Instance
P O
et ty
c ore
lu gin
) {
ĠD ouble
grid gain
m ark
Ac l
en cy
Ġ1 000
ĠT ext
Con tainers
e ss
s age
Ġch ar
Ġ1 00
currentTime Millis
ĠR untimeException
is DebugEnabled
h and
Q UE
Ġ< =
h ash
Ġp os
entry Set
Grid Cache
Re plic
5 6
STR ING
M sg
w ner
Ġ Processor
P l
Collection s
l ap
(" /
n able
is Set
On ly
ĠĠĠĠĠĠĠĠ Ġ
e vent
I C
Ġpre v
D et
Re move
ĠI terator
fa il
ĠL inked
Gener ator
lo y
ĠTh rowable
record s
Ġf ailed
F O
Not Found
al c
mo del
TE ST
l ag
Record s
2 2
V is
Route Builder
Ġtime stamp
Service s
Message s
main ing
> )
s ync
D b
L atch
Ġu ri
et Address
sist ency
Ġp ri
5 0
0000 00
A tomic
T ransport
To pology
ance l
serv ation
ĠB lock
Te mplate
oo Keeper
1 00
O T
M s
s rc
Ġpro ducer
met hod
Ġro ot
pl ier
ri e
Y TE
Ġ1 024
conn ect
He ap
Ġ RE
um my
SECON DS
O pen
par k
Ġb y
comm and
log ging
lic e
Ġre q
O bj
met a
an y
Input Format
pr ing
ĠRoute Builder
E NT
P eer
Ġs rc
Sec on
{ }
Ġs witch
M O
Av ail
U sage
ĠI N
Ġb ody
Ġo bj
IN T
A BLE
pro pert
H adoop
Ġbu cket
Con troller
Re st
Re solver
p atcher
ĠTime Unit
Ġ Meta
ĠU ser
yn am
He aders
sp i
Ġparam eters
ver sion
then Return
C fg
Ġi gnite
p loy
tin ue
anage d
Ġo ptions
NotFound Exception
ord er
ind ing
ĠIgnite CheckedException
Ġt r
0000 000
ĠHash Set
e per
m sg
Ed ge
A ud
act ual
O zone
D O
ĠR ow
ĠInter ruptedException
I tem
re f
EL D
FI G
tr ace
Mo del
s ert
n cy
j oin
Ġbu ild
en v
ĠR M
Executor Service
* *
Con dition
3 0
Con tent
R A
ĠRe cord
Ġ} ,
sh ort
ile ge
riv ilege
pe lin
ke eper
ep pelin
so lu
get Id
T T
fir st
arshall er
Ġ ss
hent ication
F lush
Resource s
Ex ten
Ġpro cessor
O pt
l f
n s
j ms
Ġb ase
Ġs napshot
Ġro ute
v ector
get Path
Ġ loc
Co py
N UM
ep he
Gate way
Id x
R andom
f unction
U TIL
get Table
Dec imal
atche s
M Bean
time out
CO MP
condition s
ĠRe sult
iter al
Del ay
art be
ul ator
able Future
AN CE
ers ist
it or
Assign ment
Ġsche duler
Ġch annel
a u
Su ite
Th at
\", \"
L U
Operation Exception
Re l
NO DE
v isit
it s
ri pt
get Property
pl ay
Node Id
U se
Dis covery
ephe le
Ġb ack
artbe at
DA TA
inc ip
l at
get Region
Ser de
Ġinter face
Param s
A ck
type s
Th rowable
istribu ted
Re ceived
ĠS imple
J ava
oo keeper
Dat abase
M IN
ĠH Base
a uth
ĠC lient
. <
Ġ []
Ġ Query
ay load
Ġkey s
Ġcomm and
C apacity
D F
Block s
n ow
ari son
Ġw ork
FI ELD
Map ping
ice s
N D
CON FIG
Ġw ait
Run ning
Ġstat us
v let
Mult i
( '
ĠH ttp
RE S
Ġd river
S STable
OL LOW
Ġmet adata
p b
le cted
\": \"
R o
p age
Sh ort
I gnore
Ġ Field
Ġ Yarn
p air
Ġex pression
ĠSQL Exception
check ed
Ġf ound
LOC K
ec ted
E S
Ġcon tinue
PRE FIX
ex p
s n
, \"
tro l
e ature
ĠUn supported
ff ers
ig h
Ġj oin
G I
De f
b roker
Dat anode
du led
let ableFuture
2 3
Sche me
OR Y
spring framework
w are
Test s
SE T
Number Of
Run ner
Ġ Buffer
c ry
TE D
ce ptor
ire d
Re mote
mm utable
ĠSer ver
Ġap plication
Var s
Ġ gener
Ġid x
struct or
ail s
O ff
ĠSer vice
Class Loader
LE CT
t a
ĠFile System
ro ot
Ġ Connection
d ds
b ar
code d
met adata
ava il
lean up
U NT
ĠP artition
orm al
ĠN o
incip al
ĠS h
e k
ex pression
Ġresult s
ateg ory
az z
Ġ" -
MP TY
or ld
Ġd ir
un checked
A b
Ġc ctx
V I
Column Vector
em on
ynam ic
ĠJ son
r ation
j son
de f
k able
Ġ De
S U
ar ted
Sp ace
UT F
>> >
S atis
d o
i as
ĠTo ken
Ġparam s
ĠO zone
.. .
j ection
Stand ard
Ġ cell
C losure
sing leton
solu te
el f
D oc
Ex pected
Con st
a emon
con sumer
B YTE
Ġpropert ies
M utation
Un known
get Default
Ġde st
Ġ am
Ġle ft
AL I
o me
ie nce
F ull
Be gin
ĠAp plication
M B
gist ry
Ġre gister
Se lector
A SE
C urrent
ch annel
) ),
get Logger
On e
ra int
Ġ len
ĠS ql
S ON
Ġsche ma
Ġto String
Ġk v
ult i
sp ark
con d
Gener ic
Ġcheck point
00 2
arn ess
or re
ĠC luster
oper ator
il er
compare To
lo om
ĠUnsupported OperationException
Con tract
Ġd at
n ephele
P AT
Ġs pec
Ġ Expression
io us
i als
row s
Ġsc an
A S
S imple
Attempt Id
and idate
Ġ right
Method s
S elf
b itField
ĠGener ic
Ġde sc
Ġg rid
met astore
m at
Ġ X
Ġ assign
Te mp
R untime
ĠD at
w riter
Ġw as
ĠU UID
ord in
File Status
ra in
P C
Ġcamel Context
UM N
ĠU RI
contains Key
Ap i
ĠO ption
as ic
A X
G ER
send Body
3 3
De precated
ap t
o ffset
Ġfile s
scri ptor
ME TA
) ",
Ġexec utor
Hel lo
e ed
re duce
H ist
Par allelism
n o
Su ccess
u ff
Ġad min
P arent
Conf Vars
he l
Bu f
Ac cessor
ĠS c
ch ild
AC E
MIL Y
F inis
O B
Stat ic
dent ials
con nection
) ");
sh utdown
Ġarg ument
b ind
Ġan y
f ind
P UT
= \"
d d
m arshal
al an
8 0
ce nt
ĠV ector
H I
Ġd irect
CRE ATE
Co processor
RO M
avail able
Ġpro to
Ġ actual
Ġs p
D one
Comp arison
ĠRe gion
y s
Ġ are
ST O
: :
m od
Aut o
o us
W ait
} ;
Ġr s
ch ar
LE D
Ent ries
t ribute
b server
Ret ry
Ġh ave
2 4
he ader
ser ve
mem ory
Uri Param
D i
Stream s
Ġ Value
Al location
Ġser ial
Pri ority
Qu al
dul ing
ig inal
[] >
I L
an g
o ver
Aggreg ation
Comm on
c fg
Port able
Ġs lot
Le ader
Ġmem ory
Sec urity
w o
Task Manager
ic k
State s
ge st
eg ate
Ġ Method
SS L
Ġh ttp
Ġz k
e mp
Group s
Label s
AL L
r eturn
se ssion
ĠA ctiveMQ
' t
l ation
ĠC heck
T otal
ex ists
ĠR andom
Pri mitive
t s
SE LECT
b atch
S uper
Ġ y
Server Name
State Exception
sion Registry
g ine
Sup plier
Aud ience
Satis fi
' );
UL L
Ġval idate
Version UID
E v
Ġget MockEndpoint
Interface Audience
Ġf ut
up port
new Builder
Ġr ange
Ġ 7
Ġhe ader
i ate
re sponse
S um
Self Test
ĠTime line
ul k
Ġserial VersionUID
d ouble
Ġfor mat
Ġpropert y
n io
r incipal
Pro gress
ex ception
Ġsu ite
Ġco py
un c
get Instance
DE SC
ĠIn valid
H arness
bu cket
in es
Ġw indow
Ġs upported
G roovy
b ook
nd er
ST ANCE
Ġap ply
on itor
al locate
ME M
not ation
2 5
Data Format
Ġc an
az y
s ive
pos ition
Ġ lo
TA IN
Config Keys
CO UNT
P LIC
form er
net ty
CE SS
Util ities
S ign
Ġto p
p ri
x f
Ġm o
mock ito
Ġn on
S ingle
get Header
LA SS
u mp
ers on
i od
Ġ Storage
ĠG et
ser de
iver y
rup t
TI TION
Ġt uple
r m
se lect
C ustom
Store File
Ġf uture
t mp
key space
M erge
Ġj j
Ġ State
Ġ aggreg
g h
Stack Trace
AC L
z ookeeper
ĠM y
y nt
R S
Result s
get Int
Ġin voke
ĠSe ssion
AC K
Ġre ceiver
sche ma
get Log
RO UP
Ġf actory
1 000
9 0
ĠĠĠĠĠĠ Ġ
S pring
get Row
de st
Sec ret
c um
c ation
Ġv isit
_ ;
T RI
m atch
Ġassert That
\\ /
C K
Ġcomp are
Avail able
ar ing
Ġf amily
Col s
ib ility
TIME OUT
Path s
Ġn ow
ĠB inary
Det ails
Ġ Operator
ĠT rans
v cc
RO W
Ġ( "
S cope
)) )
Ġdo es
Ġe d
Ġre mote
Ġ{ "
for ce
t ings
ĠComp letableFuture
En coding
Ġt ag
Ġstr ing
Ġm erge
Ġde stination
Add r
add All
ĠF S
Ġi terator
get Container
get Field
re solve
Ġoper ation
Ġnode s
r andom
Ġre f
Output Format
s napshot
Ser vlet
set Property
ag ing
ra nt
R aw
i se
Ġm atch
Ġq ry
T Type
Ġm ust
Satisfi ed
M L
I P
ĠCon current
Ġver tex
le ft
I G
C LI
Ġ temp
Ġinter nal
Socket Address
ER R
Ġent ity
IN TER
P ORT
aw s
Request s
as l
l abel
Ġ text
valu ate
low ed
ĠLogger Factory
ĠI O
f amily
_ _
Message Count
St ub
k s
w eb
Pro file
Min i
Pro ps
H ER
set Header
Ġfield s
Ġex ist
Mult ip
ap plication
g or
get Data
OR D
STO RE
w hen
IN FO
G gfs
Ġn o
Ġr pc
Con trol
ĠMock ito
ub lis
O wner
ĠF ROM
Ġpro c
---- ----
C F
Ġ Event
ĠA l
Ġe xt
ge n
4 0
b y
t l
ro ute
Ex ists
ation Token
o k
Secon d
AR T
Ġhand le
o ff
add Test
Server s
read y
ĠM in
Ġ KEY
in crement
start sWith
service s
Ġo ff
sche duler
re st
I S
Dis k
C atalog
ress ed
U SER
getC urrent
u age
Ġc ode
Ġ" '
PAT H
ĠM ath
sub mit
FA MILY
B ER
Block ing
g raph
hash Code
get String
Ġ" (
Ġrow s
F OR
sub string
Hash Set
Group Information
Comp act
ex ample
S QL
c s
stream s
Ch unk
fin is
m erge
is or
f lush
B inding
Ġoper ator
C LASS
resh old
Ġval id
Ġa uth
ST A
AT OR
m aster
ĠPre conditions
Ġf unction
comm it
b ody
Ġexte n
r pc
con vert
Attribute s
is ion
Ġ Local
d ated
Ġhe aders
get Resource
<? >>
i ted
O FF
Ġv olume
ock er
a un
(" ,
Mo ve
B ASE
gor ith
L IN
get Job
B lob
om ic
he ll
Process ing
o bj
S ync
ic t
Time line
Ġ" );
ĠT ree
Ġe v
Ġa fter
iss ing
W eb
3 7
V ariable
Ġpro ps
Event s
Ġexec ution
resource manager
Ġp rint
F loat
Connection Factory
Ġ Properties
m anagement
T rigger
P ersist
Ġ Memory
Ġw ill
class ification
E MPTY
bo x
ĠT ABLE
Ġdb Name
= '
scri be
ave point
ap ply
get Local
U S
al e
A ware
Logger Factory
IN STANCE
Ġ Count
f l
t p
Ġ1 2
HER E
G lobal
key s
Ġ ByteArray
ordin ator
MA P
Ġp ending
Ġv ol
Ġre port
con ds
ĠTable Name
C annot
Ġcomm it
Bu ffers
Invo kable
re place
H O
P ipeline
ĠColumn Family
5 5
Ġn ote
Ġl ine
t d
Ġj son
Ġ us
E qual
ĉ ĉ
Expr Node
ploy ment
D uration
ĠW orld
Comp lete
ĠR un
ynt ax
Ġh ive
Back end
lu s
In etAddress
Ġmet ric
l i
gorith m
re s
s afe
c le
time stamp
Ġse lf
et SocketAddress
(" \
pl an
9 6
P B
ĠCamel Context
Ġ Byte
ver ify
A ctive
Del im
al ance
Key space
P h
ĠIllegal StateException
alan cer
RE GI
get Endpoint
m x
ERR OR
Su ch
now led
getA b
Ġset up
Ġassert Null
For Testing
Ġp ool
AD ER
Tag s
A ffinity
Ġ qu
A ctiveMQ
P ending
Ġ url
7 8
ĠK afka
Partition er
M arshaller
F ind
C S
ĠC ell
F actor
C ategory
ĠC ON
State Handle
ĠW HERE
co der
Thread s
O F
Ġse gment
Input Split
Ġm aster
F E
su me
Object Field
Deleg ationToken
ĠG roovy
F eature
Mock ito
C ur
Gener ated
Ser ializable
Thread Pool
P rivate
RI TE
ĠJ ava
as et
ut o
Ġm od
2 6
<? ,
ater mark
getAb solute
all y
02 0
Master Protos
Ġs kip
Ġ Config
T imer
Ġs stable
TAIN ER
== ==
in voke
Ġcolumn s
plic a
le vel
COL UMN
Ġf loat
w indow
so pre
sopre mo
C TION
V oid
U sed
VER SION
Ret rie
T S
Ġl abel
U DF
get Body
Ġsh ort
ac ter
Con current
aun ch
fa iled
om ain
B ound
[] ,
f etch
ri pe
key Set
z eppelin
ĠC all
ma ke
ĠClass Node
Ġo pen
nowled ge
b oot
8 8
S ort
Ġ" +
ic h
m k
ME NT
K afka
O M
Ex ist
ate ncy
t ransport
( @
Ġ order
ĠSer ializable
pos it
M X
s kip
id x
RE D
az on
re q
Ġname space
stat us
G ROUP
ter nal
SER VER
w s
get Num
Al loc
Ġtrans action
Down Latch
L inked
atche d
Ex ternal
ĠRe plication
ĠA sync
ĠV AL
Ġcomp arator
Ġcall back
name s
W N
2 7
K ind
B i
Ġ err
d f
Pl ace
Pro jection
AD D
S Y
S A
get Child
State Store
Ser ialization
T cp
B LOCK
N etwork
Ġ Index
Sh ould
m age
NA BLE
00 3
w ap
P A
Ex tract
String Utils
Inter ruptedException
re ader
Ġsc anner
F lag
AC TION
Topic Partition
4 4
PAR TITION
d r
g i
D ht
uff le
De serializer
PLIC ATION
3 6
trans form
or ization
Back up
ad e
Ġ Co
ur able
Cache d
Tx n
r ange
posit ory
valid ate
Dis patcher
Ġse c
T er
nd le
Comp leted
Ġdel egate
w ard
os ite
Error s
nd i
get User
Dir s
ĠHive Conf
03 2
Ġre st
H older
Init ialized
And Get
ĠCh annel
ro tt
E lements
O UR
propert ies
M anaged
Hive Conf
Vis ible
Table s
> ");
par ator
Inter ceptor
ar r
Ġc ause
th er
get Application
Ġ2 0
C ore
D D
Change d
Request Exception
cum ulator
Work er
F older
Byte String
est ed
H A
to t
Class es
get All
Call able
ie d
expected MessageCount
t bl
AR Y
Ġre gistry
ĠIgnite Cache
4 8
Ġm y
Ġc nt
O bserver
P ublic
re set
Const raint
Or Builder
Ġ Queue
Ġcon vert
w e
l ing
Ġre duce
s v
Ġat tempt
ĠS ub
Sc ript
Ġser ializer
Ġ Null
MEM ORY
Ġ 9
ĠB ig
0000 0
FF ER
Ġ InputStream
(( (
Dec l
E C
Ġ Endpoint
File Name
file s
Ġstat s
Ġinit ial
get Max
Ġe lement
ĠStream Record
3 8
CON TAINER
SC HE
REGI ON
get Long
task s
Ġre solve
ix ed
valu ation
wait For
k v
Ġp lan
s uper
ĠI NT
exec ution
Sh utdown
ĠCheck point
Protocol Protos
str ap
Ġ(! (
4 2
r act
Ġhand ler
Po inter
3 5
A UT
Ġsu ccess
ĠP AR
S kip
T OP
trans action
ag g
6 0
") ));
print StackTrace
t uple
CLI ENT
Sh ared
am azon
N ear
Regist er
t ri
N ONE
de sc
pt im
get Host
Ġm ode
Queue s
ser ialization
amil ies
Ġd one
ĠMock Endpoint
OUR CE
D ATE
Pro c
Ġadd ress
ĠD is
ĠLinked List
Ġf inis
P assword
E NABLE
h dds
stat ic
Finis hed
Ġs ql
Ġse cond
check point
R L
N C
ĠSche ma
I mp
P rivilege
W RITE
Ġkey space
Ġ array
Visible ForTesting
P lugin
ment s
Ġpartition s
AC T
$ {
ĠOption al
Ġ Metrics
AN D
get M
is Null
a mp
Ġstart Time
i prot
An notation
ĠT he
Ġs ObjectField
AT CH
6 6
Ġbe fore
Ġ' "
ve lo
hand le
Ġ" )
an k
Ġdirect ory
Ġ location
ĠType Serializer
B ig
Version s
Ġexten sionRegistry
V isit
Time Unit
Comp ression
Ġp eer
ĠLog Factory
Ġ? >
Operation s
LI ST
ro ad
em ant
Ġlast Comparison
ĠMin i
er ation
Request Proto
t ten
Ar ch
de scriptor
Aut hentication
Se q
] )
He artbeat
f ul
LE TE
annot ations
Ġor iginal
ĠP attern
Ġ Consumer
Ġd i
F etch
t xt
ac ted
Ġnode Id
ou nds
tot al
Application Context
Ġv ector
Ġ" ]
Ġnumber Of
D aemon
get Column
pro ducer
No te
ul ate
Ġe mpty
U CT
ĠH Constants
Ġr aw
Ġb itField
u sh
N M
Con structor
Ġs um
ll back
I llegal
ĠH Region
Conn ect
As String
Ġt s
he ap
Ġtrans ient
ĠVAL UE
L iteral
Loc ations
ist ic
or um
MIL LI
map red
Co uld
emant ic
HI VE
ĠF uture
at ile
t cp
ker nal
SP ACE
t ab
Sub scription
MI T
ag raph
V ert
Ġde scription
re lease
ul ar
Ġc lear
J SON
TT P
ĠV isor
Z K
ss aging
ĠP ri
En coded
7 7
to Array
du le
comp ute
Ġ one
ol low
L ink
Ġret val
ex pr
ĠD ate
road cast
Ġbe an
Ġjob Id
Z ONE
Ġget Descriptor
se arch
Ġc md
| |
T Exception
Ġargument s
Le ft
empty List
rou gh
Z ooKeeper
U uid
En gine
Ġpre fix
Ġset Up
or ary
ĠL e
o mp
Ġ St
ĠI ter
Ġ qual
Ġc fs
B O
ge x
Comp letion
s ort
2 1
er e
write String
TA SK
Ġvol atile
Ġregion s
rid ge
Ġ active
Class Name
Ġex pr
Code c
, "
[] []
aw ait
st im
Ġ Context
Ġtest Harness
0000000 1
camel Context
sc ap
th at
Execution Environment
ĠP ut
sum ers
get TableName
Ġc s
Vertex ID
loom Filter
Find er
Ġst orage
VI CE
Th is
Token s
ĠU RL
# #
CON NE
Ġcon tent
p atch
at omic
get State
Ġo ption
Replic a
ĠW indow
function s
Ġu sed
En cry
c md
Ġcl azz
getAbsolute Path
ĠSc an
Sche duling
ub er
Aggreg ate
config ure
Slot s
au ge
F IN
f ull
J E
Ġre plication
apt or
al ar
FA I
Po jo
s upport
[] )
b ound
O ther
Log Factory
get Node
Ġm ay
NO T
Pre emp
Valid ator
th read
map reduce
ĠRun nable
Data Set
node Id
y cle
ack et
ss l
Up load
Ġname s
Al gorithm
Ġen um
ĠTest ing
Check er
net es
serve d
uber netes
Ġgener ate
L lap
or ies
check NotNull
BU FFER
v als
ĠF ilter
Execution Exception
Ġtype s
Extract or
Ġr c
Ġparam eter
S ide
M gr
STA MP
Ġ append
get F
Ġm ake
ra w
Ġlist ener
ut hentication
MockEndpoint s
ri x
RA Y
7 0
ĠA ggreg
Ġ< <
Util ity
Ġac cess
getDefault Instance
Check sum
hel lo
Ġst mt
Ġcon troller
H Constants
Ġ' ]
f low
ĠD FS
Config s
de serialize
St arted
B alancer
re mote
Ġac l
Ġf lush
Ġo m
2 00
INTER VAL
2 8
ĠAtomic Integer
Ġpro xy
F OLLOW
J ar
s ign
propert y
read String
ach ing
if ic
istribu tion
met ric
Bu ild
ĠF OLLOW
Object Helper
( -
. "
1 024
get Block
ĠF unction
po ll
Ġcolumn Family
T List
LE N
ĠH RegionInfo
I TE
Ġ Writable
n ote
ang uage
v ing
Vert ices
c ctx
Ġ++ _
get Connection
Ġw rap
get Input
en sor
p ared
Ġo ver
3 9
ĠN UM
Set tings
HBase Protos
12 7
Ġss l
Re quire
ĠĠĠĠĠĠĠĠ ĠĠĠĠĠ
GE T
c alc
Class Node
b ers
Error Handler
ĠP ar
H RegionInfo
W e
Ġ action
ST ER
ĠP er
m all
ad min
c ard
P U
Exten sion
Ġr andom
Ġp attern
De ployment
sc an
o x
000000 02
Descriptor s
get Out
t ree
t ag
C LU
get Output
init ialize
Ġl imit
Ġassert MockEndpoints
Object s
RE SS
pre v
Le af
Part ial
up lic
Ġs ync
Argument s
ĠRe quest
del ivery
Qual ifier
S park
Ġcol lector
set Name
c d
01 4
num ber
vo lume
ĠInter preter
ĠD ec
re mo
AR RAY
Ġi gn
o gram
ro ss
Ġb ut
! =
ĠUser GroupInformation
+ "
Ġe quals
ME SS
Event Type
cl one
TOP IC
Ġent ries
ĠB ase
C HE
NUM BER
Ġed ge
so cket
get Task
5 4
CO M
R UN
Json Node
i que
clu ded
ĠTime stamp
B ulk
B E
a ult
J MS
set Body
Re covery
( !
MESS AGE
TI VE
QUE UE
K er
ĠBuffer ed
ct iv
Sub mit
region server
Ro le
ar ker
Proto buf
ER ATION
R PC
ra gment
Ġ" <
ack ing
Mod ule
Ġc re
Cur sor
de stination
Th reshold
F rame
o ptions
Ġ| =
ĠCount DownLatch
H ook
M onitor
o se
ĠHive Exception
Ġpre pare
velo pe
net work
ĠM AX
ĠData Set
ĠH TableDescriptor
ĠU SER
ll ap
ĠC F
Opt im
2 9
L ive
{ \"
Ġsh utdown
clu sive
Visit or
Ġpos ition
Ġ #
Trans former
Ġprev ious
Ġm ain
ĠI mmutable
next Int
BYTE S
Ġre set
ĠF link
ĠP age
ST ART
ke ep
S sl
Ġ Pro
re ceiver
get Conf
amazon aws
count er
Pact Record
Ġcount er
DE X
ee ded
PRO PER
Cluster Node
tin u
med iate
Ġ Enum
Testing Utility
Ġ" :
Ġs ystem
Per iod
Run With
Run nable
set Int
Ġ Producer
set String
Po st
Re ducer
X T
Route s
ĠS ec
ĠassertMockEndpoints Satisfied
Iter ation
Data Input
ĠZ ooKeeper
Ap pend
C lean
P rincipal
ĠW AL
pro c
To String
T Field
) \
Sh ard
** **
d a
cache Name
Ġrecord s
Ġin clude
() [
M utable
rou ped
Internal Future
Lo wer
op remo
Ġc losure
Al ias
Ġp ost
Ġp air
Re start
Re q
ĠS STable
Hist ory
p a
ack son
ir t
C md
HE ADER
e lement
I mmutable
P RI
Ġc ustom
Ġf ull
Channel s
H Region
") ).
tribute s
Buffer Size
th on
01 32
s stable
Ġconn ector
ĠH e
Ġconn ect
oot strap
Yarn Configuration
JE CT
get Queue
F ut
Ġ available
is Re
comp lete
Re servation
ĠS E
D ist
Test Util
irt ual
ĠInvalid RequestException
r p
Ġ ack
FI ER
C ert
B Utilities
b it
Sh are
aring Group
r ong
Ġbe en
getC ause
ress or
ĠJ oin
d c
Ġ Entry
Doc ument
>( _
ĠM utable
Ġtop Ver
get V
getS imple
QUE ST
Null s
ar able
Se arch
Re s
Ġ( ((
O K
al led
ar ri
ll ing
Mem Store
ok up
Ġcreate RouteBuilder
get B
Ġret ry
ĠJob ID
Invo cation
z k
w al
sh ould
Arch ive
if icate
Ġapp Id
Ġ delet
Ġcache d
Pri mary
ĠType Information
field s
Ġcl s
5 7
C CESS
S ame
th rows
Ġg raph
me n
ac y
al end
S L
partition s
urn al
l ate
ĠRM App
Al located
g g
node s
Collector s
ĠA ccess
alend ar
a ffinity
St amp
ĠRe ad
Re pository
12 3
AR N
fer red
c ustom
assert False
Ġcontainer Id
get File
Column Descriptor
db Name
Response Proto
ME TRI
ee k
Ġo wner
ĠRe mote
Deleg ate
Cre ation
4 7
Re pair
D ynamic
Ġ Metric
Ser ialized
read Int
oper ation
ines is
as ure
orre ct
v iew
ĠC O
ON G
Ġse lect
Del ta
ĠDat abase
ar Down
f actory
to ByteArray
Ġign ored
C ap
singleton List
se lected
H TTP
P rint
ip Strategy
D istributed
at io
Ġw ri
current Thread
ĠString Utils
Ġpo licy
Ġpart s
Ġproto col
N S
STR UCT
Par se
ĠIter able
Ġstate ment
Ch ain
Ġ" ",
v c
12 34
Container Id
5 9
iss et
get Next
gener ate
ĠGrid Ggfs
Ġ_ _
conn ector
de scription
getSimple Name
ver tex
Multip le
Ġn m
Data Type
O ps
ĠIn etSocketAddress
LOC AL
Ġd st
ĠCh ar
Ġc annot
SER VICE
St age
A ME
Ġinit ialize
S lice
Ġre maining
00 4
act iv
b alance
In crement
dir s
ĠR pc
MILLI SECONDS
Ġon ly
v State
Ġch unk
Ġal ready
W S
Ġw al
j or
ĠP aram
re maining
al th
Ġch ange
Ġpri mary
ĠB roker
Sign ature
T Protocol
Met astore
po ch
Aggreg ator
i ry
Close d
Match ers
p assword
Regist ration
job Id
Job s
ĠĠ ĉ
Meta Class
scap e
ifi ers
Ġ" _
Ġre ceived
M issing
Ġm s
ĠP o
ire Format
0 10
Ġi tem
Segment s
= (
get NumberOf
e valuate
ip her
uplic ate
3 1
Ġse lected
ĠTrans action
Ġc ancel
Ġh td
az el
Mem store
Re store
azel cast
write Int
ĠO UT
Ġsub scription
ĠJob Graph
ver age
to pology
z on
ĠV oid
data format
Ġp ipeline
Window s
in sert
P ayload
Ġ ;
Th row
Ġint o
v m
MA NA
CO DE
Ġfail ure
Ġtime s
param eters
Before Class
ĠYarn Configuration
add ress
pre d
c atalog
m atches
er o
ST ATE
SER T
By Name
W atcher
get Method
Se lect
parse Int
Ġs ink
c ing
ise conds
ST AT
ĠIn etAddress
5 8
R AN
ĠFile Status
Ġwork er
ENABLE D
} )
y z
Ġ" ";
as y
ver ter
Col Vector
Offset s
l iteral
Ed it
C alc
O rig
L atency
St ability
rou nd
get Context
c at
Ġle ader
( {
re plication
ock s
pre pare
alle l
Ġrun ning
ĠI D
sc m
Filter s
W h
un lock
at tempt
Th rift
Ġre quired
ĠC losure
get Port
Me ssaging
F T
Char set
ĠSche duled
Cache Configuration
Type Serializer
ma zon
cl i
Input s
P L
he ad
comp arator
V als
Region Server
arg ument
Ġin ner
per sist
ĠPact Record
ber os
rott le
Ġpri ority
dat abase
And Header
ĠS ingle
Ġen sure
I TH
out er
Ex it
QU AL
() {
od ies
Comp at
P TION
(" <
I TY
ĠRe st
H ome
Ġstr ategy
ĠU p
sistency Level
<> ("
Ignore Case
Ret ries
RE QUEST
Re quired
Ver ifier
M ut
En velope
S afe
D rop
M ore
Count ers
Partition ed
Ġs ocket
pro file
ent ity
Ġtbl Name
De letion
pen de
Ġal low
assert NotNull
name space
OP ERATION
Sche duled
l imit
Set ting
M atcher
Ġsche me
s ystem
expression s
tri m
n e
arri er
SC M
N ITE
Ġg roovy
ĠRe sponse
re port
l ib
Context Parameters
exec utor
Ġnew Builder
exp ect
st orage
ĠP rint
Ġdefault Value
Ġchild ren
c xf
Ph ase
T bl
ult ip
Create d
Ġp l
p u
T wo
Ġ" \"
(" %
if act
H int
Ġcache Name
Ġtask Manager
RO OT
Trans ition
ated Key
Ġf etch
operator s
Di gest
g o
add Column
Ġn ear
Pre sent
En able
Ġback up
ĠGrid Exception
Ġinter preter
y y
su med
j dbc
men ted
L L
v ance
Comp are
ĠNo Such
ĠD ummy
Persist ence
Ġ1 6
Sum mary
Ġus ing
Re set
get FileSystem
Bu ndle
Ġ gen
se gment
Data Source
ĠInter nal
" },
Al ive
ĠA ss
Object Name
d rop
>> ();
Key ed
lo sing
valuation Expression
ĠI gfs
av ro
c ql
type utils
Admin Protos
Co st
Ġinput s
W atermark
ĠH File
column s
ĠRe l
Interface Stability
it le
getRegion Name
hand ler
ia gn
Ġio e
Ġ ()
Ġhash Code
ĠE V
Require ment
Ġ Name
Ġc cfg
ĠStream s
Secon ds
OP TION
X ML
ĠA ND
L if
j ackson
C M
Re g
Sup ported
4 9
Re ceiver
Ġ Input
du ct
Iter able
In sn
4 5
O ZONE
D ump
B odies
f fix
Ġaggreg ate
R untimeException
Part s
In ject
ĠG roup
Start up
Ġj unit
L ook
N ow
g ree
Ad ded
ĠH Table
L T
Ġ Delete
d river
Topic s
ed eration
Ġ Struct
new ArrayList
N ormal
O ld
equals IgnoreCase
ĠS lot
Ack nowledge
ĠCache Configuration
T ool
Executor s
SSTable Reader
Co ordinator
Ġl atch
Ġde serialize
ĠT Field
ĠT op
P I
G TH
State Backend
ite m
D U
Generated Message
ADD RESS
u nd
Un expected
ĠConcurrent HashMap
dis covery
getP arent
Per cent
Accessor Table
un ication
Ġstream s
Info s
ĠC reate
write Field
Replication Peer
ĠObject Inspector
Buffer ed
Ġdat anode
Index es
Ġ Output
ĠJson Node
] ));
K ER
6 8
ĠZ K
App s
Page Id
iagn ost
R ate
Ġre sp
as ync
Co mb
ĠT Exception
I mage
J dbc
gr ade
Ġw e
get Status
Sequence Id
t ool
t he
get Memory
Ġspec ified
Processing Time
Lower Case
Ġm anager
Job Graph
IN SERT
default Value
Valid ation
' )
ac cept
calc ite
! ");
With out
P ackage
s lot
S ite
ĠObject Helper
Data InputStream
UP DATE
ĠAtomic Boolean
v ar
Ġg lobal
Data OutputStream
ĠT r
Ġtx n
e v
Endpoint s
Ġw here
x n
Ġ ,
ĠMeta Exception
Ġt rigger
se lf
LEN GTH
S M
ĠA r
Config Constants
Un able
Ġal loc
dent ity
B ounds
Ġin vo
Output s
Qu orum
S o
de s
Ġg ate
En coder
as on
wit ter
A ctor
Z Node
N ING
get Time
) }
Ġn eed
Char acter
ro y
QU ER
Bodies Received
ĠR ange
ĠGrid Portable
5 00
d l
Ġre c
Ġd fs
Ġget Class
Ġdo c
comp ile
ĠE X
N ULL
Ġas ync
ĠF s
Ġjob Graph
addTest Suite
RE AM
ve n
Ġc atalog
Pro gram
Ġ Not
L aunch
Job ID
yntax Exception
S orted
to p
Ġpar ser
Ġpro p
s imple
p ted
J OB
List s
Ġ" ;
Se lection
R ank
ĠM aster
expected BodiesReceived
Ġmo del
: ");
C leanup
ĠR untime
Action s
Size s
ĠA C
Ġparse From
Ġcomp leted
Ġ Collector
Result Set
ater ialized
ĠServer Name
ure d
Ġc andidate
TIME STAMP
Ev iction
I o
Remove d
Ġsh ared
ĠU N
fin ed
ref lect
A ge
Ġmessage s
N eeded
set Max
T s
Ġ xml
Job Manager
pre fix
B l
f uture
AP PLICATION
P tr
o urnal
Mini Cluster
M anagement
Ġs ign
ĠS ource
I p
ĠA n
result s
TR AN
get Client
Ġre l
ĠV er
ĠW eb
01 3
get Partition
KE T
ĠList s
u x
ĠGrid Dht
param s
ĠGrid Hadoop
ase s
ig ration
j etty
Stream ing
Encry ption
Init ial
Attempt ID
01 6
Co m
File Path
f loat
exception s
an o
_ );
End Point
Cl s
PO INT
Trans fer
n ers
LIN E
MA T
9 8
lat Map
IN DEX
Ġre lease
S te
Ġs ort
Ġf lag
d i
x id
Child ren
QUER Y
Stream Record
p h
Ġcreate d
id th
KE N
m ail
ĠO r
Ġis Set
or s
ATE D
or atedKey
" +
W al
er tion
get Text
Ġcon tains
Ġ" [
Un safe
SA FE
Meta Info
Ġi gnore
ĠI f
in spector
Meta Store
Data Output
Re ply
col s
L TER
Alloc ator
ip c
RE C
Ġ" ");
Ġ- -
D omain
D C
l ip
ĠB asic
C lear
tinu ous
. ")
ĠParam eter
C ancel
to LowerCase
4 6
ĠS TR
H dfs
Ġ Store
M vcc
5 3
o ss
Ġ Number
Ġassert Rows
Cre dentials
TI C
it ive
Ġget Default
g ht
random UUID
F ollow
Ġget Configuration
Instance s
ĠJ MS
b inary
r v
Report er
CON F
s lice
Cache Entry
( \"
type def
Db Name
a jor
k ka
Ġon Changed
E QUAL
im age
b in
ĠF A
Ġd rop
A ctiv
Ġp r
vo l
Option al
ĠTop ic
d ater
H File
Ġd own
sche me
Ġh ri
at rix
Ġm v
Ġth an
Acl s
ĠLinked HashMap
lat form
get Test
Ġo pt
Ġ arr
CH AR
L ay
Ac cumulator
00 5
en able
ĠF loat
L azy
ĠDat anode
get Boolean
ĠByteArray OutputStream
Ġin crement
st one
app ing
Ġ unit
ĠAtomic Long
Ġ Command
I M
Coprocessor Environment
U nt
E ach
Ġp assword
get Master
op s
W ord
DE LETE
ĠK Stream
D ummy
Ġc leanup
De ad
I ST
B asic
Ġwait For
F inal
pend ing
ĠClass Loader
Row Batch
Ġget Name
OB JECT
get Length
ĠCall able
Ġp ayload
Ġmax imum
QU ALI
emantic Exception
c fs
O I
CON TE
ublis her
F ixed
e q
ĠVALUE S
Pro p
ĠP air
M ark
Ġfile Name
Ġv iew
ĠComp action
\" >
B ind
Mem ber
Ġsub mit
Ġser ialize
Test Case
Resource Manager
Base d
ĠTree Map
E M
ĠS SL
Ġc lean
ĠC OL
request Body
Ch ore
m ill
ĠO rc
Send er
Test Base
ĠJ dbc
Ġre place
orre lation
W hen
get First
am ing
j ected
Ġun set
ic search
ublis h
CHE CK
M y
Fail over
Ġd s
Ġen able
get Decl
ĠT cp
} }
Ġ"/ "
F link
Ġmap per
ifi able
HO ST
M arker
De leted
Ġclass Name
ĠData Stream
ĠObject Name
Execution State
ur ing
Replic as
or rupt
et ter
Ġtable s
get Start
ĠPact Integer
Is Set
Auth orization
Ġexist ing
mk dirs
ser ialized
Sub mission
Ġs o
set Boolean
Ġde c
al es
Range s
ver se
ord inal
X X
Ġ Component
Preemp tion
FAI LED
ynchron ous
Cl ause
int Value
Ac count
Split s
get RegionInfo
RE NT
use d
o ption
LA B
ĠINT O
= %
S SION
ocks DB
T tl
o ur
C f
PROPER TY
C andidate
Log ging
OL D
Ġt ransport
Comp ute
ĠComp ression
init ial
p lugin
Ġcomp action
Un supported
W atch
comp ressed
sp ec
Or c
Con sumers
ĠResource s
Permission s
Re place
R Y
ĠR O
Delim iter
A B
is Trace
ator y
po st
Ġ ExecutorService
Ġ'] ');
Th rough
QUALI FIER
Ġn etwork
Ġjob Manager
dat anode
sendBody AndHeader
Ġk s
Ġfor ce
(" -
message s
Ġexp ect
Ġm ark
Ġde scriptor
hent ic
rain er
set Value
Ġadd r
Ġde ad
pl ain
ac l
index Of
comp action
Cache Object
ĠA d
G G
y thon
Ex ample
and atory
Ser De
ST REAM
Ġ Procedure
er ies
AR R
S hell
Ġser ialized
Pre conditions
Ent ities
Look up
ut er
Log s
asy Mock
Job Vertex
ac cess
Snapshot s
Ġper mission
' ;
9 7
cur sive
L oop
T ail
ren cy
Json Object
Ġcol s
E P
ExprNode Desc
Data Stream
Ġcomp ute
Dis patch
te ms
Ġ? ,
V AR
c an
OFF SET
ent er
Ġfinis h
Secret Manager
S ensor
Ġm ulti
r ary
for med
W OR
stat s
A gg
Ġext ract
Ġin valid
In clude
j ar
Ġb ind
qual To
RES OURCE
č Ġ
J ms
ĠS park
TO KEN
MANA GER
pe er
Cell s
Requirement Type
i um
EN D
>> ()
Ġtask s
c ancel
ĠN O
Ab sent
Parameter ized
AR D
T ri
n ormal
Ġ1 5
Hist ogram
Ġte arDown
F amilies
re ceive
M ARY
time line
PB Impl
sed a
> ());
str iction
Call er
IG NITE
U sing
Dis abled
Set up
S ample
ĠĠĠĠĠĠĠĠ ĠĠ
cre ase
ĠObject s
METRI CS
Ġto pology
P erson
in ce
im iter
PE N
se ek
Pre pare
ĠĠĠĠĠĠĠĠ ĠĠĠ
App Attempt
gener ic
con tent
E poch
De st
ĠL lap
I ALI
m ulti
v i
Core s
Ġqual ifier
af ter
ĠK Table
4 3
Sub task
Ġcur r
get Index
ab s
Ġ keep
scri ber
h s
F ACT
Al lowed
o prot
Y ARN
| \
Ġen abled
ic ted
ĠH dfs
Ġget Endpoint
tool s
Ġwh ich
ĠL O
Ver b
After Class
F unc
Up dated
Avail ability
O S
i an
Ġpar allelism
getClass Loader
Type Name
LE AN
ĠH ColumnDescriptor
ĠB lob
R atio
ar ge
Trans formation
c ers
Ġ" --
l ers
Ġg gfs
http s
Ġ ast
ĠSche duler
re l
lo ud
M ain
P r
Ġb ec
Ġ[ "
Clean er
Ġb lob
DE LI
d one
ter min
del ay
Ġe valuate
Ġcreate Table
Ġdat abase
) (
m ath
If Absent
ĠS napshot
Ġst arted
so me
Field MetaData
Multip art
C aching
Cluster Id
FI LTER
v oid
Ġstart Grid
pe ating
Buffer Exception
Ġun known
Map s
Ġd ate
mo ized
ity Mode
ent ion
Ter min
G auge
Ġthrow n
isTrace Enabled
ry o
get Component
on ical
Array Equals
Ġt tl
sn r
Resource Request
ĠIgnite Bi
W A
6 7
R ight
com ing
en ch
q p
av g
ed ded
Pre v
p to
Cl i
ort able
Ġd n
lu tion
\" \
c apacity
con troller
ĠP erson
Set s
Ġnon ce
Ġre plica
Ġreturn ed
Ġu df
ndi Registry
au ght
Protocol BufferException
In sert
column Family
v is
cover ed
Application Id
le x
mp o
rie ve
Exten ded
e nds
Ġex ists
Ġt imer
pe ek
:// "
S asl
Ġpre dicate
Memory Segment
Ġuser Name
for Name
50 9
C KET
Ġse q
C an
Code d
UN K
protocol records
ĠIgnite InternalFuture
List en
VE NT
Input Gate
get Timestamp
Finis h
c r
Wri tten
a uto
get Environment
And Set
ĠDatabase Descriptor
MO DE
Ker nal
MX Bean
Pointer Exception
pro xy
Ġm ore
ĠIn vo
O KE
inter preter
SCHE MA
1 99
Equal To
get Short
Ġ} )
p ool
Ġsc ript
ales force
Ġevent s
P acket
ĠPri mitive
Ġpre d
Invalid ProtocolBufferException
I ME
>> (
t rigger
app Id
get ColumnFamily
ule s
Stop ped
Ġre pl
ĠData Output
Ġre store
Ġcomp lete
L etter
ĠRe servation
Conn ected
Ġ" :"
arch ive
mem ber
ĠJ SON
ĠS emanticException
ud it
n on
ĠG raph
ĠRe duce
Z one
Ġblock s
d aemon
Ġprocess ing
Ġ util
ĠMock RM
lo ader
Ġcomp ression
po licy
An y
Ġmo ve
ano Time
Ġ1 1
ĠH adoop
Ġpre sent
ĠByteBuffer Util
Dec od
Metric Group
Ġde f
In Progress
Conver sion
cl azz
N s
Exchange s
LA Y
Call Expression
aggreg ate
Ġal located
ĠTask Manager
Fields Query
UN D
M R
Ġmay be
S avepoint
ĠA ST
Bulk Load
Dat aset
ends With
se cond
am b
B ridge
token Set
re quired
Ġs d
ĠU TIL
Ver ify
ized RowBatch
Ġf oo
Ġm bean
ec ycle
z ip
Ġb s
ĠP RI
D o
increment AndGet
mpo tent
q ry
ĠF I
Ġnot ify
n ear
g gfs
Ġconfigure d
L ONG
u me
ing leton
ate st
Delim ited
Close able
Com ment
00 6
ĠYarn Exception
SU B
TH READ
Ġse s
ĠS ocket
ĠRe f
VAL ID
Ġpartition er
K V
List Begin
DFS Cluster
example s
al a
C lock
ur ge
He ad
> \
B L
code c
Ġre ply
m atcher
ĠUp date
Ġre plic
Blocking Queue
d oc
or iginal
Illegal ArgumentException
p ax
6 5
Ġtest Get
object inspector
Re lease
create Table
Ġ5 0
part s
od b
d Other
resource s
Ġc p
Ġtr ace
a a
For Type
Ġ6 0
g ular
Ġt er
ĠBig Integer
Register ed
an os
J mx
Ġfield Name
S yntaxException
ĠA ction
il ing
Token Identifier
NO WN
A nal
Ġu gi
Instance Of
Al ter
List ing
ĠString Buffer
cur rency
Ġre quire
Ġtoken s
str u
Region Name
D urable
mod ifiable
Unt il
0 8
Ġmethod Name
H BASE
Not ification
Ġregion Info
sche dule
==== ====
Ġs park
set Field
s w
LO AD
Non null
W ORD
Ġa ff
String s
( ()
F ree
x Node
ĠP lan
Unknown Fields
Ġbatch Size
ive n
Comp osite
av ig
so le
Calc ulator
ĠB atch
H as
c v
ft p
se quence
cache Id
I VE
Ġg rp
Commit Log
Page s
get Cache
Ġsplit s
ud f
TRAN S
finis h
L ib
o ptim
get Total
merge From
Ġin sert
h ip
if t
Tr ust
Pro ject
ĠSec urity
ann ers
r u
Ġal location
9 5
Ġ Instance
ĠM ulti
P lus
Object Exception
Comm unication
Cert ificate
way s
ĠCF MetaData
B arrier
ari ty
Ġme moized
N ested
dent ifier
RUN NING
Ġsend er
Ġassign ment
4 1
Ġal locate
Ġregister ed
Ġp ass
Failed Exception
C ause
Place ment
scri pt
Rpc Controller
Tcp Discovery
ĠLOG GER
Ġup dated
Ġpage Id
7 5
HBase Cluster
Expression s
st raint
Connection s
Di ff
Ġ Lock
To p
Ġle vel
. _
Tr ac
Node Labels
Ġt ree
] [
-------- --------
d ht
h ri
()) ));
ĠP rivilege
U SE
con sistency
Ġserver Name
or ing
TE MP
SU CCESS
lic ies
Ġtrans form
al low
ist ory
Out Of
p attern
Ġs l
mb stone
se e
TI AL
Record Reader
Sh ipStrategy
Ġresource Manager
b b
qu et
Ġget Type
Ġ Q
Assign able
get Last
Sc alar
T ra
Ġs ame
B it
Bucket s
ĠP latform
mi x
ĠClass NotFoundException
We ight
Messaging Service
G u
get RM
ce nd
ĠPAR SER
Ġbec ause
E stim
Ġs upport
Ġ Environment
Exec ute
E valu
p an
D r
12 8
SI ST
Z ER
old ers
Ġre ference
x x
ĠG B
D istribution
{ {
Ġh dfs
Gener ics
ĠComp arator
Ġ agg
Spec s
Ġclose d
Ġdis patcher
resolve d
Ġtmp Map
Q ry
get CamelContext
mp p
Or Create
ĠV al
re name
Ignite Cache
T F
= #
No Such
e igh
j id
g lobal
User Name
Llap Daemon
") ),
Ġcl one
Ġcomp act
con stant
Xml ApplicationContext
ĠC atalog
Pool Size
Trans form
AP P
se parator
Ġ" ).
ĠM o
2 01
ĠV ariable
mb edded
P eek
C LO
Format ter
ĠExecution Environment
HE AP
Ġhe l
argument s
io lation
ĠĠĠĠĠĠĠĠ ĠĠĠĠ
Ġf link
Pre d
Struct ure
- "
Ġex it
sg i
du cers
Ġse quence
e ep
ache d
yn pred
get Encoded
L anguage
gr ation
Ġb b
Ġal ter
s ink
event s
M ath
)) ));
Log in
Component s
de c
Ġex clude
Attempt s
Ġget Key
H T
d k
Y Y
A V
Ġb l
cl s
not ify
il ation
ĠS pring
Place h
Exten sionRegistry
G en
in clude
run ner
Topology Version
Ġ ~
Cache s
EX EC
to Uri
Ġ Error
i ases
St ripe
M an
Up dater
ĠB ATCH
S l
co processor
M ER
C NT
Ġc v
Ġk afka
from String
Ġblock Size
(); )
par ser
long Value
Ġdel ay
ĠOr der
Ġpro be
K vState
O VER
Ġget Max
. ";
ĠN etwork
Start ing
State Data
ĠN ote
Ġ ld
Ġo s
all back
Ref resh
ĠT IME
DE D
Te z
not Null
ĠN ULL
Ġ" &
ĠS opremo
ĠE d
Plan Node
Ġ1 0000
ĠTh is
ĠPre dicate
O OP
Re maining
ĠT Type
number Of
In d
B ootstrap
ĠS T
Ġrm t
ĠW rite
Count s
w d
In voke
Ġget Value
N ative
ĠS U
log ger
Execution Graph
auth or
ĠGrid TestUtils
Ignite CheckedException
assert Is
Ġpath s
Ġal lowed
dis able
ĠBig Decimal
ĠN etty
w ri
Un ion
By e
direct ory
' s
Re pl
Ġw eb
CONNE CT
Camel Exception
pende ncy
Ġ Operation
Sh im
Ġup load
in ct
AD OOP
Ġhe ad
B loomFilter
L ite
(" \"
Ġbroker Service
N etty
R DD
In Use
Ġpro gress
mill iseconds
J O
Type Converter
Ġde scribe
Ġy ou
p ipe
for Each
isRe peating
Sub tasks
Ġtag s
put All
Ġ3 2
U TE
Store Key
del iver
ach ine
g t
Ġo b
02 3
ĠE MPTY
State Descriptor
> ",
ong o
IN PUT
m arshaller
Field Type
TO K
Orig inal
ĠJ ms
ĠAp p
che d
QU I
full y
J a
P ass
Ġj ar
Load Balancer
[]{ "
8 7
Function s
Protobuf Util
C ast
E vol
ĠO M
n ed
ow ner
Sec ure
Decod er
get Root
P R
s For
Cache Size
get Properties
6 3
en abled
s y
Ignite Tx
Id le
work er
Ġd ump
check And
Evol ving
t ail
Ġu nder
ĠA S
Aud it
p ass
re gistry
Second ary
M arshal
sh ared
Ġmethod s
OUT PUT
inter val
G rouped
an swer
Ġbuffer Size
ĠJob Conf
ĠD river
container Id
ĠField MetaData
Ste p
LAB EL
sc anner
Ġserver s
is EqualTo
ack list
read ListBegin
ĠIgnite Predicate
ys ical
Ġn s
Ġor ig
param eter
Ġsec ret
ĠTcp Discovery
a os
le ader
Up per
S wap
Ġ3 0
Ġ low
ition al
Ġoutput s
Ġ4 0
Ġev t
] ).
> <
E VENT
Bytes Writable
Ġcon dition
TER N
Ġd uration
use s
B ox
serv let
Not Empty
un modifiable
RE SH
Ġen coding
s ul
FOR MAT
In ner
ĠE valuationExpression
Pro duce
Ġ1 3
Sh uffle
F ault
iction ary
convert To
Sc m
ceiver Client
/ "
c i
Ġle af
Ġ Destination
Ġget Table
prec ation
get Token
R ack
Se nt
get Cluster
Ġ Metadata
field Name
il led
ĠVer tex
Po ll
be fore
ĠNull PointerException
DB C
Operator s
Http Client
Ġe q
j ector
M atrix
> "
Ġf low
Re c
H ex
d n
is Assignable
unk nown
ĠF BUtilities
ĠĠĠĠĠĠĠĠĠĠĠĠĠĠĠĠ Ġ
02 5
ĠCO MP
env ironment
w w
2 000
Ġm utation
Loc ated
Retrie ve
en code
ĠThread Local
x ff
er ic
assertIs Satisfied
Ġcon tain
ĠTest Suite
get Family
set Up
getDecl ared
K ill
ĠO p
d istributed
Ġcheck NotNull
Super Column
p ipeline
Log ical
Ġenv ironment
tr acking
il t
Ġd ue
For ward
Ġfinis hed
get Parameters
array copy
Vis or
ĠData Input
eg ative
Ġr and
Channel ID
K S
Ġdoes n
ue print
ut ing
()) ).
pri mary
get Store
++ ]
cache d
Non ce
Ġ' \
SQL Exception
ĠR PC
Qual ified
Ġcon sistency
Read y
De gree
ĠP AGE
Min imum
Ġcon tainers
ĠPer mission
AUT O
at form
Re play
getJob ID
ĠAr g
ON SE
Ġ2 00
Ġa uto
h o
G R
Ġp ush
Ġt ail
Exp ired
Ġ{} ,
Ġv ariable
read Lock
Runtime Context
AL LOC
H DFS
Start Time
R outer
Ġde finition
RO P
ĠHBase TestingUtility
vi ded
Meta Method
O PEN
Ġ ^
Ġs leep
m ode
RE SP
st and
(" .
ĠA dd
g round
T mp
Ġpro vider
Ġmeta Data
WOR K
B itSet
Job Status
stant i
Edge s
ec lip
Th an
eclip se
U RE
ynchron ization
ĠA uth
set Long
ll p
Anal yz
ĠSh ort
Ġm ut
Ro llback
ExtensionRegistry Lite
W ITH
filter ed
Ġexpected Output
<?> )
t ry
Group Info
n xn
s Per
ex am
i mp
OR AGE
Camel TestSupport
Ġal ias
O D
get Source
get ServerName
que nt
Ġbucket Name
Memstore Size
C at
P T
l t
L ATE
SI G
Par agraph
ĠA uthentication
ĠC U
c ision
in ted
Ġin st
Ġassert Is
plic it
AUT H
I t
Ġe lements
comp leted
TR UE
et we
get Attribute
H igh
V M
Par sed
Get ter
He alth
ĠB e
get Count
6 9
Imp ort
ĠN OT
Ġac cept
volume Name
or c
lus hed
ĠType s
Ġinter val
cend ing
Se parator
Job Conf
Vis ibility
K eep
etwe en
C sv
Timeout Exception
HA SH
Temp orary
Buffer Pool
Lay out
Ġimp l
st mt
M ob
] ",
if est
ver sed
Ġh base
Ġw rong
read Long
M on
Ġat tributes
ializ ers
E T
Position s
Ġdo s
un marshal
Ġ OutputStream
isAssignable From
ĠCOL UMN
() ];
SER IALI
ĠAccess Control
11 11
Compat ibility
5 2
6 2
Ġdel ta
Hash Code
Condition al
get Group
get FileStatus
AME TER
getEncoded Name
B ACK
Key Info
Lock s
ĠJob Manager
M ed
TER AL
7 9
en se
Ġiter ation
SY NC
Ġsc m
Ġc apacity
M ail
Ġ yarn
ĠTest Utils
A F
J Unit
ex it
Constant Expression
Command Line
An not
Ġexecutor Service
ĠEnum Set
t imer
d le
Ġd ist
Endpoint Inject
Ġsp ace
T rainer
", "
job graph
ĠByteArray InputStream
pipe Input
Ġtr acker
dent ial
Ġremove d
register ed
Ġpro ject
Ġs ingle
ĠE lement
Ġ Utils
ĠA v
Ġhe artbeat
ĠRow Mutation
MI C
get Config
ĠRe ader
Standard Scheme
ro k
Ġinput Stream
F low
l ator
Ġ Counter
hel per
sp ection
ĠStorage Service
5 1
ic ro
SE C
7 4
Assign ed
Off Heap
SSTable s
ĠBuffered Reader
Ġcf m
ip ient
STAT US
5 000
Column Statistics
sist ent
id dle
read I
Ġcheck sum
local Node
Ġhive Conf
set Key
log in
amb da
AST Node
Ġs cope
Auto Configuration
LlapDaemon ProtocolProtos
t n
ĠG lobal
Ġrange s
Persistence Adapter
ĠDec imal
Ident ity
C AL
n c
it ch
Ġc c
File name
ĠR eturn
8 9
st ub
comp ression
PE C
de mpotent
ar ded
Record Writer
ou se
ret ry
: \
Del ivery
Ac id
G rant
L Y
ab c
Ġfile name
Ġtype Info
Auth or
ĠS plit
Ġclient Id
mq p
Ter m
ĠBroker Service
R C
ĠContext TestSupport
get Service
Ġs n
ĠGrid Client
c nt
in ner
create Connection
Input Channel
C AT
con tract
inter rupt
al ias
an s
Result Partition
Age nt
Ġ@ @
sec ret
DFS ConfigKeys
F oo
M er
de code
est im
Const s
Ġsp i
lo okup
Test Helper
ĠActiveMQ ConnectionFactory
ĠVal id
ro spection
ĠS orted
User GroupInformation
Read able
o un
C ipher
re gex
ur er
User s
0 4
Ġ" ?
ĠA mazon
Not ifier
ĠV V
Json Property
PAR AMETER
Ġ Property
ain ed
inal ity
ĠC apacity
ĠE asyMock
Ġedge s
Z ero
Charset s
f ut
Ġwait ing
MS G
h am
pro ps
lement ation
ST EM
region Name
finis pan
Re ceive
Ġc ap
P ublisher
Configuration Properties
Ġal t
Al low
sol ation
ĠCamel TestSupport
ME TH
RE CT
Abstract Test
Ex clude
) :
Ġ >>>
Ġmin i
In etSocketAddress
is Directory
Ġv ia
set Type
Ret ention
n anoTime
Ġf ree
ffer ent
st orm
Ġ} ).
de ad
Ġsh aringGroup
s By
ĠTo pology
region Info
get Destination
inter n
Grid Ggfs
Metadata Manager
count Down
ĠSTR ING
o pt
ĠC lose
CE PTION
get Response
Ġget Test
Ġus age
get Admin
Ġre name
Text Message
ĠS CM
MO VE
Context TestSupport
RESP ONSE
ĠF ail
pri mitive
get Server
ĠArg ument
Ġre use
cluster Resource
NE T
[] .
Comp iler
Init ialization
NE W
ench mark
av ored
Ġg ot
persist ence
lang uage
Ġ StoreFile
Field Schema
n se
Ġv ar
U nder
d Out
Ġlo okup
F ragment
R U
Ġc alc
back up
re ply
write Long
rok ers
re dentials
ĠM atch
ran ch
page Id
L S
r action
Ġh b
Log Dir
Conver t
S UM
{} ",
f am
ĠA c
class Name
selected InUse
get Exception
B ook
ge d
Ġ3 1
p th
Array Node
Call s
Ġr nd
Request ed
ĠW ork
Ġst ripe
Ġg iven
Ip Finder
C UR
N anos
ĠR et
De vice
ry ing
ĠIgnite Exception
run ning
Ġat tr
Atomic ityMode
getApplication Id
UL TI
Base Helper
at tributes
file name
(" [
Un ique
Ġp rincipal
m er
ill ing
AD MIN
ĠassertIs InstanceOf
P e
Ġaggreg ation
I x
comp ress
pre dicate
Par allel
stru ction
' ",
Ġre start
ĠGridCache Version
Space Quota
Object Iterator
Ġhe ap
add r
Split ter
Serialized Size
s ynpred
f e
Ġro le
Ja ql
e ded
Ġb ound
Time s
ith er
ĠM utation
Filter Strategy
d st
w here
comp act
ĠCache d
I gfs
t wo
PU B
ST IC
S mall
ĠR ocksDB
ig fs
ĠT Protocol
port able
Row Key
State Manager
parse From
Ġhost name
0000000 4
Re solve
Ġent ities
ĠC assandra
D ay
Ġcon verter
type info
ĠComp arable
te mplate
Ġnew Value
Store s
E W
lic it
Ġ >>
Ġre al
str ategy
Ġjob ID
Le g
Ġcon structor
V irtual
Un stable
Re delivery
. __
r t
String Literal
Application State
Ġser de
pa ired
p ings
Ġd uring
tx n
Write Lock
Mod ified
ia Type
N ON
replace All
Ġst ub
ĠM anaged
MBean Server
ĠD B
LI T
h ing
Ġl ink
W E
RES ULT
CONNE CTION
Ġh t
Ġse l
01 7
Spec ification
Ġ". "
int s
Att r
ĠJMS Exception
E lection
To ler
g ate
to List
KEY S
Ġexpected Keys
Ġtest ing
Ġinput Gate
Con sistency
Lo w
? ,
sh ake
Ġ1 4
Http Servlet
Ġreport er
c leanup
56 78
Streams Config
ĠT e
02 6
ce eded
Connection Info
Con tinuous
Ġn ested
ĠContainer Id
Assign er
Ġauth or
get Option
Ġendpoint s
ĠA ffinity
P AGE
Ġ" "
HE D
0 7
ĠO ne
ĠBlock ing
ACL s
C alendar
Comb in
ĠCon sistencyLevel
SH A
getRe mote
ĠData OutputStream
Ed its
max imum
Ġdelet ed
Ġat tribute
Ġnote book
ĠC ustom
Operation Type
empty Map
ĠPrivilege d
transaction s
ch unk
Comp letableFuture
Pro duct
ĠTime out
Ġret rieve
C aptor
ĠC ACHE
Field Set
Comp arable
Ġlo ader
ĠL I
For ce
Pre pared
re ater
Wait ing
Ġget Current
S ys
child ren
al ter
ĠType Info
Ġclass Node
get Version
Exception Handler
ĠP ortable
Stream er
get Object
Ġ ag
Inter rupted
pen ded
Ġuser name
Ġcode c
Replic ated
T ab
Memory Size
ĠAl location
If Needed
(" {}
Ar r
back tracking
D ocker
assert Null
' :
Ġc alled
Field Value
Event Listener
UN CTION
Ġ ass
02 7
Ġpar sed
Scheduler Configuration
Ġ MessagingService
ad vance
get Parameter
File NotFoundException
Ġe stim
ĠM anagement
RE G
ĠFile Utils
Ġver t
Limit s
Linked List
Comp ressed
list ener
To mbstone
get Volume
Ġo zone
t ach
Ġregion Name
Window ed
IT Case
ĠEd ge
Access Control
n one
Ġmem store
te nd
Sh aringGroup
ĠT emp
comp iler
set Input
Test Harness
uff ff
t ifact
ar af
ID s
TI ES
cre st
fail ure
pri ority
get Methods
Ġset Property
0 6
CLO SE
(" ",
Co ding
AR ATOR
ONE NT
last icsearch
F ast
PA SS
kernal Context
Ġm vcc
UNK NOWN
Ġcon stant
b lob
ed ge
Dir Path
ĠTh rift
gr p
go ing
C a
ĠV ersion
iagnost ics
eigh b
st ack
TR Y
ĠPri ority
On line
hive Conf
Be h
Ġre ceive
set Num
META DATA
C fs
get Metrics
Tuple Scheme
NO W
Exist ing
ĠConfiguration Exception
pro p
ust ed
**** ****
M AR
Ġresult Endpoint
Po licies
get Storage
un ct
ĠS p
DI S
Persist ent
bo se
ĠBe an
Ġm issing
Ġcur sor
ĠFile InputStream
stin ations
Prev ious
Ġpage Size
ham crest
ĠAC C
Ġpo ll
po se
<?> []
Map pings
F BUtilities
O m
ĠComp osite
C ycle
Ex clusive
Ġtype dOther
Ġs orted
Of Parallelism
ĠCache Entry
i et
Ġget Next
MA SK
prev ious
Ġn n
Ġget Port
Scheduler Event
r w
bo ss
U GI
Ġ api
Ġ Y
AL OG
ĠP ipeline
v ision
Back off
get Request
LE VE
du mp
S OURCE
o unt
s ide
is NotEmpty
region s
RE QUI
ĠAggreg ation
ab e
Test Data
ZE D
group Id
ĠScheduled Unit
ĠSer des
Mod ify
f iling
Map Join
Ġ Writer
M achine
Comp acted
Ġdi ff
Ġ ExprNode
get And
Ġp ersist
Full y
LA P
partition er
Ġassign ed
im ap
ĠApplication Id
ex ist
Er asure
le ss
Ġj ms
str ument
ĠK eeper
Ġex ample
Edge Manager
s cope
Re mo
Ġthread s
Filter List
Ġtask Name
C ard
Task Id
Mem bers
rospection Support
H ADOOP
Ġc b
getMessage Types
METH OD
C AP
W idth
ĠM Bean
Ġoffset s
Z ATION
Ġde cl
Uri Endpoint
9 2
G U
SY STEM
b ed
k ind
Ġin c
ĠIO Utils
ĠAss ertion
get Address
Dis able
at tr
stant iate
Ozone Manager
Ġcol lect
de precated
## ##
avig able
Ġobject s
gn ition
Field AccessorTable
check Argument
Ġ $
ĠT ransport
7 6
Ġco ordinator
ĠD istributed
1 0000
AL SE
quent ial
ot h
Class Helper
Up grade
Aut hentic
Ġf am
ĠStream ing
Exp iry
Iter ations
V iolation
p g
ĠO bserver
Ġadd ed
get Route
Ġm apping
D fa
Ġn ormal
one able
s m
Ġvolume Name
CLU STER
c ause
Ġw ord
Ġh igh
Xml Element
StringLiteral Dfa
00 7
fl ight
last Comparison
S ingleton
ĠD oc
Ġmbean Server
NA P
s un
get Qualifier
Ġe p
Ġopt s
ĠSh ared
Ġ hadoop
ĠD ynamic
h ouse
u ted
ĠC l
get Session
Ġsstable s
Ġvalid ator
_ "
ce ed
Config Snapshot
run ners
Ġp op
Ġp lugin
Ġse arch
Ġen coded
Ġjob Conf
Ġre cover
Met er
ĠLog ical
channel s
abe led
Ġst ep
Ġ archive
ĠSer ialization
cf Name
server Name
AN Y
Transaction s
ĠResult Set
Ġi p
Retrie ver
RESH OLD
O LEAN
ĠL A
TRANS ACTION
stanti ation
LEVE L
C ross
del egate
De let
Ġk ind
ĠD ocker
Ġ5 00
File Info
ker Helper
Evalu ator
H dds
Date Time
Append er
get Bucket
an onical
MP LE
ĠSe quence
} .
get Size
comp at
Ġre solver
ĠKey ed
PO LIC
vis ory
job Graph
ST ORAGE
Ġjj Move
add Option
ĠT imer
con verter
S ynchronization
IN DO
(" ${
S leep
sh ow
CK ER
n n
Ġassert Invalid
Block Size
en sure
ĠAtomic Reference
ORD ER
Ġc m
ir ation
de scribe
Sequence Number
> (),
S n
Re cover
RE PL
AX B
c lean
re quire
Ġt itle
R ST
ff ect
ow er
ĠMini DFSCluster
Ġst and
ĠZ eppelin
r b
ig it
(" \\
Sp an
L ines
in vo
Ġdata Format
f aster
name node
getC anonical
empty Set
file Name
assign ed
De que
ĠData InputStream
ĠConnection Factory
EX CEPTION
Ġse lector
02 1
Ġsubscription s
faster xml
Big Integer
y le
Ġloc ations
: (
Command s
Out er
Ġ ${
Pact Integer
K inesis
sign ed
pro ject
node manager
Ġp w
Ġcol lection
Ġsc ala
Future s
ĠStream ExecutionEnvironment
Leg acy
F air
COMP ARATOR
Ġassert ArrayEquals
ĠTable Descriptor
Data Sink
ĠJ ndiRegistry
arch ar
LED GE
NOW LEDGE
get Mod
ĠFile OutputStream
ign ment
DO M
ĠKeeper Exception
7 2
Xml Attribute
E lse
Ġs ave
test framework
H TableDescriptor
k ew
state ment
Re name
TE XT
Not Supported
ur ability
Address es
Ġdo Test
ĠGeneric File
ire Time
s b
nc ies
k ubernetes
Termin ation
T UR
Execution Vertex
ent rant
p id
v l
IS HED
j boss
ACK NOWLEDGE
aring Class
8 6
A A
s ite
Oper and
ĠMessage FieldType
N io
Ġm k
Message Id
ĠAbstract Type
get Integer
Ġs up
Ġclass es
ĠX ML
AV A
Ġmeta Class
" };
ultip le
U BLE
pro cedure
ĠB YTE
Local ity
Ġi gfs
Table Desc
Configuration Exception
WA IT
" })
Ġt ab
ore ign
" });
M ajor
Ġg rant
Ġdis able
Ġo c
Ġthe n
PAR ATOR
CH AN
Ġref resh
b s
Cre ator
Cluster Status
finis hed
iz able
Ġd ummy
assign ment
J ournal
z z
Ġ Status
Client Protos
V ID
is match
Su ffix
Analyz er
task Manager
ultip art
LI SM
B ATCH
c andidate
S witch
ss ue
table s
Connection Context
d ummy
TH RESHOLD
string ify
compare AndSet
CONTE NT
Ġs avepoint
Token SecretManager
Pl c
TField RequirementType
alar Value
S y
get Target
MI TER
ĠjjMove StringLiteralDfa
K ubernetes
Path XmlApplicationContext
m utation
user Name
Ġab ort
B in
Hand lers
Update s
F l
N et
Ġse ek
e ad
In Bytes
ĠIgnite Configuration
Ġkey Name
getContainer Id
Ġ Statement
LO B
Ġint p
Ġadd To
Processor Definition
Ġoper ations
pr et
tt l
Ġresource s
ĠO ptim
Ġcre dentials
In Memory
Pre fetch
Ġpr j
ĠM IN
DI RECT
AC CESS
be gin
Non Null
Ġ Utilities
ĠTest Case
no Nulls
Ġper form
lap sed
8 4
Z eppelin
Ġ Common
art ifact
Host s
Key Group
ĠRO W
De fs
list Status
Fs ck
Privilege d
ext ract
Ġm atcher
Ġnew line
Ġ2 4
] ),
Col Stats
ool Var
ax b
Er r
Access Exception
a ft
Ġth rift
ĠL azy
Sub Cluster
Ġcl i
C p
EN TI
CLU DE
Mut ate
POLIC Y
m ut
Ġs ample
Sub scriber
Stop ping
M atched
Ġb inding
Ġrequest s
ĠSub scription
ss ible
get Map
Ġre ducer
ĠPact String
Ġget All
Ġd ht
Or SuperColumn
Dist ance
Memory Manager
char set
Ġcolumn Name
Ġcomponent s
Secret Key
ThreadPool Executor
Ġc lock
ab il
Ġcf Name
oo led
ron tend
input s
ĠExecution Config
z ure
ateg ories
ref resh
re c
ĠO m
Ġrequest ed
G B
Ġ( _
Bu ff
ĠO ffset
tr acker
Return Type
COM MIT
B roadcast
BU CKET
D uplicate
re que
KeyValue Pair
Quota Protos
Ġcompare To
Ġb inary
Ġcell s
Ex t
Ġb ig
Process ed
PAR T
su ite
ĠS lice
> []
N ER
ĠS ER
ĠTimeline Entity
Ġmerge d
getChild ren
Optim ized
n ate
Ġ5 000
H S
ĠPar se
C ance
S UP
Ġl anguage
Ġ- =
ĠIgnite Tx
B ad
row se
Ġf eature
AL LE
Batch Size
ĠWindow ed
Ġse ed
ab ort
ĠĠĠĠĠĠĠĠĠĠĠĠĠĠĠĠ ĠĠĠĠĠĠĠĠĠĠĠĠĠĠĠĠ
N N
Lock ed
Namespace Descriptor
intern als
Method Node
Ar tifact
M D
Ġ" %
write Lock
Ġmerge From
JO IN
start Time
Scheduler App
Ġsegment s
ĠS TA
Ġcheckpoint Id
Ġbu ffers
Direct ories
connector s
Report s
ĠDoc ument
Ġ1 23
ĠTree Set
ĠP RO
Column Names
Gener ation
alan cing
ĠD F
ĠObserver Context
m and
get Write
re pl
AL TER
n m
Inte gration
Sub ject
de precation
OR TED
U gi
Node Label
f ederation
Token Types
getMethod Name
at tribute
Un lock
Ab ort
ĠmetaData Map
ĠTopic Partition
} ",
)) ).
ĠB U
ĠResult Partition
he aders
Multipart Upload
(" ");
Factory Bean
H AND
d ist
S rc
Ġre covery
col lection
has Option
nt ity
ĠH Log
topology Version
B IN
ByteBuffer Util
Ġroute s
Retrie val
Ġo w
Ġi e
0 5
Ġs ock
Init ializer
C U
m onitor
Al locate
Grid Hadoop
ĠFs Permission
dul able
SH OT
Database Descriptor
ĠPRI MARY
ĠPrint Writer
T X
get Entity
On ce
View MBean
Ġwindow Size
task manager
8 2
get Scheme
Ġget Region
Ġkey Serializer
Heap Size
Cap ability
Ġ age
CO D
Pattern s
NAP SHOT
Message Type
ĠB ack
ColumnFamily Store
Ġat omic
I tems
Ġexpected Key
B alance
cc fg
field AccessorTable
close d
Ġmod ule
Replication Protos
ĠGrid Future
CAT ALOG
cur r
B oot
HBase Admin
ĠPAR TITION
ir d
ĠIgnite Fs
Ġro llback
PUB LIC
Ġtopic s
sub scription
route Id
De serialization
Entry Ex
user name
getTest Vertex
S vc
U D
de n
Ġqueue Name
D UL
PO OL
ĠPrint Stream
client s
al loc
se s
Ġm ill
Access File
get Scanner
ĠC S
ier arch
ND ING
6 1
SK IP
ĠLe vel
Standard Charsets
getType Converter
TA G
ĠCluster Node
TT L
Feature s
Ġre play
Stream Component
Ġ READ
Index ed
is In
Ġ! (
method Name
Ġm atches
set Integer
NAME SPACE
Or d
Ġter min
Re striction
Con tains
Ġd r
or ig
process Element
GG REG
DELI MITER
LI MIT
E PER
conn ected
Ġout er
j mx
n eed
s d
n ess
get ExecutionEnvironment
I Node
lic t
Ġco uld
mo unt
Leaf Queue
set Parallelism
ĠRe plica
h i
Ġ Process
in valid
WN ER
Big Decimal
Ġlog in
create Session
C PU
ĠI mp
getName space
HE AD
Ġapplication Id
Ġre servation
ĠA ctor
ĠVector Expression
de ploy
Ġe ach
ĠD A
ĠZK Util
Group Id
Unit s
ĠAp i
copy Of
del ta
Ġr untime
CON T
getM anagement
E scape
l r
Ġrm Context
char At
Ġmem ber
get Operator
Field Builder
Un marshal
Bu ilt
ĠR S
Ġtask Id
S Jaql
Cache Key
ire ction
Client Exception
R R
ĠT rigger
double Value
add Family
ĠJ MX
Definition s
Reduce Function
Ġse g
Backup s
a mpl
i Ca
RE TRI
! ",
[] >>
Ġm d
abil ities
ĠComp iler
bean s
Ġcon sume
Ġtrans fer
Word Count
Ġerror s
" :
Max imum
Ġst ack
Ġ avg
Ġqueue s
Order ed
ong odb
Cluster ing
00000000 00000002
RED U
s r
AT ER
DO CKER
Manager s
Ġwrite To
AC C
print f
get Code
Ġf ollow
ma ven
-- ;
get Var
Ġpro t
error s
record Factory
D L
M igration
Metastore Conf
ON LY
Connection Manager
ĠO P
AC ITY
M andatory
()) {
Ut f
And Port
> </
ĠUn known
LU SH
E mit
Ġn e
Ġl b
ag ger
Con currency
Comparator Factory
Rpc Service
Ġn fa
parse Long
C P
sh uffle
ber nate
ent ries
get App
Re po
top Ver
get Event
ul ative
job ID
Ġcomm State
SECON D
Ġchar set
re en
iagnost ic
checkAnd Clear
u ch
ĠO ptions
ĠM od
SE PARATOR
O OKE
ĠT A
Ġsub ject
i ra
Checkpoint s
ir c
E V
cluster ing
Match ing
Transaction Id
mb ol
Ġ Copy
Ġtable Env
Ġ QUALIFIER
Ġlabel s
Ġinvo cation
9 4
ateg ies
ĠD FA
OR I
unct u
Num eric
Ġinter ceptor
Ġ ec
8 5
ĠCache Object
Constraint s
Queue Size
000 1
InputStream Operator
d om
An swer
Ġapplication Context
REC ORD
ST OP
ĠU TF
Ġre served
ĠC li
ByteArray OutputStream
et s
te z
Configuration Keys
Broker Name
al formed
us pend
Tr ack
apt ure
Ġwrap ped
Ġ Executors
ol t
s ample
file Path
Reg ression
Ġd ynamic
Ġl ive
Block ed
Producer Template
en s
Ġj ndi
ĠH E
Ġld r
Ġsec urity
Socket Factory
ĠDF LT
OOKE EPER
Ġe qualTo
helper s
ĠSer vlet
Ġ", "
8 3
Ġ External
RE PLICATION
group s
get Exchange
ime nt
ĠGeneric UDF
SCHE DUL
> ("
Availability Services
4 00
IN I
On Write
iter ative
ĠVariable Expression
m bean
Th rottle
ist ogram
DD L
= ").
ĠService Exception
get Un
ert ificate
W ARD
oo se
art z
Ġcache Id
ĠBasic TypeInfo
new er
Local e
ĠNull Value
e Cycle
Ġs asl
ObjectInspector Factory
Load ed
ĠExecution State
stringify Exception
ĠO n
Access ible
Host name
i dentity
Ġp k
System Properties
] ");
Ġ Quorum
Parse Exception
r ules
set Time
fo l
a ha
ĠClass Helper
unc ate
TI O
Ġ Bucket
Ġd id
Ġpro duce
Application Master
Ġback end
Ġget ter
AME L
ĠUN SAFE
P riv
ry pto
Request Id
Ġr ack
0000 01
Not Exist
Upper Case
Service Call
ĠExecution Graph
Seq Num
ĠAggreg ate
FACT ORY
Read Lock
Ġs imple
get From
Ġl azy
ĠColumnFamily Store
Ġ{ {
Ġproc Id
C alled
D N
m ar
Exception Action
PO ST
Delimited From
St mt
ri p
Ġst ored
Ġsc ale
Master Procedure
avored Nodes
n ied
Ġpro vided
web app
j j
Ġfile Path
Le ase
Wh ite
reque ncy
per iment
DE LE
Ġselected Index
read Object
Mem table
Service Exception
99 9
SP LIT
Ġsh ow
ĠQuery Path
Re balance
Con sume
lo op
Grid Dht
PE LIN
user s
PAR AM
ĠInt Value
7 3
Ġt m
Root Dir
Fetch er
periment al
o sgi
RE F
; }
d t
Re cursive
Error Code
Ġ ConstantExpression
az ure
Dec oratedKey
on ed
re plic
ĠTime Window
Keeper Exception
Content s
Ġwri tten
Ġ Errors
Ġtrans former
Message Listener
. \
Ġst age
Ġse nt
D ROP
d uration
AP I
FIN ISHED
Ġsub j
W ireFormat
Ġu uid
Timeout Ms
Ġrest ored
pe at
v id
Message Reference
Metric Registry
N eed
(" >>>
Join er
Broker Service
ch o
set Current
ath er
ĠD irect
ROW S
is Done
PAT TERN
Read Only
ffect ive
w ise
ĠA tt
S W
Y PE
Peer Config
Ġclass Loader
Endpoint Builder
Loc ator
PRO TO
f Logger
Ġc orrect
LO AT
et ched
Region Request
Ġfilter ed
F ALSE
Ġ annotation
Cache Mode
client Id
allocate Slot
9 3
zk w
ĠString Value
M ULTI
fo und
8 1
C ALL
\\/ \\/
NET WORK
un wrap
: \\/\\/
ĠSSTable Reader
a ff
Ġi dentifier
Ġa ut
ĠInt Writable
ĠgetDefault Instance
P ush
Co Group
us pended
par allelism
Ġp c
ĠI S
Tr acking
} ");
ĠE ntity
Date Format
Ġf rame
Datanode Details
ĠS ink
BU G
2 56
K MS
ic ast
ce pted
read Boolean
ĠAd min
SIST ENT
Ġ ON
Ġ Xml
al location
set up
cf m
Ġget Result
Storage Type
DESC RI
j cache
Ġe g
Master AdminProtos
write Boolean
Access Type
writeField Begin
ĠAST Node
ĠSer ializer
Ġdefault Instance
l ay
DATA NODE
9 1
Ġ Qu
Context Factory
Application Exception
Off line
Observer Context
ck s
.. .");
Ġper iod
ĠMethod Node
m atched
er nal
put Int
en coding
ĠP ending
ĠTest Data
H base
m ask
Process Result
get Uri
singleton Map
CF MetaData
Ġget Column
Sc ale
Content Type
ic ense
get Stream
Ġlist en
Av g
IM AL
MER GE
J MX
al one
Ġj dbc
Ġper m
Ġpush Follow
Ġg c
Ġcomp letion
ĠSer De
po p
ker beros
Rule s
Master CoprocessorEnvironment
IL D
ĠColumn Statistics
ĠSE T
e scape
k ed
ex ten
ĠJob Vertex
ĠThread Pool
So lution
ac ing
getA n
Temp File
timeline service
et ime
Ġd ocker
Ġ' %
bucket Name
ĠĠ ĉĉ
en coded
Dis play
Card inality
Ġs py
H it
Ġgroup s
Ġhost s
var name
Listen ers
re store
pro vider
Seq Id
Lib rary
Bu s
Ġs ys
Job Context
Al ready
ĠMeta Method
Re deliver
Add er
ĠRef lection
Cache Manager
MI STIC
Ġde bug
Communication Spi
Ġ Stop
Ġget Client
TE GER
Spec ific
Spec ifier
Window Function
Common AbstractTest
ĠN M
Protocol Version
Groovy Methods
per son
RETRI ES
B loom
a uthentication
Ġast Factory
Proc Id
I R
l dest
Ġs vc
write Message
ĠExecution Vertex
META STORE
em b
ĠHive Parser
Commit ted
DE LAY
Ġw atch
RE E
normal ize
h b
Coded InputStream
Ġ ConfVars
Ġfilter s
get ID
Ġf amilies
Ġstat istics
URI TY
p ayload
Ġ Connector
ĠA L
ActiveMQ Destination
m ongodb
FI RST
Ignite InternalFuture
To Retrieve
test classification
Util ization
ret ty
ill Mode
Placeh olders
getOption Value
Type Information
ĠI Node
Ġac count
C xf
NAME NODE
Ġvert ices
REQUI RED
< -
k stream
time s
izer Node
in te
Ġunknown Fields
Ġa wait
Ġs rv
KEY SPACE
Ġhas Next
G ot
Aut ow
ĠConcurrent Map
N AL
r atch
Ġ Load
Ġrow Batch
Host Exception
on ly
Ġy et
OutOf Bounds
p ack
Al iases
ver ted
Write s
PARTITION ED
ĠSer de
C IMAL
Ex port
Ġservice s
Index ing
Ġhel per
IN C
Stat uses
set Id
Ġnum Bytes
ro le
Exception ally
Ġm gr
Check ing
M Y
AL LOW
ĠRM Container
AS L
de cl
fl t
PASS WORD
p k
get Min
G r
M ask
K IL
r ate
AT TEMP
ALLE LISM
ĠH dds
RE TRY
list en
Ġoc cur
Con sumed
Ġget Num
a h
s orted
Not ify
Transaction al
Ker beros
B enchmark
code s
r ack
v isor
ac quire
ĠV ER
Response Handler
Write Id
Managed Attribute
G ain
Ġdis co
b ine
s wap
in ite
Or Event
Ġ"] ";
C Fs
get NodeId
Ġh cd
Ġconvert To
f lag
: %
load ed
Char s
ĠTesting Utils
Ġinst ead
put Long
PRO VID
and Return
al yz
Ġreturn Type
Decl ar
Orc Proto
M ON
Ġset tings
put IfAbsent
ĠH IVE
EN C
x FF
U DA
m anaged
Ġs yntax
<?> ,
FO UND
Hel p
S ING
ot as
Time Ms
T im
Ġ ProtobufUtil
get Live
Ġcomp ile
Cell Util
Through put
ĠCl oneable
ite st
ag ic
Ġinput ColumnVector
tag s
add Input
lic es
Class NotFoundException
TE S
Channel Handler
j m
Ġnum Of
ĠE nd
Access Key
ĠFI LE
e qualTo
Ġt t
Continuous Query
on y
l a
get D
Ġf ake
Re connect
Ġget User
IN VALID
is Initialized
ĠA M
inter face
Storage Container
ĠHe ader
Ġext ra
Ġcandidate s
OutOfBounds Exception
Topology Builder
Ġwri table
Ġv als
remove All
= {
c ap
lust ers
gist ration
ĠP AT
Ġac cumulator
Re xNode
set Output
7 1
m on
IN E
Ġ"] ");
ĠAssertion Error
ĠS asl
Heap Memory
m as
Ġm arsh
Map Entry
Ġgener ator
Ġp s
is Present
set Data
B its
s In
t w
get Result
ĠU DF
call back
FOR WARD
F LUSH
({ "
P urge
Table State
min a
Session State
ĠKey space
i i
set Default
get Consumer
Ġfor ward
ĠGrid Near
Trac er
O w
ĠActiveMQ Destination
Client Config
ĠW ait
Execution Config
ĠClose able
getS d
Lif ecycle
COD ING
0 9
Configuration s
: {{
pt ned
Ġt ra
ĠT er
Qu ote
ĠMeta Class
termin e
checkAndClear ProcessResult
l s
Ġw atcher
ĠFA MILY
ĠAffinity TopologyVersion
M atches
en gine
ĠData Type
Host Name
H Log
iss ue
se q
Ġget Log
getHost Name
Ġe mit
pr j
inc r
Pl atform
S NAPSHOT
Instance Name
H Table
Ġm r
Ġset ting
tx Start
ri ve
st ep
to UpperCase
pro gress
Ġtr ust
O WNER
n fl
RE PLIC
Ġen cry
nfl abs
p ackage
t ails
Ġget Conf
Ġad apter
assert That
write To
Ġread Lock
Ġ[ {}
De stinations
host name
ĠRe port
ĠF or
Sche dulable
ĠK vState
SEC URITY
Ref lection
rain ing
K Table
field Id
i ssion
al located
av ing
Send ing
Ġp h
Atomic Integer
0000000 8
S low
get Primitive
Ġcon sumers
Qu iet
C nxn
ĠO pen
F rontend
n sor
Ġ CommitLog
On Driver
Mo unt
ĠExecution Exception
Flag s
Ġdo Set
application Id
b ig
h ir
Map Reduce
x Builder
STAT S
to URI
Ġcluster Resource
dest roy
Conditional On
CAP ACITY
w ireFormat
con sume
Ġ* /
Ġpeer Id
C orrupt
a e
Ġ"- "
Unknown FieldSet
get Slot
Data Nodes
Expr s
note Id
Activ ity
Order ing
Ġsc alarValue
sub scribe
Ġmin imum
C A
Long Value
Coprocessor Host
CUR RENT
f ill
get Query
HE N
create Resource
ĠHttp Servlet
A mazon
B RO
Ser ializers
optim izer
read Line
LA G
ĠAl ter
Ġdoc ument
he artbeat
OR ITY
ĠLong Writable
Node Manager
Ġkey Value
ĠResource Manager
r and
Info Enabled
TI S
Cl one
available Exception
Ġa kka
Container Request
ĠSql FieldsQuery
A WS
Ġin Order
\": [
Ġsub task
set Status
s hell
Ġt ri
ĠCon structor
Ġen code
= [
B Y
Ġm an
Ap ply
Ġbe gin
ĠRecord Reader
R s
Z xid
Str ategies
per mission
sl t
Ġl atest
ĠChar acter
ĠVector izedRowBatch
getUser Name
getMax imum
/ >
Ġresult Path
sion s
d iv
Ġpart ial
oun ded
Ġfield Id
ick et
Container Status
ĠN on
NotSupported Exception
Ġc n
po sed
Struct Field
Annot ations
Ġcall er
Re use
ĠGeneric TestUtils
Ġ activ
Ġc ategory
ĠFile NotFoundException
\": {\"
COMP ONENT
And Verify
build Parsed
am l
en um
Query Filter
03 5
M M
Ġ" )");
Ġtype Name
s ave
O b
set Client
ĠC OM
ĠFile s
Ġe qual
lock s
f c
Ġin formation
Table Source
Sh ow
Handle s
ification Time
get Second
Comp ressor
is Valid
Ġd istributed
ol r
PRO P
execution graph
I gn
Ġ4 2
invoke Method
d ocker
ĠI JsonNode
Val idate
Att ach
Stand by
G P
re g
Ġ( ?,
ĠResource Request
Ġ6 0000
ĠIN PUT
orary Folder
ĠD uration
if ecycle
Cre ating
CONTE XT
M iss
Ġde serializer
03 1
d ynamic
st s
Ġt wo
Ġcache s
k in
comp ose
get DbName
TE N
Ġcount ers
Ab solute
I dempotent
Ġ ),
id s
Ġcluster Id
eg ation
Ġexp iry
TA B
Rpc Server
ĠPact JsonObject
Ġam ount
Ġval Cnt
Trans ient
token s
hent icate
Hint s
Ġget Row
ĠH azelcast
Assign or
getA v
L arge
fin ite
dat aset
q s
Ġc losing
are house
For Test
L atest
R ID
o ffer
UR ATION
ĠPo jo
Autow ired
j et
Ġb ridge
ĠApplication AttemptId
E OF
() +
job Manager
Ġconnection Factory
ĠGridPortable Exception
) ";
in ject
con cat
ex clude
\" ).
JMS Exception
C B
per iod
03 6
mi se
G MENT
getRegion Server
raw types
get Location
ĠRe gister
Av ro
G A
c losure
ert ow
has More
COM MA
Ġpop ulate
ĠT YPE
Output Channel
ĠKEY SPACE
DIS ABLE
Ġget CamelContext
pr incipal
Ġcache Ctx
Re gex
ĠA b
ics Type
ĠIgniteBi Tuple
ĠassertInvalid Message
F FIX
Ġpermission s
Count DownLatch
Is Initialized
A GGREG
Ġsign ature
T Z
c m
REDU CE
Ġb ootstrap
Storage Policy
eighb ors
Ġ1 8
ĠV olume
Re ason
tr ust
wrap ped
I solation
re cover
co d
ed Value
Config ured
Of Work
Ġan other
Ġex cluded
Ġexception s
ĠGrid Unsafe
For Value
Retrieval Service
Ġ OR
Ġmemoized IsInitialized
x F
St d
get Replication
copy From
Ġs wap
Application Attempt
Ġget In
Ġexp ired
Increment al
Mon th
S emantic
Dec omp
Ġn ative
Ġs yn
Ġde code
Ġun ion
Ġdat aset
Bi Tuple
task Id
Sn itch
ff ic
pen dent
Linked HashMap
Re al
Timeline Entity
Ġv is
Long ColumnVector
MA STER
ĠE mpty
Ġvisit or
Int o
Ġsh ut
Metric Name
dis k
: /
i per
get End
Data Node
Ġwrite Lock
Wait Time
COMP ACTION
RES SION
Ġs ome
getName AsString
Load ing
Ġchange d
ByteArray InputStream
SCHEDUL ER
i ke
exist ing
Ġl snr
MemStore Size
C assandra
Ġinput ColVector
Ġcluster ing
; ");
Re served
as m
Container Protos
Thread Factory
S parse
Z OOKEEPER
Dist inct
t m
pl ied
Remote Exception
ĠMemory Segment
Deployment Descriptor
unknown Fields
W rong
re start
ĠMap Function
Column Name
99 99
Ġexecution Graph
Public Evolving
j ust
ut f
LU RE
ĠFS Utils
iddle Event
Comb ine
or Else
table name
n g
Re direct
run c
Mill i
ĠSession State
] :
to mix
Ġm dl
Th rows
current AST
Success ful
Ġre gex
Ġid s
Ġo i
Internal Tx
Ġmemory Manager
Cleaner Chore
Ġj cache
<> ());
PRO CESS
Ġflag s
Pr inter
SERIALI ZER
Timestamp s
Ġsecond ary
Ġcon straint
ĠGroovy TokenTypes
Ġs w
read Field
ĠTask Config
ĠSh ipStrategy
Ġkv s
Runtime CamelException
RAN GE
get Headers
SE SSION
OL U
D Y
Sink Operator
Cnt r
IM UM
ĠC sv
ail able
Component Verifier
ari es
VER Y
STA TIC
Ġi tems
ĠG ET
Ġio Manager
R atis
Inter mediate
Ġh older
R ich
Ġthrow able
Encoding Exception
set Exception
DE N
Ġro uter
mem store
Generic UDF
DelegationToken Identifier
an te
Ġs m
am qp
Ġis Initialized
Ġlog s
Mo jo
H azelcast
FILE S
E mail
f eature
Ġget Output
Ġa ffinity
pg a
AT TR
ĠInt rospectionSupport
Ġun ique
core s
pende ncies
ĠInvo kerHelper
ĠdoSet Property
ĠS sl
Ġde p
ĠGrid H
ĠO ut
inter pret
PER SISTENT
th row
ĠIn it
ĠDefault CamelContext
get Checkpoint
Lif eCycle
Ġ? ",
Format Exception
Wh ile
t on
lis ion
getEndpoint Uri
BO OLEAN
ĠAn notation
< _
B atches
F ULL
Thread Executor
Ġmeta Method
ĠTA SK
PER IO
De pendency
scri bed
cry pto
' ");
d omain
Mod ifier
add To
St ored
us ing
Ġkey Group
GE D
T P
c loud
ov ing
form ance
Serde s
list Files
EN CODING
Thrift Id
ĠWork er
Point s
SU FFIX
|| ||
Ġpl c
Ġnonce Group
X Path
get Allocated
so lete
Exchange Pattern
By ThriftId
getB oolVar
Ġlow er
Ġresult Handler
qual ifier
window ing
getApplication AttemptId
ĠEnvironment EdgeManager
ĠTe z
ace ment
Percent age
un used
log ical
ĠA mqp
test ing
yst rix
ĠCh unk
u uid
Ġbu ndle
ĠGridCache Context
RE TUR
ĠR o
(" --
Ġget F
Server Address
Ġa verage
Application s
03 7
Note book
ĠChar set
E mbedded
ĠH A
Message Store
Block Encoding
Gener al
Ġindex es
persist ent
get Len
ĠD o
(", ");
Ġget Task
ĠM ult
DE BUG
Call Site
THREAD S
PROVID ER
Ġen gine
Read Command
U ST
Operator State
key Cnt
h file
Ġ? >>
12 4
ĠMessage Consumer
Ġget Input
Ġacl s
s alesforce
getP ipeline
Mut ations
ĠR aw
ĠSche duling
Trans lator
Config ure
NAME S
B ool
ar ante
Key Selector
ializ ing
Ġ2 000
Grid s
C QL
ĠFS DataOutputStream
ign ore
Thread ed
ree mp
Ġstart ing
queue Name
IS SET
Ġc i
Ġf c
Ġcomp ressed
Ġ6 4
Ev icted
Authentic ator
INDO W
get Bean
ĠD O
Ġ\" "
tri b
c losing
group By
Ġde fined
toString Binary
d ap
t witter
In Closure
Ġinput Format
ang ling
ĠIO Helper
OzoneManager ProtocolProtos
Ġ Expected
valid ator
py thon
to k
ĠT ag
PROPER TIES
Spring Boot
Coded OutputStream
create d
AC TIVE
Y NC
ac ed
ĠObject Mapper
Ġcreate Buffer
Affinity Function
E valuationExpression
ĠC xf
Ġsc anners
Table Schema
im ited
get Channel
(" *
Statement s
Ġtr ack
Ġqu ota
el ast
trans fer
Ġp erson
Uri Path
Ġconn ected
r ub
r am
RE ST
Cap abilities
ĠTField RequirementType
Ġoutput Stream
C aught
Pro be
EN V
Eviction Policy
re plica
Cluster Client
. %
Ġs lice
Slot Provider
Ġcalc ulate
ĠPAT H
Ġnew Val
ĠS o
inite Duration
J DBC
Ġp e
Ac cept
}, {
Ġsu ffix
L P
sub ject
Page Size
Struct ObjectInspector
late st
ri ped
if orm
ht d
ĠLe ader
1234 5678
Test Driver
Ġed it
Ġf actor
ĠP l
ĠG ROUP
Group ing
ĠSU B
Inter cept
ĠCh ange
T AL
Ġup per
Column Stats
HO ME
Ġs mall
sc ii
Field Exception
J an
re ference
Name node
Client Response
Ġcolumn Names
Ġmy agg
^ ^
_ ,
add Routes
Field Name
ĠU se
Ġtime line
Unit OfWork
ĠW atermark
map per
request s
Ġload ed
ick fix
Ind ices
p ush
w atcher
ĠL abel
ĠAtt ribute
issue s
Ġs ince
ĠB LOCK
create Array
Ġoutput ColVector
PRI V
; \
Writer s
Off heap
Opt s
Ġdelet ion
s f
set Class
ĠClass Size
SIZE OF
De fined
Ġl ib
Name d
Concurrent HashMap
e or
note book
C or
Set ter
Store Name
Pair s
ĠInputStream Reader
ĠAc id
Region Specifier
Job Id
ĠBytes Writable
ĠZ oo
Ġresolve d
w ire
ĠInterpreter Result
is Local
Ġb ar
ĠRe move
Snapshot Description
ĠDA TA
Ġd omain
load Class
elast icsearch
add Source
Ġb ulk
Key CacheObject
Un signed
(" );
ĠB Y
Ġinit ialized
SC RI
Namespace s
SC AN
solu tion
L LAP
w arded
Ġconfig s
Ġdata Out
C enter
is InfoEnabled
Se en
Queue Name
Letter Channel
Y ear
s ys
Ġnew Size
ĠD rop
Scheduler Node
Beh ind
N CE
ĠĠĠĠĠĠĠĠ ĠĠĠĠĠĠ
app AttemptId
Exists Exception
Ġaction s
] ))
f ree
ĠI dentity
As Bytes
C ER
F raction
java x
De nied
Ġth ere
Variable s
ĠTProtocol Util
Data Size
PRI ORITY
H i
get Buffer
get Proxy
estim ated
A verage
Ġs f
Name Node
ĠData Format
UN SAFE
ĠDe letion
r d
Re fs
Queue d
Sub Tasks
Ġcomm on
Compact ing
ĠMetric Registry
Ġdead line
b rain
get Runtime
new HashSet
Ġtest Create
Compat ible
Man ifest
Ġser ialization
check State
Ġdis k
C pu
p rivilege
Test Suite
ĠG oss
Ġjob s
tern ative
Ass ertion
un register
column Name
re ceived
th met
Ġsche duling
DO WN
thmet ic
Ġl ines
Hand shake
Ġcache Cfg
Ġreplic as
ss ing
Ġc t
WE B
L ER
Ġb aos
Ġre ason
ĠN FA
ĠK S
Condition s
oo d
Ġrun Test
ri ty
Vector izedRowBatch
ok ie
Synchronization Mode
L java
In jector
De ploy
Ġget Connection
Task Executor
Code ClassLoader
type Info
Ġdis abled
Target Exception
g u
Ġ{} .",
Ġsche dule
V Int
c ategories
ar m
Token izer
Ġgroup Id
F latMap
Ġsession Id
s List
Ġk ill
Custom izer
IST S
jet brain
jetbrain s
e se
Ġb roadcast
Resource Type
job Conf
C C
re servation
Ġrow Id
E K
Ġget File
Ġget Context
CRE T
MXBean Description
Pe ers
s i
Ġ Executor
set Write
()) ))
ĠGridCache Query
03 3
Pro b
so s
apac ities
sing le
po ut
Ch illMode
Ġoper and
job manager
! !
Ex plain
ĠOzone Configuration
ĠC alendar
Ġ3 0000
MI LI
Ġz node
g c
j ira
Ġm ajor
METRI C
Stat istic
ĠMeta Store
ĠGridDht Partition
RM Container
PROTO COL
LI TERAL
ĠTIME STAMP
Ġkey Serde
ave n
URI SyntaxException
o i
on t
Ġ1 9
Ġadd itional
Ġignored Tests
Ġ( '
Column Value
Se quential
ĠF ake
ard ware
Route Policy
Ġroot Dir
boot strap
ĠH el
Server Socket
endpoint s
Ġtmp Dir
Toler ance
Ġf older
ĠF etch
Processor Context
P ython
V OKE
l ie
m ay
re covery
buffer Size
getCanonical Name
m r
ul ated
Ġroute Context
os ition
k araf
Exception s
input Stream
au gh
ĠPro ject
MILI ES
Ġexpected Result
Statement OnDriver
ongo Db
Ġre po
Ġh istory
Qu eries
ENT RY
H Files
grid Name
Mult imap
ĠHBase Configuration
Ġinclude s
F ramework
Ġclass path
dd l
Aggregation Strategy
T BaseHelper
get Global
Ġl aunch
Interpreter Result
Reply To
X Y
an gle
State Registry
ĠK ubernetes
Ġpar agraph
RM App
COLUMN S
Ġf unc
Method Callback
: ",
m an
ĠA kka
min i
Ġtx Entry
P ing
Ġcom ment
Jar s
Sche dule
ĠJob VertexID
con trol
Compare Op
writeField End
augh ter
P Y
get Offset
se conds
Ex ha
Ġl vl
Ġinter rupted
Ġpart Spec
Plan s
Failure s
FACT OR
E MP
F ROM
h ore
Read ers
URL Connection
Atomic Long
Ġlog ical
RO LL
end or
ĠS ensor
im g
Processor s
VI EW
ac er
Ġstop ped
ĠSequence File
ĠT xn
Ġm anaged
Ġresult Set
ĠPrivileged ExceptionAction
ĠEnd Point
mo us
Ġformat ter
. "));
ex perimental
Estim ated
Peek Mode
Con struction
ĠC LI
split s
Ġs afe
ĠĠĠĠĠĠĠĠ ĠĠĠĠĠĠĠ
ĠHive Decimal
Ġstream ing
DA Y
ĠEV T
c ceeded
el se
Application AttemptId
DataInput View
K v
Ġf ill
aggreg ation
ĠGrid Sql
AR CH
t ake
Delay ed
Ġ12 34
topic s
ww w
String Value
key Name
getValue s
getMessage Id
Ġoption al
ĠAv ro
t le
} ")
Resource ID
ĠUn safe
Ġq f
C ent
OR DS
write Object
Method Exception
ĠN avigable
Le ave
Ġsubj Id
so ft
ht ml
03 4
m vcc
get Owner
Ġmod ified
Erasure Coding
ĠT OP
Ġout Stream
:// /
QU O
Ġrun nable
Ozone ConfigKeys
Fail s
Ġerror Handler
ĠTr ace
stand ing
getMod ifiers
get Priority
Ġname d
Ġhttp Client
E AR
OVER HEAD
* )
ĠT RAN
set Context
Ad visory
Ġcol Name
Ġ' .
DATA BASE
ser ial
NE D
Ġlo op
Med iaType
ĠC RE
Time Range
Pre cision
Factor ies
LATE ST
F atal
b i
h istory
ur al
Local Strategy
As Text
Role s
custom izer
Print Writer
ĠName Node
I PC
IN TEGER
Ġse conds
KeyValue Store
send er
Server Info
action s
S em
Ġb ad
Map Function
Index Of
=' "
Ġ" </
ĠH StoreKey
Master Key
Ġtrans ition
Ro ll
PERIO D
F ake
Ġif ace
av or
ĠSe lect
f actor
Event Time
Ġstart Key
Hash Table
Pact JsonObject
bind y
Per Instance
Session ID
Ġpage Mem
FAI LURE
istribution Pattern
h ome
ĠP O
Execution Result
ĠMutable ObjectIterator
AR G
Read WriteLock
Ġrm v
Ġdi gest
ĠB ox
ĠN ew
ĠĠĠĠĠĠĠĠĠĠĠĠĠĠĠĠ ĠĠĠĠĠ
ĠRegion Info
add Child
() }
Commit ter
N aming
Ġcache Conf
ĠCell Util
ĠHe ap
Ġf os
Ġre g
class Node
Descri be
getContainer ID
ĠResource Profile
ĠHFile Block
C orrelation
Test Adapter
main der
ĠHBase Admin
ĠJobGraph Utils
l aunch
get OrCreate
ll ation
Foo ter
ony mous
Tree Map
AM RM
session Id
advance d
S m
h l
Ġ Stats
ĠRe xNode
ka had
back ground
VALUE S
DU LE
Degree OfParallelism
v ide
Ġsh uffle
PE D
Replication State
ĠRe ference
Accumulator s
LOC ATION
getDeclared Field
ĠStorage Type
a ker
log s
Stand alone
Ġp eek
create Producer
AC ID
Ġcontainer Manager
Http Response
GeneratedMessage V
pe ated
to Millis
block s
v v
Object InputStream
Ġjoin ed
b rowse
get Proto
Ġnew Instance
To Live
Ġun marshal
metric Name
Safe Mode
getRM Context
S im
h azelcast
se lector
comm State
V m
File Size
spring boot
b inding
() +"
get Stats
get Interpreter
next Long
ATE G
Storage Service
Ġdel imiter
ĠConfig Constants
Con t
ĠA ctiv
ild card
Met eor
LE FT
Ev ict
get ExecutorService
String Builder
vid ers
get InputStream
Ġt p
Ġ1 7
Generic File
NC Y
Ġdi fferent
S ORT
Ro lling
Epoch Milli
Ġm onitor
Ġget UnknownFields
ate s
Container Manager
HttpServlet Request
ĠJ Unit
LIN K
F requency
N e
P ress
Ġalloc ator
Array Util
Ġ ExprNodeDesc
re w
S opremo
ĠComp are
Ġb it
create Consumer
Ġskip ped
ĠPo licy
W I
In Out
ĠS l
ĠM ed
getRegionName AsString
F UNCTION
Ġcolumn Families
sp y
Le ast
ĠGridCache EntryEx
auto configure
ir ror
ĠM AP
\\ \"
ĠSimple Slot
Ġsche duled
ĠDis patcher
Pred Matched
Ġsyn PredMatched
Atomic Boolean
Ġin coming
getRe ceived
Hex String
1 02
w h
ue nt
Ġassert Not
Ġzk w
ro uter
CO PE
et her
ĠGener icsType
Ġutil ity
D ictionary
Manager Factory
ĠLong Value
ĠSt omp
mar ine
Ġde ep
valuation Context
w atch
Partition Desc
Ġprocess ed
VERSION S
de crement
ator s
Ġ2 5
On Mock
ffer ence
ĠSe arch
lie st
trans ition
Ph ysical
MENT S
In Transition
get Error
ĠA P
fo ld
sc ale
)) {
ĠM atcher
Region State
ĠW rap
Ġnote Id
W O
Ġev ict
ĠLO CAL
NodeLabels Manager
CONNECT OR
ĠRet ry
Ġs hell
T BL
ĠLinked BlockingQueue
g rant
Ġi g
On Heap
ĠColumn Definition
Kernal Context
Declar ation
s asl
an cy
Ġpro gram
State MetaInfo
ĠM ail
write Bytes
ĠIN STANCE
con c
ev t
Ġget Property
Launch Context
REC ORDS
StreamComponent Name
Ġfuture s
H ub
IN CLUDE
Ġpre cision
WAL Entry
submit App
S on
h ook
Ġin te
wri table
h older
Ġn et
Ġstart Row
cy cle
ĠSe gment
RS GroupInfo
Move ment
getParameter Types
est ing
ĠData Node
PAR ALLELISM
ant lr
Ġcom bin
Create Table
serv ations
Root Element
Cre dential
route Context
col or
ĠK MS
ĠCon tract
dis play
fir m
Runner Factory
g gr
To Be
ĠM O
ĠJSON Object
======== ========
Ġspec ify
ĠRegion Server
Ġ InputSplit
Ġ} ));
Re d
LA BLE
Encry pted
Ġ MetastoreConf
an is
ĠP ersist
V ari
s al
SE QUE
DI SK
REGION INFO
S PEC
Ġi mage
ĠI G
)) ),
Column OrSuperColumn
Ġrow Key
F LAG
at ural
ĠF IL
Expiry Policy
Ġb in
Ġin stantiate
ĠRe write
\\ .
HAND LER
o ice
z en
get Registry
Vector s
Ġle ast
ĠOrc Proto
Ġ" "));
RE MOVE
Ev t
ReplicationPeer Config
require NonNull
File Writer
Po lling
GridCache Context
TaskManager Location
G HT
j s
u ally
x B
ĠString Writer
Ġ Constants
Ġm ob
ou gh
ĠClass PathXmlApplicationContext
ĠIn stantiation
Ġcall able
Author izer
Ġ actor
ite ms
End Of
Orig in
Ġ Extended
Ġh ook
ĠFile DataSource
getShort Name
Ġb f
ĠSU CCESS
mut ate
ro llback
ĠRe entrant
Se ek
Normal izer
p ublish
so ap
TH ER
DO C
page Size
TaskManager Options
Primitive ObjectInspector
ĠRel Node
con tainers
Sign al
Print Stream
Ġpro cedure
InputStreamOperator TestHarness
Ġget Instance
ĠC I
Struct MetaData
Ġq b
wait Until
option al
Ġb est
Int Writable
ĠC H
Files ystem
container manager
Ġdec imal
re sp
T Map
u gi
C ANCE
Ġ NAME
Ġ generated
Ġch ain
Or Merge
SIG N
G oogle
M ismatch
R ocksDB
Meta Exception
Per ms
ĠData Source
hand led
INTER NAL
MetaStore Client
kahad b
Re spon
Job Config
Ġcreate CamelContext
F orm
R ound
Data Structure
Ġrm Container
Redeliver ies
on d
get HBaseCluster
Re sp
In finispan
du cing
Cancel led
G ATION
ĠAsync Callback
di ff
F oreign
ff ff
Key Store
ace nt
ute x
Region CoprocessorEnvironment
Ignite Kernal
bit field
Tim ers
co gn
Async Processor
NE XT
n aming
Ġcon sole
ĠComp ute
ĠHRegion Location
Ġdata Stream
Ġit s
COUNT ER
H ColumnDescriptor
f latMap
Ex tr
Ġr r
Ġth reshold
ĠS I
Me ans
Ġan alyz
Session Id
OPTION S
S ASL
x path
read Map
host s
19 2
ĠURI SyntaxException
i ated
Ġget Version
cre dentials
init ialized
IP AL
Election Service
INC IPAL
$ .
Ġregion Server
H StoreKey
i fo
temp ted
ĠData Types
Driver Strategy
ĠDFS TestUtil
ĠDec oratedKey
ĠSorted Map
en cry
ook ie
ad aptor
Object Node
TYPE S
Submit ter
K ryo
Bu g
Ġis Use
Base Row
PA RENT
Bl acklist
ĠA LL
ĠJ DBC
ĠUn availableException
Reference s
Ġa udit
SH ORT
I Column
Ġde ploy
Back log
Ġpri mitive
ĠSc anner
getCurrent User
IN F
Ġh dr
server s
Source AST
ĠConcurrent Linked
ĠFIL TER
c lock
Ġp ublish
assert ArrayEquals
Client Factory
Metrics Constants
Char Sequence
OLU ME
SE GMENT
ĠLI TERAL
h igh
Ġre connect
Ġget Resource
Data Types
Log File
Ġfetch er
Bl ueprint
A mount
H Cat
l azy
Ġout V
UN I
Hive Exception
ĠSc ript
Ġt i
Ġt oo
Re write
Table Names
Row Count
User name
Ġuser s
B ranch
Ġdata File
d uplicate
up plier
LE EP
MI SSION
Rel ated
ĠRMApp Attempt
Ġtask Tracker
ĠF ailed
Ġrun StatementOnDriver
Ġwith out
ord ers
Ġde termine
Ġdest roy
Ġc orrelation
De pth
Region Load
Session s
Is Mutable
ĠFile Util
Change Request
ĠRM Node
Ġgener ic
getTask Config
In MB
un ion
Row Mutation
Ġname node
Grid Node
ĠIN DEX
C rc
get env
Se g
ĠNode Id
Object Mapper
unt il
ĠU P
Operation Context
complete Exceptionally
Ġattr s
C loud
f rame
de finition
Ġth rough
Ġassert Expression
Ġ") ";
ĠSTR UCT
row Key
Pro filing
List Expression
Operation FailedException
leg acy
Compaction Strategy
ĠNO DE
. "),
is File
Ġb asic
Un re
ĠB ulk
ĠK inesis
Rpc Timeout
ynt h
C ar
I ssue
Z ookeeper
Ġbl k
, ,
B A
L D
Sh ift
Ġsend Message
ĠPre pared
() ]);
ann ed
Placeh older
dOut Exception
Ġ ).
get Comparator
Ġf ire
10 1
By Id
ĠResource ID
SSL ContextParameters
ĠImmutable List
Ġack nowledge
o mm
get HBaseAdmin
Ġtrans formation
Comp ilation
ĠM aterialized
Region Response
Ġinstance s
Metrics Impl
ĠSet s
PRI MARY
TRANSACTION AL
st ripe
as c
Ġm arshal
un ique
Comp lex
AL E
Xml RootElement
ĠPar ser
set Accessible
pro gram
Ġstate Store
In c
Col lision
Container Command
COMP RESSION
Ġ ));
loc ator
Ġcurrent Time
com ment
Ġversion s
ĠEntry Processor
Trac ing
arante ed
get Expression
ĠChannel Type
ĠConsumer Record
C AST
Ġc ast
As Stream
Char Array
BER OS
ĠCO UNT
k ill
Ġ Protocol
ĠT witter
inter ceptor
Ġread ing
set Use
ĠS end
11 1
ĠS ync
Task Attempt
Feature NotSupportedException
Ġvia Proto
P ax
th reshold
ric h
Block Info
Co okie
ot on
DO UBLE
ĠCo Group
Ġsec ure
JSON Object
Ġmut ations
Ġ ERROR
con trib
Build ers
Ġp tr
UN C
ĠProducer Template
g able
Ġ" {
po inted
Ġmatch ing
Th rott
Common ConfigurationKeys
L ambda
Ġcon sumed
Ġde tails
ĠO ZONE
SI MISTIC
P ORTED
he s
Thread Local
ence Adapter
oper ations
fail over
Ġexit Code
app ings
Ġcommit ted
Me asure
Ġpro b
Context Impl
Container ID
Ġapp s
G H
Re jected
Ġm aterialized
Ġac quire
ffic ient
ST RI
Sh ip
Ġpri me
mod ified
Ġover ride
> ";
F lat
Ġd uplicate
12 0
path s
Ġdir s
getAn notation
Code s
ipe lin
version s
h n
row ser
th ird
* _
m gr
ĠRecord Writer
I I
p ublic
co me
Ġcreate Broker
Add ing
Ġdis play
Ġspec ific
invo kable
re play
al t
Ġcon verted
Ġget Node
Ġdo Start
ĠUn ion
Window Store
Spring CamelContext
fol low
Ġ Factory
Ġt runc
Ġe lapsed
ve d
a as
Ġo ptim
Test Rule
create And
Ġinter mediate
F lushed
us age
Service State
Share Preemption
unmodifiable Map
B rokers
qu eries
Ġ. ..
ĠRE PE
Ġkey ed
COMP LETE
dr uid
Ġgraph Builder
Ġneed s
ĠParse Exception
S nap
ĠS alesforce
is Static
Ġre balance
sc al
ĠCON NE
oton ic
G rp
S O
ing Level
iz ing
Ġbuild Partial
Metastore Proto
G reater
set Conf
file System
Error Msg
Sp illing
CHECK POINT
ĠMockRM App
S ave
St yle
Ex plicit
Ġun expected
Ġ12 8
ĠTimeout Exception
Ġf ault
D ot
P ause
Partition Info
di gest
L snr
Ġnode Manager
Le ss
ĠW e
Assignment s
do As
Ġproperty Name
T ry
Ġd flt
ĠLong Adder
Ġendpoint Uri
ĠOzone Manager
imp ort
x E
Ġf ragment
ĠP RE
ĠProcessor Definition
A m
ĠA uto
Container State
Mvcc Candidate
Ġks m
ĠHE ADER
ul s
Th ere
NA NO
Ġun register
Groups Handler
Ġt ake
Ġcol Names
Enum Set
L dr
process ing
Ġpo jo
method s
A re
Ġp id
get Part
Be at
Source s
Protocol s
Route Context
Api Keys
kew ed
get Used
File InputStream
test utils
em it
ĠLong ColumnVector
Property Placeholders
getContext ClassLoader
Se ed
>> []
ĠJob Status
mod ule
Ġsum mary
Ġg r
ĠDefault Exchange
B IT
MIN UTE
RS Group
ĠMin a
Mer ger
ĠD i
getS STable
SERVER S
En force
Ġro und
command s
ĠArgument Captor
art Beat
ĠL ine
Un compressed
>> )
With Rank
On Exception
expected Header
ĠFS DataInputStream
< <
r ase
Ġex ch
Ġdo Read
Submission Context
; )
S G
set Message
ĠE lasticsearch
ĠService Helper
ĠActiveMQ Queue
T oo
Ġc or
fa ir
ĠD r
Ġcreate File
NA TIVE
valid ation
Storage Handler
getP eer
J ndiRegistry
get Read
ar er
ĠC ql
Address Book
ĠRuntime CamelException
uls ar
Str ict
ĠC redentials
Long Writable
Ġ? >)
++ ,
Ġpath To
dat ab
ĠAsync Processor
re al
Ex act
ĠA cl
ime n
Log Aggregation
Block Cache
queue s
hel p
Ġr q
Ġget Local
Inter rupt
Queue Item
Ġjob Vertex
any String
Ġ ann
et ic
ac cumulator
ĠAuth orization
Ġcap ability
l ive
re verse
Re covered
per ly
Ġcreate Connection
card ing
v r
ST AR
Ġa uthentication
Ġmsg s
ĠMethod Caller
d ay
get System
Con sistencyLevel
batch Size
ardware Description
Ġin cluded
Ġregion sTo
Ġfollow ing
ĠH TTP
io e
Location Info
Ġold Val
Deletion Time
> =
i able
(" (
Builder Factory
SharingGroup Id
Ġp reemp
ST Node
Column Desc
ĠSQL FeatureNotSupportedException
ĠNo Op
we et
ĠRewrite Rule
ĠB Tree
create File
input ColumnVector
PR INCIPAL
in coming
Column Definition
Ġpage Addr
n ative
add Sink
with Description
LU STER
get TableDescriptor
Class ification
And Headers
ĠBack up
> {
so ck
Int Value
fa ke
Requests Count
Cached Class
ĠST ART
ĠN et
LA IN
Discovery Spi
sstable s
ĠKS MetaData
B ut
Ġb ld
ĠB loomFilter
ĠReturn Code
Log Level
Ġmem Store
container ID
ĠLinked HashSet
Ozone Consts
ĠMethod CallExpression
strument ation
} \
SI TION
CHAN GE
Container Data
Ġret ries
Internal Name
igit al
Jan itor
Keep Alive
Ġ artifact
get List
ĠS avepoint
Transport Factory
te arDown
comp ressor
Ġmessage Id
Det ail
ĠMetric Name
(" </
Meta Region
On Disk
ĠIgnite Spi
(_ _
B IG
S COPE
T Struct
Blob Key
ZooKeeper Protos
Ġoccur red
ĠP art
arn ing
Ġfile System
ĠKeyValue Timestamp
m link
at able
ĠI F
Job Result
ĠA cc
Grid ToString
ĠType Comparator
Non Blocked
executor Service
Delivery Mode
2 34
k inesis
de ployment
ro zen
me ssaging
get Schema
par agraph
Ġgroup Name
Ġwrap per
ose n
Ġscheme s
ium Tests
ĠAcc um
A TABLE
get Record
De mand
array Access
V OLUME
row Id
Ġget Message
auth orization
Ġb etween
ĠType Extractor
TO TAL
Top Ver
ĠVER SION
get Kind
Output Gate
Func Desc
ĠMo jo
J vm
Ġ Util
ĠS ign
ĠL E
Ġcreate Consumer
be z
Ġon line
getA ctive
tw img
3 00
N egative
[ "
get Execution
read Binary
m mediate
Byte Buf
Testing Utils
C losing
Key Args
Imp lementation
m arshall
set State
ĠC ross
ific ations
bez ium
ĠComp ilation
dis patcher
Ġget NumberOf
Output Collector
Ġupdate s
Pl ain
Random AccessFile
DF LT
Ġrequire s
v ariable
Ġc mp
Ġcreate Endpoint
Ġpo int
yy yy
ĠNoSuch ObjectException
Z ip
Ġz ero
Root Path
Ġstop All
Built In
d to
ri thmetic
Ġget Id
Ġg rouped
Ġstand by
Ign oring
(" {
Ġfile Status
Processor Supplier
block ing
Exp ect
Ġext ernal
getShort UserName
F allback
K s
class es
Region Observer
GR ID
ĠImp ort
Ġ Static
Co p
ĠM ain
ĠIgnite Uuid
Ġmax Size
TASK S
C AMEL
K B
P an
ĠP ython
che ese
)) ))
write Byte
ĠCon dition
TAIN S
compat ible
Ġo ldest
w idth
get Lock
Resource Plan
Ġ2 2
STO M
key Value
ĠH and
Al t
Split OrMerge
Ġover write
ower Mock
D s
m icro
Ġ QUEUE
Time Stamp
TA TION
cluster Id
Hbase MetastoreProto
F ac
ir ing
delivery Policy
st it
get Operation
Event Handler
Ġch oose
Compact Protocol
Violation Policy
] +
Class Resolver
Ġde precated
Service Protos
Grid Client
a im
a ken
re es
Grid Portable
ĠTuple TypeInfo
Wrap ped
Ġom MetadataManager
Shim s
ĠJ etty
Ġpre pared
Ġwith in
EX T
page mem
c n
Ġr dd
ĠAbstract JobVertex
Ġwe ight
get Partitioner
Service Discovery
ĠThreadPool Executor
I pc
Ġdata Size
mem table
ĠAl located
ĠT H
con sistent
")) )
expectedHeader Received
Ġinter cept
ĠIllegal AccessException
ks Name
ĠDr uid
ct ual
RE P
So ap
ĠCapacity SchedulerConfiguration
m v
getS uper
shutdown Now
BE AT
getNext NonBlocked
A W
j dk
IN D
Class Rule
Ġcomp ress
Ignite Uuid
ĠTRAN S
ĠT O
Ġde s
Not hing
Ġ? )",
Ġper cent
Ġsnapshot Name
Skip List
Ġ{ \
sh ip
Cache Store
Work ers
Hive Decimal
RA TIS
KER BEROS
Ġauthor izer
Ġresult Type
Ġrow Count
RAN DOM
END POINT
Job Info
Sub partition
Ignite Fs
W ire
d ag
l atch
Filter ed
ENTI TY
datab ind
get Datanode
Ġc orrupt
ĠP lease
Ġkey Bytes
ĠStreams Config
get Content
Ġstore s
Ozone Acl
ĠHe artbeat
J AVA
Ġm q
col lector
b r
Request Body
page Addr
ĠAcid Utils
t ml
Dec re
ĠCache Projection
Ġbucket s
SUM ER
S Q
get ByName
Ġbu ff
cache Configuration
StateHandle s
Skip ping
get Regions
B etween
de fined
\" .
ĠM Q
sign ature
Co der
Input PlanNode
ume True
Ġag ain
Members hip
F Y
Ġb r
Variable Expression
i q
Ġ č
Ġc ore
Ġth rottle
ĠS um
Ġset ter
ĠIgnite Future
HI ST
HEN TIC
p ause
In crease
Ġdo Stop
Checkpoint ing
Ġhost Name
set Var
Ġset Value
Ġg p
Ġg reater
Completed Checkpoint
Acknowledge ment
s Count
Ser ialize
ĠL icense
Topic Name
Ġ mp
Ġ2 3
memory Manager
ĠDriver Manager
l atency
Ġis Empty
store Name
Restart Strategy
activ ate
iCa SchedulerApp
Ġr ate
KE D
Re x
Ġh ere
Ġset Max
in ux
th rowable
ĠD istributionPattern
create Exchange
Ġon Exception
ka ha
Ġcolumn Index
Ġcount s
Ġm arshaller
write Binary
Ġlog Dir
last IndexOf
Alter Table
Ġre nder
ĠR ich
ĠstopAll Grids
T U
Ġ Stat
able Expression
OR M
Bucket Info
Abstract Type
Ġxml ns
ceiverClient Manager
ĠMBean Server
T CompactProtocol
ing Directory
ID X
ĠF ull
Ġpartition ed
Dec ision
Ġob tain
Retention Policy
ĠS H
junit s
Volume s
TProtocol Util
Ġin ode
Ġexclude s
ierarch ical
ĠT ool
Ġexchange s
ĠDataInput View
ĠJ AXB
TaskManager s
BUFFER S
Byte Channel
++ );
Grid Near
Ignite Configuration
Stream Transport
ĠO FF
ĠE mbedded
input Gate
ĠTask Executor
00000000 000000
Enum eration
Located Block
get Exchanges
ĠD DL
File Utils
Exp ire
ĠNot ify
) ?
P ING
re use
Ġsupport s
w orld
Ġnum Records
par allel
Ġbuilder ForValue
Generic FuncDesc
Interceptor s
b ulk
ed For
Ġtype Id
Ġdata In
ĠK er
PAR SER
ĠContainer Protos
Mutable ObjectIterator
E asyMock
to HexString
ĠC LUSTER
ĠDFS ConfigKeys
TIO StreamTransport
al ways
rm Context
U df
ĠString Serializer
Ġin spector
Sh ut
Work set
RM StateStore
ks m
Imp licit
Ġnum Regions
getMemory Size
par quet
Ġcom bine
Ġjob Master
Ġchar acter
isSet Success
le af
int p
Ġassert Same
Ġinput Events
Ġup d
Ph one
Subtask State
P PELIN
get Database
SE CRET
type Id
ZE PPELIN
Ġuser Function
Ġlock s
Reset table
ĠAL LOW
Con tain
up load
Out bound
Mini HBaseCluster
Ġf allback
Ġtest Data
Qu ant
Ġ ]
Ġ" *
ĠW ITH
input ColVector
Ġdis patch
HBase TestingUtility
BIN ARY
I MA
e lements
y et
read Message
Resource Types
Ġend Time
ĠDe serializer
Ġed its
I MP
S ampl
Ġ Descriptor
ann ing
ĠW ord
a ud
Ġre cursive
Ġver b
Primitive TypeInfo
Ġaggreg ator
get Base
ec ho
check sum
Ġpart Names
Back ed
getRow Length
' '
get Temp
cache Key
make Qualified
W ARN
ab bit
getColumnFamily Store
ĠSp ace
ATEG Y
Ġj mx
ErrorHandler Builder
ĠLogical Slot
Ġtask Executor
Ġne ver
anis m
s avepoint
S SE
get Sub
Ġj m
Ġd t
cache Ctx
Ġpo ssible
= ");
N eighbors
Ġt ries
In Sec
sp ect
pl atform
local NodeId
Core Options
RPC Protos
J AXB
pro be
key store
ĠIgnite Ex
visit Method
getEncodedName AsBytes
x C
y b
Ġ( ;
Ġget Data
Ġread y
SSL Context
get Protocol
Ġget Proxy
ĠB ind
>> ,
Ġstream er
C riter
M aterialized
an ization
Po p
Container Report
visit Insn
MILLI S
unmodifiable List
D urability
Resource Usage
Ġcol Num
Ġbe ing
Serializer Snapshot
Ġcontainer ID
Ġstore Name
Ġbase Dir
Chunk s
ĠDataOutput Buffer
Press ure
U B
Ġco ord
new Record
Task Event
thrift Id
Ġ{} .
Return Code
ĠCon tent
b roadcast
Ġd f
cur sor
Leader Id
ĠT BaseHelper
Execution Context
byte sTo
Ġgrid Name
J etty
ion s
an it
ĠEvent Type
cod ers
K A
Ġ ar
(" _
Ġre pair
Key tab
Not Exists
iter ation
Logging Level
Ġo k
Consumer Config
ĠOperator Desc
UDA F
M alformed
File OutputStream
(' \
Spring TestSupport
tp Url
Ġmod ify
1 10
set User
ĠArray Node
Ġac cum
Unsupported EncodingException
Ġe ither
set Text
Return ed
B reak
t itle
al f
Test Dir
Table Accessor
ĠV AR
OutputStream Operator
STR ATEGY
Ġm er
ĠS W
Object OutputStream
Time Provider
create Registry
Colle ct
RI FT
Ġdo Write
Ġtarget s
Groovy SourceAST
Nonce Group
BRO KER
omm ission
J M
read UTF
Token Stream
B B
Ġm id
State Machine
Data Row
Ġle ase
Ġbytes Read
Ġmetadata Manager
Ġattempt Id
Ġpass ed
C I
P LAIN
c atch
up dated
word s
Verb Handler
Cache Name
SI mage
}, \"
getA uth
red it
S ome
Is Null
Actor System
Dest roy
Outer Join
Ġre covered
Ġm ultiple
task Name
Ġconnection s
Compaction s
ĠBlock Info
ĠCON F
Lay er
s able
Ġ Location
Ġget Last
ĠN ative
Ġrpc Service
Ġsecret Key
DIRECT ORY
) "
A mqp
ĠS hell
Bu sy
Ġget And
Proto Format
execute Query
Prepared Statement
ĠI gnition
str icted
w ill
id ing
Builder Initialization
ĠSer ialized
Element Exception
Buffered Reader
Ġmaybe Force
ALLOC ATION
ĠNet Utils
ĠmaybeForce BuilderInitialization
ic rom
Ġex plicit
str ict
ĠKer beros
Ignite SystemProperties
from Elements
Msg s
proc Exec
f y
Ġ" @
Ġpair s
Ġto List
Ġcf Def
icrom eter
b alancer
Hand ling
Default CamelContext
Names ystem
Line ar
Launch er
Grouped Iterator
Ġc Node
Ġf n
ĠUn iform
Op port
Ġwri ting
ĠMaster Procedure
ĠPrimitive ObjectInspectorFactory
SEQUE NCE
ro ll
Vector Expression
SY S
getReceived Exchanges
Type Wrapper
Per f
Start N
alle st
ĠFA I
R aft
Ġp retty
SIST ENC
SISTENC Y
Z k
Comp ile
AT TRI
EN G
bo un
Ġfunction Name
a id
De pendent
Ġget Partition
ĠA ck
Node List
Ġcreate Registry
NODE S
get Function
yb rid
L ING
Config urer
Ent er
TypeInfo s
Ġspec ial
Retry ing
ĠSec ure
getStart Key
is Array
Col Names
ĠL ONG
ART BEAT
r atis
Ġre new
ST AND
Ġcache Configuration
Shutdown Hook
1 12
C apacities
H its
Ġr p
Ġr w
Access Token
ĠLog Aggregation
C lusters
as b
read Fully
lan k
Datanode ProtocolProtos
ĠDe ad
Related To
D irection
add ing
re pair
Ġ" $
Ġm iddleEvent
Assignment Manager
Datanode s
ZER O
L abeled
P run
ive d
local Peek
Rel ative
ĠH Cat
Group Name
Sc anners
ĠTrans former
ĠDis covery
ĠGrid CommonAbstractTest
ĠValid ation
R ob
ire cted
Task Context
Method Call
Quiet ly
F LOAT
Test Plan
ib ly
ĠMo del
A zure
Ġm ask
Cache AtomicityMode
Ġfield Number
Ġthread Pool
Ġ40 96
Ġ Proxy
Stream Shard
ĠSE LECT
3 000
se ns
MA IN
Att rs
ĠDe nse
ĠPro gram
ce an
Ġget Start
ĠB O
ĠMap Join
Ab s
normalize Identifier
Ġb loom
Update Request
ĠByte Buf
T itle
u zz
st arted
Ġf ixed
able State
ĠI Column
ax on
wri tten
ĠCRE ATE
Mode s
ĠTimeline FilterList
ĠTemp oraryFolder
get Broker
Ġcon current
Ġl atency
Client s
Ġroute Id
ActiveMQ ConnectionFactory
Ġmill is
ĠMessage Producer
assign Containers
HBase Configuration
Stop Row
Ġop Ctx
Exp iration
ĠBlocking Queue
ing State
qu orum
Serializer ConfigSnapshot
ĠDis k
ATTRI BU
6 00
Ex clu
ame s
fi re
Custom er
add AndGet
se ed
RE MO
Service Provider
CE NDING
Ġapp AttemptId
Fl ight
COMMA ND
r nd
de z
De serialize
topic Name
Sort er
f ragment
Ġb ounds
Lo st
vo us
Ġab solute
ĠCluster ing
label s
dez vous
5 12
6 16
get Metadata
Config File
ĠG auge
ĠName d
ynth etic
In bound
Ġs y
Constant Desc
co ordinator
set tings
Ġd c
ĠL abeled
ith ub
Ġz ooKeeper
Ġkeep Binary
I re
S LEEP
() ==
ĠF UNCTION
Resource Profile
Tr uncate
ĠResource Information
ĠX Path
33 33
window Store
Z node
Ġ er
Ġ Id
Ġr hs
\" "));
LI SH
Work Directory
Keyed State
#### ####
Ġ YARN
ĠM erge
E lasticsearch
Ġp acket
ĠGrid Query
With Key
Al ways
Dec or
Ġstop ping
peer Id
Online Regions
ac ro
ĠS P
new Size
che s
ĠStream Task
partition ed
Suite s
getRow Offset
Ġprint Usage
Agg Function
ĠCLI ENT
Async Callback
calc ulate
Spark Context
CM D
Rec ipient
PEC TED
F ederation
er se
Re new
With Header
data Format
Snapshot Request
FF FF
EX PI
Ġcommand s
Exha usted
Ġ Converter
Cluster Descriptor
Access Reader
Java Object
Txn Id
setContext ClassLoader
( *)
Comp let
Ġse parator
Query Param
Connector s
Tri m
add Last
Ġtest Task
ĠD ist
ĠFile Writer
ĠHdds Protos
V endor
get Transport
Config urable
Table Scan
create Statement
Ġfail over
Ġ[ %
ĠPo int
L dap
get Allocation
ĠS ee
cs v
Exit Code
yet us
M oving
Ġ ri
Ġ ORDER
Ġlog Prefix
Do es
Restriction s
] =
Key Groups
Det ection
Bound ary
AUT HENTIC
/ {
g ithub
Ġcol Stats
Mill iseconds
transaction al
={ },
aud ience
g anization
get Double
ĠJ ar
Ġcheck And
bl ueprint
ĠKey Store
ĠSche me
Send To
par sed
ĠIn ner
get Raw
Ġget Server
(' .
getB roadcast
emb ler
z node
Ġm atched
Ġtable name
Run Id
aw t
Tx Id
Iter ative
Estim ator
erse y
A scii
E DED
at ibility
ĠDataOutput View
---------------- ----------------
ĠCapacity Scheduler
Ġp tn
Ġe scape
Co ordin
Ġget TableName
Ġw ireFormat
Ġde gree
Timeout s
ĠC lock
ĠO T
KEY STORE
Snapshot Response
getHost name
c ret
test s
Index Entry
Ignite Ex
FE T
T WO
st d
con straint
Ġcreate Task
UM MY
Snapshot Done
for Class
for ward
Yarn Exception
Xml Accessor
dat ing
Day Time
Fac ade
gre es
Ġ Progress
at om
Ġm ime
Ġh arness
Queue Info
Slot Request
Element Type
Ġz ookeeper
part y
second ary
Gu ard
CLOSE D
C LEAN
is Closed
ĠF initeDuration
g ue
i dentifier
at tach
Ġst omp
To Registry
Ġw s
object web
Web Socket
aha DB
uzz y
ĠI s
ĠF ault
tmp Dir
Ġ ask
Ġkey tab
ĠF ederation
ent ities
B R
type Name
Ġsh ard
Ġjob Name
Ġcl ause
15 0
FT P
XmlAccessor Type
s ince
x A
Ġin cr
Ġpro jection
ĠP rincipal
Size MB
trans formation
Ġqu eries
ĠWAL Edit
Deserialization Schema
Se lected
store s
AS YNC
ĠImmutable Map
(" $
Stream Task
Major Compaction
EV T
write UTF
Ġcurrent Thread
Multi Threaded
Ġwindow s
ĠSorted Set
N FA
re ducer
Ġj ournal
IN VOKE
Ġis Valid
Ġtry ing
Interface s
getInput s
Mer ging
Ġre gistration
DataStream er
get Is
Endpoint Uri
DE CIMAL
ĠRemote File
Ġscheme Field
Ġstreams Metrics
e qual
FS DataInputStream
Ġpart Id
TIME LINE
Ġcnt r
DataOutput View
irc u
R out
qu ill
Ad aptor
And Wait
Ġwrite Id
BU ILD
Ġgener ation
ĠgetDefaultInstance ForType
add StructMetaData
Ġe val
ĠMap Contract
Version ed
CO RES
Var Insn
Tree Reader
find er
mod ify
quill ian
addStructMetaData Map
p rivate
add Component
at ic
st ored
ĠS ort
Ġw orld
Thread Name
Invalid RequestException
CLU SI
Class TestRule
sec ure
Optim izerNode
x m
Ġ Quota
ĠSimple DateFormat
kv s
Con sistent
Ġcreate Client
Ġstart Index
Tuple TypeInfo
Ġservice Name
GridCache Entry
Rel ation
counter ed
ĠT Struct
pro duct
Ġtest Put
Bean s
ch ain
Ġpro file
Sh ot
Execution Attempt
Unknown HostException
S pout
f ab
Ġ Me
Stream Factory
Row Result
task Context
Ġcommand Line
Preemp ted
ircu it
c b
ur ator
Ġget State
Ġoutput Vector
CREATE D
fold er
vice With
Schema Helper
Ġ[ -
Ssl ContextParameters
Ġre striction
Priority Queue
X A
f it
bu ffers
Class Doc
Ġnum SubTasks
Aggregation Buffer
******** ********
LOB AL
Ġ MemStore
Ser ial
result Path
h catalog
Table Environment
ĠB Plus
<> (),
completed Future
p ub
s lices
is c
Event Id
Ġout s
component Name
Ġ'] ',
prepare Response
Ġparsed Message
ĠCS V
AddressBook Protos
D n
H our
m apping
Path Param
Job Master
Per m
ĠState Store
C ql
Ġj id
Ġparse DelimitedFrom
Ġnamespace Serializer
configure d
EM ON
ErasureCoding Policy
LI TY
Error Message
Ġstate s
Ġthread Id
ĠField Schema
ĠKafka Streams
ORI ZATION
on it
Ġc rc
Ġf l
ĠComp act
FO RE
Ġcon s
Grid Gain
Ġresponse s
Rpc Callback
Volume Args
Ġobject Name
c ert
ĠW RITE
10 3
Ġtesting SlotProvider
S LO
p able
Ġc a
ret rieve
visit VarInsn
ĠCacheEntry Predicate
Ġ ordinal
source s
AR GET
Num Records
Xml AccessType
Ġput s
exp ired
ĠCheckpoint Options
Ġinte ger
V archar
St omp
KeyValue s
message Id
Di fferent
Private Key
B I
M icro
j ax
cy c
Files To
serv able
vert ices
CRE MENT
Ext ra
b ck
Ġ+ "
th rottle
pro jection
()) ),
Ġblock Id
ev ict
ĠAdd ress
G oss
c apture
(" )");
ĠP ER
Ġcreate Test
Controller Factory
ĠCreate Mode
stub s
ĠSI ZE
Ġm b
getResource AsStream
Feature Checker
Ġcontent Type
V s
Ġn egative
Ġget Block
Resource Handler
start MiniCluster
No Op
ĠMock NM
getDecl aringClass
third party
FET CH
C r
Ġnew Exchange
Ġs im
Ġpro perly
>> >>
ĠE OF
Producer Config
Ġ( %
Ignite InternalTx
= {}",
B olt
D ual
de cessor
low er
ĠExchange Pattern
Security Exception
Ġvalid ation
E ar
is Alive
(" #
Ġvalue Serializer
Ġcustom izer
B ounded
Ġkey Type
ĠDE LETE
Ġ Coprocessor
RE PORT
Response Status
Interval Ms
ĠCo mb
GE NER
Ġtemp orary
ĠREPE ATABLE
= {}
(" :
On Failure
Ġwrite Object
CT OR
Ġapp Attempt
DS L
Ġdeep Copy
ĠWord Count
A MQ
Tuple s
ĠIndex OutOfBoundsException
Ġvariable s
K nown
sub tract
PAR K
Replic ate
Period ic
DISABLE D
N a
Client Provider
Ġad vance
ynam o
Ġgc Before
S ens
he mer
Ġin crease
Ġw atermark
ĠD I
Target s
getExchange Id
P ull
Ġ Keys
Ġfield ID
DA EMON
EN CE
Interpreter Context
ĠHttp Client
def ine
we ight
ĠMini Cluster
descriptor s
List State
ĠF ast
Header FilterStrategy
Process Function
14 5
getAnd Increment
J Son
Ġ Stack
Method Name
=" +
sub List
Ġpart Vals
Interpreter Setting
ĠFlink Kafka
Ġ ONE
ile s
ĠS UP
Num bers
Dec ommission
Put s
Pipeline Factory
ĠAggreg ator
activ ity
D NS
add ed
get N
Remote File
gener ator
Pact String
ĠDe ferred
Ġnames ystem
Ġcre ation
A wait
B AL
W RI
State Map
LA ST
ĠStream Thread
Atomic Reference
Leader RetrievalService
getV irtual
, _
j av
Key LocationInfo
ĠW atcher
tinu ation
Primary Key
gular Object
ap pen
Pact Task
Ġinterface s
T witter
Ġimp lementation
im s
Ġfile Id
delet ion
getRow Array
B ag
ip finder
Ġcontainer Name
Delet ing
acent er
Ġ \\
File InputFormat
Ġ{" -
Generation Stamp
TX N
ap hore
as Map
bu ndle
Group By
Bucket Name
GridCache Version
ĠSt age
B alancing
or al
Ġp ause
get Hive
De s
loc ations
ĠM vcc
Component Configuration
secret Key
is Running
ĠG oogle
Not Retry
Archive d
MANA GED
Ġrel ative
SUP PORTED
may be
g p
At tempted
ĠByteBuffer Utils
Exp and
ĠByte code
Ġ"_ "
Infinispan Constants
Over flow
Read s
Ġstate Desc
jo urnal
rupt or
DESCRI PTION
ObjectInspector s
Invocation TargetException
V O
Message Size
ĠRe x
ĠM R
Server Cnxn
Ġcomp ressor
Iterator s
5 17
D DS
type dOther
AS SIGN
E p
Ġ En
Partition Spec
Ġev ts
property Name
Added SchedulerEvent
Stream Operator
read s
Ġde serialized
Ġtest Config
ĠF low
Ġmap ped
request ed
MO DULE
Alloc ations
ling o
nt i
cluster framework
AST Transformation
Multi Node
ĠPrepared Statement
ĠScheme Factory
H Y
Par quet
Number FormatException
Ġsub scriber
ĠLog ging
IN K
Descriptor Builder
ou sh
Ġsche d
Ġy our
ĠIO Error
ĠFILTER ING
create TempFile
ĠCache OperationContext
merge d
REGION S
Under Construction
Ord inal
H tml
ĠM llp
Ġby Name
BO OT
Extension s
ĠSingle OutputStreamOperator
sw ing
F ix
he x
Ġh file
Ġse e
FA IL
AT O
ĠReplication PeerConfig
ic ator
Ġcon struct
IO Utils
exp iry
Catalog Janitor
tbl Name
ĠNote book
A RE
um an
Processor Response
Ġread Object
ĠCache Exception
A ggr
s mall
Block Encoder
Ġser vlet
Ġinput Channel
Operator Table
ĠCheck sum
Invocation OnMock
le mented
Ġcon trol
Ġ3 000
Ġsp an
Ġsp ill
mk List
ĠConcurrentLinked Queue
n a
Ġ Connect
Re n
Table Request
create Serializer
segment s
ĠExternal izable
l azz
inter cept
Ġtime Unit
Ġval Bytes
Accessor s
Available Exception
I LABLE
c aught
de serializer
Time Zone
Ġhe alth
Warn ing
Ġfind ByThriftId
Pl anner
thread s
b alancing
Th in
ized Key
OP TI
ĠField Set
ĠDatanode Info
Ġ[{} ]
ĠR outer
Container Resource
Row Filter
gr ace
ĠHBase Fsck
Ġjoin er
Ġincrement al
IMA GE
= ?
add Connector
Ġset Key
FS DataOutputStream
ĠIn crement
ĠKey Selector
Blob Store
ĠSt orm
scheme Field
S mpp
W orld
id den
Route Test
dis pose
PRE SSION
get Arguments
Node Name
TER ATION
")) ));
ĠĠĠĠĠĠĠĠĠĠĠĠĠĠĠĠ ĠĠĠĠĠĠĠĠĠ
Ozone Configuration
image s
KIL L
D Stream
get Acl
Ġb us
ĠJ ournal
24 0
D ag
st age
get ZooKeeper
Ġh int
Ġoutput Column
Sp ool
getRe st
Submit ted
C atch
Ġre gular
Ġat tach
foo bar
c or
Re ducers
Ġd ag
ĠP GP
ĠB ound
ĠV R
Replication Type
Ġext r
range s
IN IT
ĠM igration
Ġkey Class
ĠGrid Rest
EXEC U
ĠY ou
R ing
Ġcon t
Replication Factor
Ġschema Name
identity management
re po
Ġc ql
Ġn eeded
Re load
Ġget Queue
Exec Svc
Ġqu orum
ĠGoss iper
Ġb arrier
App Id
delete Table
Ġattempt s
Mandatory Endpoint
() :
Ġc ert
key Store
\" ",
ĠFile DataSink
Ver ification
Ġk nown
}, {\"
ĠQuery Cursor
ĠVectorExpression Descriptor
In clusive
set Resource
Ġget Field
Int Pair
Converter s
ĠSopremo Util
Ġestim ated
Integration Test
P K
Task Vertex
ly ing
Default Value
Write Ids
Ġz ip
ĠTopology Builder
ic ip
set Task
ĠC QL
Ġarg v
ary Expression
Port Finder
component s
Scheduling Request
B ar
I JsonNode
Con d
Byte code
Loc ally
of Millis
Ġgroup By
Ġtopic Name
Stream Wrapper
read Byte
Container Info
L ex
f unc
Ġ META
Ġs opremo
Over write
Byte Range
ĠImmutable Set
Ġtimer Service
S w
ĠS ize
Ġ1 000000
[] ;
cc up
Ġexpression s
NotExist Exception
Ġset Properties
Entry Processor
Ġpart Name
ĠStorage Container
schema Name
Ġinternal Get
ĉĉ ĉĉ
ĠDynamic Cache
imen sion
C rypto
Ġs r
ld ap
\" ");
Add itional
Source Function
Port s
SER V
ĠService Support
ĠDe serialization
ĠOrc File
Ġc ipher
ab ling
ype d
Message Consumer
Ġver ifier
PE ND
Async MethodCallback
Ġtotal Size
getResponse Code
Decomp ressor
re ed
Ġm iss
bo ard
Sign er
Generics Types
ĠDO UBLE
x D
comp letion
ĠTask Attempt
hi bernate
Ġc ss
ĠA MQ
disable Table
ĠOp codes
ARCH IVE
' ]
C ATION
N G
O ffer
ro cks
get Tags
Null Writable
Ġthe Class
delet ed
Ġ5 7
Ġab s
attempt Id
b aos
Ġget Service
ĠA ctive
read Fields
ran ul
Checkpoint Stats
lowed By
getQueue Name
' \
Ver bose
HE ARTBEAT
ĠTimeline Reader
Ġtransaction Manager
privilege s
V ers
i ro
s rv
Ġimp lemented
ĠT R
Ġget Parent
ĠP ORT
For warded
Ġg u
MO DI
Ġkv State
Illegal StateException
Readable Writable
P ublish
T ier
get Work
Dir ty
Le aders
Ignite Predicate
author ize
Ġ Start
Stream Reader
Long Column
Ġobject Store
Drop ped
RU Cache
HttpServlet Response
Ġ Encoding
Ġret Val
RA W
Ġchannel ID
ĠStreams Builder
Validation Exception
access Key
inte gration
fab ric
A head
B AD
c a
Ġ" ")
set Last
Log Manager
Ġmessage Count
ĠIn Memory
getRegion Location
Concurrent Map
Recursive ly
Ġm a
Ġco ll
Over lay
ĠB loom
Ġen coder
ĠRE GI
M ongoDb
} ));
Ġ Code
nd ertow
ĠT List
ĠZ ip
getOutput s
Hdds Protos
set Attribute
No Delay
Ġc aught
Ġm ultipart
Ġget RuntimeContext
NA MIC
Ġport able
C LA
Ġ Standalone
get Float
get ReturnType
' ).
Ġi tr
Ġtest Set
Output Vertex
sl ider
Ġle ss
num Of
Predicate Leaf
EX IT
Rel Node
MR JobConfig
CE EDED
filter s
200 9
t i
Ġre load
qu ote
comp arison
Ġpeer Config
ĠFail over
z xid
Ġ DelegationToken
ast ers
Ch ance
Procedure s
ĠOzone Exception
ickfix j
Pos itive
ATTEMP T
Ġ Protobuf
get MetaClass
In cluded
Ġst ill
Col Name
Application Status
Vertex Key
IT CH
Ġinitial Value
ĠK STREAM
ShipStrategy Type
Ġbl acklist
MemstoreSize Phase
Annot ated
Decor ator
f d
on Done
Ġ1 00000
Local ization
Start Row
Schema Change
View s
Weight s
ĠTOP IC
Ġe e
TypeInfo Factory
ĠRel Opt
ver y
Ġl iteral
new Folder
Http Server
ranul arity
B lank
lse c
SER DE
ĠCon sul
- >
Re vision
ĠA zure
file Id
Ġtrans formed
getP assword
fl ip
Tez Session
get Position
OR UM
On Exit
MI TIVE
tent ial
QU ORUM
ĠHRegion Server
ĠTer m
: {}
O W
re direct
Ġp run
get OutputStream
Ġn d
set DegreeOfParallelism
Job VertexID
Resolve d
ĠIG NITE
Z IP
Ġc at
ign ed
Ġal iases
TH AN
ĠColumn Parent
return Type
ĠGridFuture Adapter
J VM
Ġ Standard
get Connect
get Left
ĠS yntaxException
ĠC STNode
ret ries
getC reate
resource Manager
Ġend Key
off heap
ĠINT ER
Preemp t
RUN TIME
ĠAC L
doc ument
N ORM
Ġ" =
new Value
comm unication
Ġ{} ;
RM Context
pb s
s ynchronized
ON CE
LE TED
Task Info
Grid H
Ġof EpochMilli
column Id
ĠActiveMQ Topic
Ġinterpreter Setting
Trust Store
= {{
F n
S ince
DE ST
Al go
Sc reen
SC redentials
MQ TT
Multi plier
Ġmetric Name
Ġsuccess fully
Ġcre ating
Ġmemoized SerializedSize
get Description
set Daemon
Ġtest Dir
ĠJ VM
Ġsu ch
Ġquery Id
ĠIO Manager
s yntax
In Segment
Ġco st
Cache Metrics
Ġh istogram
ĠTime dOutException
ACLs Manager
Car rying
M ust
is Table
Partition Key
ĠResource Spec
STR AP
Zero Copy
Remo ving
Object Privilege
pt r
Al ternative
Ġuser Id
Ġapp State
Flush er
Cost s
r ule
get Full
Ġfield Names
Reduce s
ĠField Value
serde Constants
Ġentity Type
Ġdrop ped
Attach ment
Byte Buff
pre pared
Query Service
next Token
Line Number
ĠAss ignment
a ut
10 4
Det ached
Recover able
Gr ace
M dl
Ġ cent
he st
en cer
Ġget Scheme
Request PBImpl
CO VERY
Consumer Record
fix ed
Ġcurrent ly
ĠDouble Writable
ĠField Node
ĠChannel ID
TcpDiscovery Spi
Rob in
in finite
ER S
ma jor
Ġ3 00
Ġdel ivery
Ġev iction
ĠImmutable BytesWritable
Ġt n
un istic
ĠA ll
Ġkey Store
TR ACE
ĠReflection Utils
Con sole
To Read
Output Channels
Ġorder ed
Home SubCluster
Ġpl ace
ru ption
dec imal
) ];
Ġtest No
Ġset Name
iv ing
join ZNode
Immutable BytesWritable
Ġrec v
AF TER
ColumnStats Data
ĠMojo ExecutionException
mmediate ly
m ult
om et
He artBeat
Sche mas
Sink Function
ĠExecution AttemptID
C apt
ĠS ep
ĠL eg
ĠText Node
Ġre direct
application Context
OPTION AL
Ġf ix
ĠM ode
For Tests
Trans acted
E LE
X id
Ġ `
get UnknownFields
In Only
Test er
dis co
DIR S
ĠSnapshot Description
ĠCopy OnWrite
D R
P LU
Ġi solation
get Opt
Ġs ingleton
Key Type
Class Path
\": []
buffer ed
Ġconsumer Class
Ġend Point
FO O
Hadoop FileSystem
Ġgate way
ci i
ĠLeg acy
O k
ĠF inal
Base line
Ġclient s
Bind ToRegistry
Vm IpFinder
J axb
Ġp ython
Con sul
iz ations
set Source
un safe
Block Location
And Metadata
checkpoint Id
Filesystem Provider
S ection
add Filter
Post fix
/ ",
O THER
c lo
Ġ als
Ġ" {\"
Ġre verse
ig hest
ĠDat aset
multi ply
Ġorig in
getManagement Strategy
l ated
ĠS upplier
Value Class
Pre load
ĠIgniteBi Function
M utex
b ad
Ġs ig
ed a
set Level
Ġget Total
Ġtest s
Ġ5 6
ss e
Ġc pu
test Dir
ace book
Ġstart up
ĠE valu
D T
Ġb loomFilter
to Path
Pro ducers
Ġdata Cache
Enabled Request
init Cause
000000 10
prepare Statement
ierarch y
HIST ORY
get Network
Ġshared Cache
Candidate s
199 6
Ġb oth
ĠH older
finished Message
get Info
Gu aranteed
L imiter
del imiter
MI S
call er
Ġrpc Timeout
ĠThreadLocal Random
replic ated
ĠS uper
PE NDING
Work Dir
present ation
ĠInternal Scanner
In Millis
ld r
ĠSe lection
g auge
Ġre paired
). ");
Exec utable
Ġnum Elements
Tr uth
Schema Compatibility
Ġrecord Factory
Ġhand led
late sTo
ĠSerDe Exception
P t
ĠA DD
pl ies
Ac quire
Ġun compressed
TR UST
ĠRE ST
ĠNoSuch FieldException
ĠCommand Line
Dr uid
get Parallelism
read able
DE F
Ġ2 1
stream record
Ġun lock
Ġle ave
In stantiation
MA PRE
Ġcomponent Name
Kafka TopicPartition
Sl ave
ĠCH AR
St riped
ĠC LASS
ĠH DFS
Instance ID
Ġon Disk
Qualified Name
Ġsave d
getAv ailable
re balance
get Partitions
Ġr ank
On Node
CH UNK
web monitor
ĠCached Class
ComponentVerifier Extension
Ġ Namespace
sp an
Ġde vice
From String
infinite Time
6 0000
G RA
T Base
g gest
Client Auth
On Completion
Ġ4 8
DI TION
pos al
Annotation Node
ĠPar agraph
flag s
u ck
ad ing
Ġr b
Resource Information
Operator Base
Ġpartition Key
ĠSet table
ĠUn resolved
Ġiter ate
Solution Set
b le
Ġl lap
Manager Impl
Ġpackage Name
scap ed
Ġcls Name
ĠKStream Builder
p atched
am er
For Task
Ġmet astore
ĠCON TAINS
Mail box
DE FIN
00000000 0000
Ab orted
r q
set Configuration
create Remote
AC CE
PE S
ĠConfig Option
ĠFuture Utils
ĠAccum ulator
ĠE ND
ĠJob Client
dis patch
rest let
Ġestim ator
Ġencry ption
G IC
del egation
Ġget Long
Region Location
create TextMessage
.. /
Ġper ms
Ġ'] ';
ĠBase Row
ĠTimestamp Type
PL ACE
Idempotent Repository
i ator
de compose
set NumberOf
Array Writable
System Table
commit ted
getSSTable s
GE X
lib rary
vance d
lsec urity
er der
ĠA udit
Null Value
LI VE
ĠGridCache Tx
Ġ-- >
Ġsl ide
Delet es
get Producer
Ġc aching
is True
mple mented
++) {
ĠThread s
when Complete
ĠScheduled ExecutorService
Ġw ere
ex port
Ġfile Size
W R
re et
To Bytes
ĠP ayload
ten ance
sTo Be
PRO XY
snapshot Name
initial Delay
ĠCacheProjection Context
Ġals o
he alth
Ġ" ="
Core Matchers
in ode
re served
il arity
base Dir
Ġstart Pos
Ġwork ing
StorageContainer DatanodeProtocolProtos
m igration
r mt
With Default
Instance Type
Ġcheck Argument
Pool Id
ĠAbstract Invokable
dis card
ĠRegion State
Ġslot Pool
Ġcontent s
ĠRewriteRule TokenStream
ur ch
In Seconds
co gnition
um ulative
ĠS CHE
create Endpoint
ĠTask Id
Mod ification
Sql Query
ĠSSL Context
n l
set Timestamp
Un filtered
Ġcol ors
Get SpaceQuota
ds l
ĠMed iaType
D iagnostics
Ġ MESSAGE
WAL Protos
QUO TA
8 70
F avoredNodes
Ġre xBuilder
set Length
Ġset Success
With Retries
Response Body
Ġg son
ĠGridCache MvccCandidate
Java Type
Ġaccess Key
ĠTcpDiscovery Spi
ĠGlobal Configuration
ChannelHandler Context
ĠS pec
Vertex Id
Ġdirect ories
Sorted Map
qp id
Beh av
ĠT wo
Ġm arker
Metric ByName
Privilege Object
getNode ID
ĠBigInteger Token
FieldValue MetaData
LifeCycle State
set Query
Ġh ref
CON SUMER
ĠE C
wrap per
Ġmetric Registry
Ġ InputFormat
Node Attribute
Ġh l
Hand led
start Row
getC ell
ick y
Ġ'\ ''
feature s
xm lsecurity
B C
P ub
Ġ oo
Ġ( {}
Test Protos
Array TypeInfo
VE D
Reduce Tasks
ĠTrans fer
ĠSep arator
a udit
get Tag
\" ]
tr uncate
Ġerror Message
Ġlock ed
Groovy Object
getHost Address
Ġman ifest
ĠS C
Sh aring
Ġp rivilege
Ġm anagement
De nse
Ġin d
create New
Policy Configuration
setMax Versions
visitMethod Insn
getVirtual Cores
W INDOW
m n
Route Definition
ĠType Converter
ĠMemory Manager
Ġerr Msg
ĠRequest Converter
Cance llation
S Client
Ġb os
Class PathXmlApplicationContext
Sink s
cell s
Ġld ap
ĠSER VICE
Ġf atal
to Set
Row Size
ĠContainer State
g y
Col or
Ġser des
tr ack
Page IO
M arshall
o ing
ld b
Ch oo
Qu otas
Ġinput Type
Ġtermin ation
Ġtrunc ate
NotRetry IOException
set Properties
set CamelContext
Ġo ps
Ġtest File
om atic
Wri ting
Per Partition
cognition Exception
A name
re solver
ge nce
Info List
Field Node
ĠF ixed
Response PBImpl
All Messages
keyspace s
otonic Now
REMO TE
f lushed
k ms
ĠC LO
Ġto k
Ġun wrap
oper and
output s
register Node
endpoint Uri
80 80
Ġage nt
DELE GATION
[ '
Message Parameters
sta x
result StandardScheme
result TupleScheme
Ġold Value
Ġbase d
Ġcell Scanner
ĠBind y
C TED
I mplemented
S ynchronous
get Msg
Data File
create Key
10 7
Ġdis card
Ġsession State
first Name
ĠSimple Condition
ĠGroovy RuntimeException
Chain ed
Word s
Durable Subscriber
compat ibility
te ct
is Primitive
Ġnew State
", },
SE ED
Ġexp iration
ĠEnum Map
Ġanalyz e
A ff
E cho
v a
get Right
Ġl arge
ĠObject Access
dis connect
FlatMap Function
ĠUP DATE
ĠRe gistry
cache s
Ġdata Set
Ignite Exception
Ġpar allel
run nable
Ġchar s
ClusterNode Labels
Ġfoo ter
Ġhb ck
INI TIAL
U BER
In stant
Name Bytes
create Queue
ag ate
Sub class
Ġmo unt
Ġter m
ĠTool Runner
ĠFAI LED
D iagnostic
field Assignment
num DataNodes
Ġexecution Config
ATO MIC
N avigable
Ġ ce
Ġt rainer
Ġtable Path
ĠMessage Id
Ġexp ireTime
ĠBinary Object
Ġvertex ID
Ġ"' ");
Include s
AccessControl Protos
>{ @
h ale
o pe
o ted
t as
ĠT BL
Level s
Sql Field
incip als
ĠApplication State
Ġoff heap
+" /
ĠGridGgfs Path
Fixed ThreadPool
Med iumTests
unctu ate
getSlot SharingGroupId
M ay
Ġp riv
Ġs pring
key Serde
RE ATER
ext ra
Ġtest Name
ĠKeyValue Store
URL Exception
Ġcontain ing
Ġactor System
ynamo DB
k ryo
St able
Ġdelete Directory
Ġinvo kable
sw agger
Ġ locate
Ġm ost
qu artz
ĠC ast
node Heartbeat
stat istics
Ġssl ContextParameters
HRegion Location
Keyed StateBackend
Ġkeep Alive
Ġseq id
maximum Redeliveries
ĠSTA TE
ar b
ec h
ĠM ob
da hale
Year Month
NANO SECONDS
O cean
t ra
se ction
to Json
Service Now
Ġdis connect
ĠActor Ref
igital Ocean
edFor Delete
G IN
L inux
V iable
() ");
Ġt cp
per cent
ĠP h
), ('
Ġcreate Mock
Exchange Exception
Ġro cks
ake up
Ġbuf Size
any Object
Sign ed
Serialization Schema
Ġget Container
Ġa ws
Grid KernalContext
Write SynchronizationMode
TR A
Rest ored
Ġfunction s
ĠCompaction Manager
optim ized
CU STOM
A kka
Q Name
w as
UT DOWN
Ġoutput Gate
ĠInter rupted
manager s
NE TES
eg ationToken
vertex ID
UBER NETES
Ġpro vide
Group Vertex
ĠClient Protos
US AGE
Ġoption als
ĠFA MILIES
Scm ConfigKeys
ALLOC ATED
Product Version
ah oo
Ġkey Classes
Access ed
GridCache Tx
Ġmut ate
MasterProcedure Protos
SW ITCH
i k
get New
Ġf lat
Ġse ss
onent ial
Ġoutput Format
Web App
Deployment Mode
ĠSER VER
Inc orrect
V ia
Ġf ast
ĠS AX
Ġd aemon
Ġ' /
ĠKeyValue Pair
22 2
ĠWritable Utils
Emit ter
ĠRe gular
igh ted
Leader ElectionService
execution Graph
Ġnormal ize
Ġlisten ers
i pt
er ce
ce ipt
Ġis Table
her it
Ġnum Rows
mk dir
ATTEMP TS
But ton
Ġl ar
Input Vertex
ByteBuffer ed
offset s
plugin s
rw x
SharePreemption Timeout
U I
add Message
Ġget Map
TH RIFT
PR OG
Semantic Analyzer
Viable Alt
D id
b ing
f iler
m ob
Ġ et
Ġ act
Ġget FilesystemProvider
ĠR AN
start Event
active Streams
HO UR
Shard Iterator
) ")
f atal
de p
get JMS
Ġd ictionary
Long s
Scan Query
3 0000
text line
Ġtest Add
Group Range
Ġmap s
parse Boolean
Ġ8 0
Ġproc Exec
addTest IfNeeded
ĠLocal Resource
Ġhel p
BOOT STRAP
Ġp urge
get Estimated
Ġget New
ĠGrid Compute
Ġ3 3
ĠSh uffle
ĠReplication Exception
ĠDFS Util
K Stream
get s
get Constructor
Ġh s
Query Id
map To
Protocol PB
11 3
ĠMemory Size
ĠstartGrid s
Nested Configuration
A ws
De pendencies
po wer
read Bytes
Event Notifier
And Timestamp
Conf lict
Execution VertexID
Ġal gorithm
Ġcluster Client
Ġup grade
Encryption Options
iCa SchedulerNode
ĠAck nowledge
M asters
X F
In flight
set Un
Class path
Ġcomp acted
Tx ns
Ġold Exchange
Link age
cd i
Actor Gateway
lution Set
ClusterStatus Protos
Ġget Metrics
args StandardScheme
args TupleScheme
Decre ase
AUTHENTIC ATION
get Http
se ct
am mer
as ing
Pro mise
ĠF rom
Read ing
By Type
Graph Utils
Lif etime
ĠInvo cation
EOF Exception
J AR
s Builder
ĠA PI
Ġh a
ĠG en
ĠGridCache Projection
ĠCall back
Ġqual ified
get Keys
set Permission
ĠD b
Check ed
ĠResource Limits
Ġpo ints
Datanode ID
Ġinvoke Method
Ġacl Entry
ĠBlob Key
Polling Consumer
Ġr ule
un ted
field Indexes
ĠĠĠĠĠĠĠĠĠĠĠĠĠĠĠĠ ĠĠ
Ġmulti get
Bin op
L ate
s q
s nap
Ġc ross
se nsor
Callback Handler
Ġreplic ated
notify All
Produce s
E DI
St ar
is Client
Ġe l
Ġr src
ĠF air
ĠComp leted
container Name
getType Name
Rel Opt
White space
jm h
Ġ Describe
Consumer Builder
Ġe ar
Lo ss
ĠU ri
RI GHT
EX CLUSI
cf Id
' ));
M U
in stantiate
De grees
Stream Exception
AD CAST
Pair Comparator
process ed
Ġassign ments
window s
Ġinc orrect
Optimized Marshaller
ĠWrap ped
F UNC
ro om
ĠA N
To Labels
ute s
Pre ds
AC H
Ġheader Value
Invocation Exception
Sample s
BIN D
w rong
z ero
po jo
Ġkey store
Store Files
Ġcreate ApplicationContext
ĠText Message
getTable Desc
class path
RO LE
ĠInter val
Ġapp Name
com bin
getP ackage
Ġslot Manager
E ffective
get AssignmentManager
Re entrant
scri bers
Ġfile Info
ĠW h
Local Resource
IO Helper
Dynamic Cache
KV s
ĠReport er
readMap Begin
pro x
start Key
ĠE N
ĠCache Query
Memstore TS
ph rase
edge s
ĠHttpServlet Response
D uring
G OR
Ġm ismatch
Node Info
Join Function
EX PRESSION
Ġbase Path
Ġjj matched
Real m
ĠREGI ON
C CEEDED
M irror
le ave
Ġm ail
ĠRe play
18 8
Ġback type
Sorted Columns
ccup ied
T LS
a us
in st
re pository
is Dir
Ġcon tract
ĠI t
ID ENTI
ĠM er
Response Data
ĠU sage
Ġfile Sys
KS MetaData
Tmp Dir
( ?
W M
a iter
b asic
st rip
Ġget Path
ĠObject Node
SI MPLE
10 8
ĠNo ViableAlt
ĠMini Ozone
Ġdef ine
getMod ificationTime
Sens itive
Ġc xf
job s
Ġmock Endpoint
Metric Store
ĠPrimitive ObjectInspector
ĠAM RM
ROLL ER
Ġ Meter
Ġc r
Ġd ay
Un resolved
Ġsup plier
ĠOptim ized
K NOWN
ĠI P
new FixedThreadPool
Partition Map
Ġrow Index
Ġrun ner
ĠThread Factory
ALI ZED
Ġapply x
Skip ped
Package s
Small Tests
EXECU TION
E lapsed
get Reader
get TypeInfo
set Filter
set Is
Me an
ĠJob TaskVertex
Ġindex ed
getData Size
getLocal Address
1 32
data File
cf MetaData
Tests Started
V CORES
h c
ed is
Memory Mode
ĠUn filtered
Affinity TopologyVersion
, \
; ",
W ay
ĠA tomix
Ġkey Selector
ĠJ OB
Down load
ĠJava Pair
FIN AL
WI SE
get Or
ed ger
Ġex plain
Table Sink
ĠF LOAT
Ġinput Topic
Unit Test
getC apacity
Ġpage s
Transfer Envelope
} ";
an ded
Cnt rs
Shard s
custom er
ĠSource Unit
IgniteTx Entry
anit ize
urch ase
4 56
G O
start up
I F
at s
ĠF lush
Pre ference
ĠJob Master
increment State
Post Processor
AUTH ORIZATION
ĠRegister ed
r ations
ĠL IST
Partition State
IO Error
cat Name
Ġdecl ared
ĠPl acement
j sse
o auth
mp tion
Re versed
Task Result
Not In
Storage Configuration
EL DS
getP ending
ĠVector ized
201 9
Ġag gr
D URATION
c ase
Ġi ssue
De ferred
ĠA R
Ġ5 12
Spec Proto
ĠInter mediate
Ġor c
READ Y
BACK OFF
ĠInterrupted IOException
* ");
. .");
T rying
Ġ Constant
get Scheduler
Ġt c
que n
ip Digest
ĠArray Deque
Ġcall s
Struct Begin
Ġpos itive
Ġmod ifiers
EndPoint Map
ĠFail ure
ĠTRANS ACTION
e ine
m ore
Ġget S
Ġget String
ĠIgnite Logger
su mption
Max Size
iv ity
Privilege s
Cf Def
j ersey
y ahoo
de v
Ġf d
Ġnot ifier
ĠLog in
Sequence File
Merge d
Ġstring Serde
ĠRel DataType
() -
In jection
Ġcheck Assignment
Affinity Key
Character istic
b ridge
} /
to CharArray
File Format
sh ard
SE ND
Ġsub mission
my agg
Security Enabled
submit Job
pa Template
the Class
PRIV ATE
PES SIMISTIC
S lip
Ġ" ("
Path Expression
ME DI
Ġtest Read
Ġvalue Serde
en cing
cess ary
Ġlog ging
Retry Policy
ular Data
Combin er
Ġex clusive
Ġread ers
}} ?
ĠT X
ĠF ire
Ġdata Source
Update SchedulerEvent
14 7
Closure Params
BLOCK S
Ġsuccess ful
Ġchunk Size
TERN AL
S izing
T MP
get Containers
Re cent
Ġr atio
ĠString Helper
pro duce
Value Getter
read Value
Row Iterator
Ġtable Desc
EX ISTS
ĠRecord s
getAbsolute File
sv c
Logical Slot
Convert To
DY NAMIC
gue ssing
K UBERNETES
ul ation
ack nowledge
ĠB l
Ġcreate And
Index Size
next Record
ĠE v
Ġrequest Body
Tx Prepare
Http Headers
ĠTask Type
proc Id
Ġdatanode Details
ĠAn swer
0 64
i y
Change s
D angling
is Use
con sul
ĠGrid Tcp
root Dir
web socket
M any
get T
get Hadoop
Re peated
Ġm t
next Element
AN GU
mt p
mod ules
getCurrent ExecutionAttempt
getClient Id
Ġsm allest
ANGU AGE
A MS
in s
or ate
ge o
ĠT Base
Ġin ject
FS Utils
OUT ER
Catalog Table
PARTITION S
Ġtable Names
Ġconf lict
Capacity Scheduler
Illegal AccessException
H INT
th rough
Ġto mbstone
Ġsize s
Ġblock ID
Rpc Client
Ġgroup ing
ĠApplication Context
f b
ro id
Ġh ints
ĠMap s
RO L
ĠExecution VertexID
Ġnow InSec
AF KA
get Filter
Ġv archar
Per Checksum
stream er
Argument Type
ĠPact Connection
Ġloc Node
Ġexten ded
Finished Future
poll Next
quen cer
A ES
h cache
te ction
get Writer
Re peat
lic ense
um b
To Node
key Args
OR S
LO OM
10 5
Ġk ryo
Join s
not ification
Ġ^ =
General Utils
ig her
ĠTable Environment
Last Call
stand ard
get Descriptor
get Entities
ed By
set Port
Ġget FileSystem
Test Config
Ġw arn
ĠF OR
ĠTable Schema
ĠAp pend
Ġad aptor
Spring Context
Ġcancel led
getStart Time
generic Operator
ResultPartition ID
Resettable Iterator
O AD
get Snapshot
get ShipStrategy
loc ity
Task Slot
Default s
ĠInput Gate
MAR K
H ave
Z URE
e o
Ġ Ids
get Byte
Ġadd Input
Grid TestUtils
Back Off
Ġsource s
Ġmeta Store
Algorithm Exception
Scheduled Executor
mon otonicNow
V ING
ĠIgnite Closure
Per Key
}} /
asc ade
5 36
> .
Ġt ot
Data ToRetrieve
Proto Utils
Setup Const
Toler ancy
Tolerancy Buffer
Ġget Index
With Pipeline
Sche d
Ġmem table
Ġ20 48
ĠFlink Exception
ĠOptim izerNode
Ġtri m
) ==
C lo
K araf
get Number
Re solution
set Auto
un escape
new HashMap
Camel ExecutionException
mq tt
Aut henticate
Binary Expression
Running Request
Ġdist ance
Ġhigh AvailabilityServices
ĠAb fs
F ire
G c
Ġ annotations
Ġc alendar
ĠT EMP
Ġd urable
ĠC ertificate
Ġjava Type
create Cache
Partition Data
Environment EdgeManager
Ġas List
open wire
Ġroot Node
ĠBU FFER
PELIN ED
get Columns
Ġget OrCreate
File Reader
Ġprocessor s
ĠSlice Predicate
DEN TIAL
Ġre mo
assert Throws
Node Attributes
prot on
Ass embler
Back ground
Ed itor
Coprocessor Service
ĠRandom StringUtils
ĠgetDescriptor ForType
Ġfailure s
ratch Dir
s up
AL OAD
create MetricName
ĠOzone Acl
ĠX ceiverClient
ĠSession Window
MAP PER
getLong Long
ĠnewBuilder ForType
Ġht ml
' )");
Ġb p
set Capacity
Stream ExecutionEnvironment
cur ator
execute Update
ĠClient Response
Ġam qp
Global Properties
ĠQ Name
ĠQUALIFIER S
Push Down
T ARGET
W ildcard
p acket
te ll
se quencer
il o
Key Bytes
LE SS
group Name
ĠBlock Statement
SU RE
Web Service
C D
N ephele
con tinuous
lock id
Ġh appen
Ġse nsor
column Names
Ġac c
cf Def
ĠServer Socket
Ġslot s
Ġqu ote
Ġtransaction al
Ġget Outputs
Comp ress
Exec uting
Or Throw
SP S
Ġreply To
R ATE
Con tinue
Ġv e
to File
Ġget First
Over head
Stream Window
Builder Parent
Filter Protos
Ġdata Type
Per Node
Acl Entry
H Store
R an
[ (
Ġre spon
Ġm appings
Ġget Request
pt n
Ġcreate Producer
Obj s
ĠSh utdown
D ER
it Log
Ġre versed
Ġcon sistencyLevel
Int rospectionSupport
Ġcreate Exchange
Ġtime d
Ġtx id
ĠDE CIMAL
model s
TT LE
getTask Name
report er
P ipelin
e asy
u ous
Ġt ight
ver bose
ay er
Ġpre fetch
Ġ' {}
Min a
sTo Nodes
open jdk
subscription s
ĠRS GroupInfo
write s
Method CallExpression
Ignite BiTuple
Tree Set
getP act
non ce
eighb or
COMMIT TED
CONT ROLLER
ĠRo le
S olr
Ġc lo
Re ifier
Ġget ting
RE CE
Ġoutput Path
TH RO
Public Key
SUB DIR
F eed
T ake
is Log
set Destination
Message Producer
Vertex To
Topic Config
Actor Ref
T ApplicationException
\" ?
io Manager
Buffer OrEvent
ĠB RO
Ġcomp arison
PRO DU
match ing
ĠHttpServlet Request
, -
u i
Ġ3 4
Ġresource Name
PER MISSION
---- --
ĠKey CacheObject
Ġjj StartN
Ġresolve MandatoryEndpoint
ZK Util
RETUR NS
Break point
ĠjjStartN fa
ĠP ackage
Column Encoding
0000 001
Function Definition
ĠSe lector
G ING
In Block
Ġe ffective
Co processors
Table Response
Instance sWith
getRoot Dir
Cance led
ĠActiv ity
Ġrestriction s
SpringContext Tests
Ġs low
sum able
ary Operator
As cending
ĠGroovy Object
ĠPer fLogger
RETUR N
esting Properties
E Q
n ested
ĠS TO
ĠD ATE
Task AttemptID
Ġcreate Container
SE D
As k
Replication Strategy
Ġper fLogger
getChild Count
Durable Sub
ĠassertNot Equals
In st
Un ix
ĠTr acing
icip ant
I mmediately
J o
ic le
Pro viders
Ġw rt
Region Servers
Memory MB
sche duled
Interval DayTime
hand lers
VI TY
Closeable Iterator
ĠBU CKET
/ %
Ġre partition
ER ENCE
)) ");
size of
By Data
Ġid le
Rpc Channel
ĠKey Provider
MINUTE S
/ ");
c ceed
name d
write Collection
Ġcs Conf
REPL ACE
R B
R W
Ġs uspended
En closing
Server Bootstrap
Ġdata Dir
System Property
AN ON
Master Observer
service Name
author ized
getBroadcast Address
Ġi dentity
Ġon Message
Ġon Done
Connector Config
dezvous AffinityFunction
Ġse lection
Per formance
10 6
Ġtemp File
Ġdist inct
omet hing
K sm
Ġp m
get For
Ġc ance
Ġget Store
Key Class
ST ABLE
20 48
Reference Expression
ĠSub Cluster
ĠIgniteBi Predicate
ĠArgument ListExpression
Docker Constants
AccessControl Exception
S AX
Ġt icket
ul o
Ġl ike
Over view
Ġcache Key
Cluster Connection
KEY WORD
Ġinfo s
ĠQuery Options
Keyed StateHandle
Ġaff Key
ĠAllocation ID
Sy mbol
re partition
get Minimum
set Owner
Key Name
Ġd iv
read Collection
Ġtest Send
Ġch osen
Ġrpc Server
Timer Service
Scheduled ExecutorService
inte ger
stit ution
ĠH Master
Ġg it
Ġval Serde
ĠURI Support
Ġfut Id
Follow ByData
ĠtaskTracker Manager
Ġis Null
0000 02
Ġresponse Handler
DB Object
setCurrent Key
Mismatch Exception
C L
el y
ID TH
Resource Allocation
Ġch ained
expected Minimum
partition Key
Ġsplit Keys
copy Memory
OVER WRITE
Ġpersist ent
ĠMQ TT
IDENTI FIER
A tomix
B rowser
l led
Ġ ut
Ġb rokers
Un registered
ak ka
Ġsub Builder
Producer Builder
Op codes
ĠĠĠĠĠĠĠĠĠĠĠĠĠĠĠĠ ĠĠĠĠ
ĠKeyValue Iterator
ĠMeta TableAccessor
COMP ACT
VI R
ĠBinary Expression
ĠCON FIG
Ġparameter Types
ĠVoid Namespace
ĠNotify Builder
qu ota
ĠC UR
FI ELDS
All Async
Ġ' -
Ġal ways
topic Partition
xx x
O Is
Configuration Definition
Task Type
call able
ĠUnknown HostException
Ġ" \\
File Metadata
On Startup
Ġnum Partitions
cover er
Ġrun AndVerify
ĠAl locate
ĠHdfs Configuration
ĠAkka Utils
Ġb ook
Ġb pid
LA TION
Ġret ain
13 0
Flush Size
HI GH
getVolume Name
ĠinternalGet FieldAccessorTable
V Cores
b az
Ġcheck State
Ġblock Manager
RM AppAttempt
Namespace Response
sign al
Activ ate
arm up
T hen
g it
Ġre pository
Ġd er
Column Identifier
ĠM A
Container Runtime
ĠColumn Vector
Suppress ed
await Termination
getComponent Type
Ġstomp Connection
GOR ITH
Ġc orre
Ġs i
build Partial
copy To
Share InstancesWith
Distributed FileSystem
Ġob solete
Ġdegree OfParallelism
hemer al
A tom
Y ou
d p
m TezSession
{ "
set Float
Map ped
Data Transfer
Ġcheck For
Ġ' }
isNull Or
WriteId List
REPLIC A
expectedMinimum MessageCount
add Field
Ġp ig
Ġl a
Pre ferred
ence d
Access Time
Ġcf Store
Ġsend ing
AST Child
Satisfi er
route s
ĠLO AD
easy mock
A SC
Ġp ub
Ġs arg
Cache Data
DE P
ĠO B
Ġal ive
Ġte z
RM Service
part ial
shutdown MiniCluster
Shared Context
SHA RED
& &
Ġ" ));
Client Protocol
Endpoint Configuration
Status Protos
Status Code
Enabled Response
ĠMock ProcessorSupplier
Fail ing
ĠScan Query
ĠRead Command
Ġ utf
al ary
Sp ill
array Offset
Ġbuild Side
Qual ifiers
getRow Type
da o
Wal ker
Ġprocessing Time
EXEC UTE
Ġmill iseconds
n fe
get Permission
Ġre dis
Ġm utable
Ġm any
Ġget Component
key tab
ST ED
Class Descriptor
Query SqlField
cp u
Ġsend Body
SU CCEEDED
Monitor ing
Aggregator s
ĠStruct Field
estim ate
INDO WS
C redit
K dc
S Object
Ġe lem
Ġget Job
pl et
Ġpre serve
back end
00000000 00000
ĠHBase ClassTestRule
ĠStorage Descriptor
D st
G LOBAL
set Request
getName system
VAL S
Http Request
Ġexp ire
BO DY
opt s
get Attributes
up per
set AtomicityMode
Key GroupedIterator
Ġpartition Spec
Ġab out
getTable s
GROUP S
ĠFI ELD
aa a
: {}",
ro uting
get WAL
Ġget SerializedSize
Ġ1 01
class Loader
Ġh ome
ĠGrid Gain
Queue Metrics
gener ation
getS sl
block Size
ĠResult Scanner
T ap
p ager
get Serializer
con sole
Context Configuration
Execution Listener
ĠComp atibility
LOG GER
Exp ireTime
throw Exception
F R
F old
G pu
Ġget RegionInfo
all Of
Column Families
Get All
place ment
ĠExecution Type
ĠIgniteFs Path
set ting
Ġex port
ĠGrid Service
Index Type
Ġpackage s
Local OnHeap
remove d
Join Operator
Ġdis covery
Ġbackup s
Track ers
D ial
i or
set Parameter
And Delete
MI SS
ĠCON TAINER
CacheEntry Event
Ġmaybe Init
gate way
UNI QUE
ĠVAR CHAR
S yntax
Node Report
Ġh table
ĠRe ducer
du it
connection Factory
getStatus Code
Ġdown load
Basic TypeInfo
ĠMult imap
base Path
Ch oice
Ġ2 8
FA M
ĠInt Node
ĠQuorum Peer
add ASTChild
il ler
File Context
du pe
Query Cursor
ib ling
Ignite MXBeanDescription
job master
Namespace Request
ĠAuthentication Exception
ĠColumnStatistics Obj
b p
k ing
add Statement
Request Data
Client Builder
sn rs
Pe ak
clo u
C Group
z e
ac count
Ġget Config
ID LE
Ġto Set
Ġkey Cnt
min imum
Struct End
aun ched
ĠBuffered Writer
ĠPortable Exception
Shot Latch
b ranch
p ied
co dahale
con struct
State Change
Ġ2 0000
-- )
Txn List
ĠPer formance
selected Index
b c
it r
Ġco Group
ĠF oo
Ġdata Nodes
10 9
ĠColumn OrSuperColumn
IO Manager
Already ExistsException
pe g
ile nt
ĠP A
Ad just
app s
Ġexchange Id
Command Executor
Ġsu cceeded
Device s
Trim med
S uspended
Ġ ic
Ġc nxn
Column Index
Expression Type
Handler Exception
db Constants
Ġab orted
Double ColumnVector
Bl ack
ĠInstantiation Util
MAPRE D
Y S
Ġis In
ĠN ONE
Http Binding
ublis hed
Finish Time
exten sions
getOrCreate Cache
arb age
ĠT x
col Name
ĠV ar
Meta Regions
tmp dir
ĠDis carding
ĠDatanode Details
iy un
F pga
get Random
Ġc d
ĠH ost
Ġ2 56
Ġmax Parallelism
Blob Server
ĠAr ch
Ġmq tt
8 00
Table Regions
Ġtest Invalid
Ġkey Info
data In
Api SelfTest
Encoded Column
PactRecord Generator
Fut s
Document ation
ĠCompression Level
ĠDataInput Buffer
ĠNavigable Map
onit a
C RC
at t
get X
get Transaction
ce p
getName Node
KEY TAB
11 7
PER CE
Percent ile
Ġ orders
Ġ" #
Ġs ide
ĠC AMEL
next Bytes
ĠCache Config
Commit s
Mini DFSCluster
ĠBO OLEAN
ĠSUP ER
\":[] ,\"
st or
CO PY
Json Schema
by e
ĠConfig Def
Logical Type
ĠOne InputStreamOperatorTestHarness
C orrect
L imited
Ġ StandardCharsets
Ġre newer
Ġget Bytes
create Message
ĠGrid Security
Ġstop Grid
isSet Column
ĠAccessControl List
iz ers
To File
change d
ĠB inding
Ġtest Delete
Index OutOfBoundsException
Ġout bound
CE LL
SCHE ME
Search Row
test File
valu ator
Package Scan
setMax imum
T ran
get Fields
Ġe lection
Ġr l
Ġb c
Ġget M
Al ignment
CON N
ĠContainer Command
Ġlock id
ide mpotent
ActiveMQ Connection
JobManager Messages
ners hip
PROCESS OR
Naming Strategy
Ġget Object
To Config
ĠL LAP
Ġh ow
Client Id
Properties Helper
Statistics Enabled
Url s
ĠTimeline DataToRetrieve
Bundle Context
ĠBytecode Helper
yped ResultSet
Re nder
Key Version
File Channel
create Volume
Grid Sql
Join Type
Ġfut s
Ġbind Address
ĠLI MIT
ĠTransfer Envelope
U Int
re cycle
Ġ" .");
ĠT tl
Ġm c
Ġget Out
ĠP lugin
AL GORITH
ĠMap ping
queue d
Offset Reset
Volume Name
getNum Bytes
Iterable s
Ġshared Buffer
INI TI
atom ix
S PARK
Ġ NotFoundException
Ġ Stub
set B
Object Output
Service Instance
ĠGrid Node
Ġ4 1
ĠTask Tracker
RA TIO
LABEL S
MAR KER
l snr
Ġt ool
se lection
set Row
Key Prefix
ĠW arehouse
LO OP
ndi Context
66 6
AGGREG ATE
D fs
Ġc al
is Open
is Started
Ġl fs
Ġwriter s
Invo kerHelper
TableDescriptor s
ick Time
ph ase
Authentic ated
mo s
Sc ore
Ġbuffer Pool
TABLE S
Ġdb Conn
expect Message
ĠSSL ContextParameters
Redelivery Policy
MON TH
Criter ion
2 10
P TED
f amilies
j up
al ing
Ġp ublisher
get Standard
is Instance
Ġe ven
con structor
ĠRe pair
Ġsh ift
Ġtoken Metadata
ĠContainer Info
Pact Connection
Ġaddress es
Reg ular
H Connection
b loomFilter
al k
al ize
get Timeout
Ġcomp osite
Min or
Running Response
ĠRandom AccessFile
CS V
M ater
ĠA t
Stream StateHandle
Ġh i
ak es
Dis connect
By Key
CONFIG URATION
ĠRandom AccessReader
waitFor State
Cls Name
getExecutorService Manager
ĠDDL Work
B LOB
get Operand
(" :");
Input Topic
pre emp
Dis card
Tuple Protocol
Ġstate ments
Tests Stopped
ĠObjectInspector Factory
Submission Data
hentic ator
termin ate
Sl ider
BAL ANCE
ĠNoViableAlt Exception
VertexTo ShareInstancesWith
O RE
Ġ OutputFormat
Ġin dent
Window Operator
from Collection
prec ision
WS Consts
ĠDatanode Descriptor
Assertion s
paragraph Id
TRUST STORE
d ynam
Ex ceeded
ĠString Tokenizer
Ġh ist
table Exists
ĠGrid Spi
ĠFile Channel
InputStream Reader
Ġcl oned
getNum Of
und ertow
Loop Group
Composite Type
P ooled
U FF
nt k
Re sume
ĠI Partitioner
Ġl t
ĠH O
Request Count
ĠGrid Nio
12 1
NO TE
su ffix
DI C
ĠĠĠĠĠĠĠĠĠĠĠĠĠĠĠĠ ĠĠĠ
14 0
000000 20
Ġwork Dir
Could n
dead LetterChannel
ĠTypeInfo Factory
KIL LED
ĠFieldValue MetaData
F req
c lic
Ġs nap
Task Invokable
MA GIC
As ynchronous
CRE DENTIAL
Normal ize
ProcessingTime Service
Credentials Provider
Ġhead Config
ĠDistributed FileSystem
ver b
ve ldb
Ġk p
Ġuser CodeClassLoader
Ġrm Node
resource Name
ĠReplication Type
Ġsign al
CHAR SET
ĠHand ler
d rain
p p
v ari
Ġ had
is Full
and width
TI ER
Client Impl
Result Size
ĠTest Record
num Bytes
block Id
getRe servation
ĠSub mit
Cli Frontend
ĠexpectedOutput Output
Ġf latMap
Ġr t
ĠA D
ĠA wait
Comp actor
Ġset Use
Server Load
Row Type
ĠE valuationContext
ard own
11 5
sche duling
14 4
ĠPact Long
mk Set
Build Side
acl s
Ġph ase
ĠNavigable Set
ĠI T
ĠH Connection
Ġadd Error
Property Name
Metadata Store
11 6
ĠDate Time
Shard Id
Ġozone Manager
H ierarchy
L icense
t cd
de coder
Ġn r
Ġe poch
ĠI ss
Column Count
Request Key
I FI
j peg
as cending
ĠString s
ĠT ApplicationException
Ġpro duct
Stream Buffer
Ġadd All
NE STED
Ack ed
Normal izedKey
ĠAuthentication Info
display Name
f ast
Ġt d
ith read
Auto Configure
ĠValue Joiner
getInt Var
waitFor Condition
Ġtermin ate
MasterProcedure Env
trust Store
Retrying Caller
c Node
al lowed
Ġp ing
is Locked
ch ance
Ġentry Processor
OP T
Text Node
ĠIN VALID
Ġreplication Factor
Optim istic
ĠPage Memory
OLD ER
Ġhb i
Tolerance Type
at ype
key Bytes
State Snapshot
ĠC f
[] >();
Ġ2 6
Ġ5 5
getC ategory
BU F
Invokable Class
Character s
uman Readable
K illed
S rv
Y EAR
Column Def
ĠM issing
Ġde serialization
data Type
Checkpoint State
Ġverify Denied
(' /
include s
writeMessage Begin
Pan e
ĠUniform PactRecordGenerator
NORM AL
W IDTH
l q
Type Metadata
ĠF tp
Format ted
ĠTest Logger
FOR M
ĠInterpreter Context
Flink MiniCluster
L ike
P retty
i ary
(" '
ĠA T
ĠMap per
Ġnum Blocks
trans former
Discovery Event
Ġreplace ment
XX X
ĠSW T
n oop
set CacheConfiguration
Ġget Expected
Ġl on
Th ree
Client Request
12 2
data stax
has Remaining
Ġtask Context
ĠClient Base
do es
ĠPARTITION ED
D K
F tp
Ġ Commit
Ġimp licit
00 02
Record Metadata
ĠN aming
EX TEN
Ġtopic Partition
Simple Slot
Ġbean Name
Fair Share
ĠCompilation FailedException
f lat
in finispan
al gorithm
ri ed
set Local
wait ing
ĠGener ator
ĠProducer Record
ResourceManager Gateway
Ġclean er
Carrying RpcController
ĠmaybeInit Builder
( [
M agic
s jms
class gen
Ġde tected
Endpoint ConsumerBuilder
write Operator
Add rs
SI TIVE
Ġcolumn Types
Spec ial
RM Node
boolean Value
ML LP
PA IR
getAv g
UFF LE
k le
ĠB ad
ĠR aft
Resource Id
ĠFile Context
SE d
Ġtask Info
query able
Page Rank
Http URLConnection
ĠSc m
Ġprobe Side
ĠScheduling Mode
ĠReentrant ReadWriteLock
sTo Compact
Ġsrc Path
heap Size
Ġaccess Token
Forward ing
Ġmime Types
Ġsopremo Plan
( ',
G lob
is Near
is Evicted
ĠGrid Dr
Partition ing
op le
ĠIn Stream
annot ated
ĠMessage Ack
Compression Type
getF tpUrl
Invocation Handler
Ġsort er
}} &
Ġcat Name
T M
ĠB ACK
iver ed
Ġfiles ystem
Layout Version
Ġstand ard
exten sion
P id
Ġf name
assert Not
Buffer Manager
create CamelContext
Ġsh are
ĠReplication Factor
Term inal
Ġthrift Id
F LINK
Ġfor m
Ġtable Descriptor
Property Binding
12 5
ret ain
VAR CHAR
T CP
j usted
Ġget FieldValue
sc reen
Message Exception
\" )";
ind ices
comp osite
write I
ĠFile Reader
ĠClass Expression
Hive Parser
DB Store
warn ing
getA M
odb c
Foreign Key
GridToString Include
DEFIN ED
get Uuid
ĠH ADOOP
ĠW INDOW
Local Properties
11 9
Det ector
Datanode Descriptor
Buf Size
("% -
ĠIss et
to Int
Ġget O
File Component
Object Input
RE GEX
Ġset Result
Dir Name
Local Partition
Ġbefore Test
Exit Status
getParent File
ĠInvo kable
Connected Components
conc iler
N oop
c arded
p et
ĠS ample
Ġget Int
Ġchannel s
Aggregation Repository
Bi Predicate
Exclusive ReadLock
Ġencoded RegionName
re paired
Ġreturn Stream
Key Positions
ĠM ULTI
ĠStream Source
DI STRI
OL L
LOG IN
Exp onential
ĠPro duce
ĠOutputStream Writer
DISTRI BU
v cores
de ep
Ġp t
get ProcId
set In
Ġget Write
File Length
AL TH
Ap plies
Default Exchange
contains All
ĠNode UpdateSchedulerEvent
ref lection
super Column
ĠPredicate Leaf
SCRI PT
) [
G C
h conf
set VertexToShareInstancesWith
Message ID
Ġde pth
create Local
Ignite Future
Storage Info
Ret ain
Text InputFormat
Ġdelet es
Ġexpiry Plc
A ctual
P ick
h dr
add Row
get Expected
il tin
ĠC ore
Input Path
AR GU
Storage Location
ACK AGE
Ġreplica Id
ĠAv ailable
W arehouse
Task Count
local Size
getA verage
Debug ger
Ġss Table
Ġdatabase Name
V V
W atches
get Load
Ġin Message
Int Node
AL ONE
Ġde pendency
Grid CommonAbstractTest
Spec ified
Abstract Invokable
MBean Info
Global SslContextParameters
ĠCall Site
Mut ator
Dead line
ĠOffset AndMetadata
copyOf Range
Complet er
D rive
re new
re versed
get Pos
ce ne
Ġd istribution
Test Logger
of Nullable
sl vr
/ ?
A rithmetic
Ġb its
Test Runner
System Keyspace
Ġver bose
field ID
Work flow
Servlet Context
Ġpool Size
ĠRpc Server
ĠStop Watch
] [];
Ġb k
Ġget Consumer
ld s
Stream Cache
pl ets
ĠB ASE
Ġen force
Op Count
Ġresource ID
PO SITION
Scheduling Info
ĠUN KNOWN
NoSuch MethodException
Cipher Suites
ĠDeletion Time
L ang
ut off
ĠRe ason
Ġkey Prefix
ĠWindow Store
Replace ment
ĠGlobal Properties
ĠExtended Block
W INDOWS
s ynchronous
Ġ located
Ġget Timestamp
ĠN IO
Ġbuffer ed
Ġam azon
ĠPage Id
Ġsl ave
Ġlb Extractor
encry ption
CLEAN UP
qu i
Ġo is
Ġget Destination
Context s
out List
Job InProgress
value Expression
getClass Name
Ġback off
Ġzk s
ĠMod ify
r ink
Ġco processor
Ġh conf
vo ir
Operator StateHandle
UP LOAD
Capacity SchedulerConfiguration
ĠTIME OUT
encoded RegionName
Mount Table
12345678 90
Tier ed
/ ";
Ġ Exec
Ġ MEMORY
ĠH ierarchical
Long Scalar
From Cache
user Id
Socket Channel
Messages Per
ĠWAL Key
hentic ated
High Value
get Mock
Ġ" "),
ser voir
To Create
io s
Read Point
Ġmethod Node
Change log
Auth z
Ġstandby Tasks
u de
ad apter
get Events
Ġget Cluster
Node State
Processor Node
Source Invokable
Dec ode
Internal Cache
rm app
ĠInstance Type
Ġheap Size
grp Id
Ġdid n
StorageHandler Utils
ĠAllocated Slot
Ġdes ired
Ġ" |
Type d
Ġcon st
Ġcon currency
ĠF iCaSchedulerApp
create Writer
ag a
sum ing
Of Last
bug s
Ġqueue d
SH UTDOWN
ĠZooKeeper Watcher
ĠResultPartition Type
ĠMockRMApp SubmissionData
Ġ Build
ing Store
is Enabled
Ġnew Table
Ġin validate
Ġassert Predicate
ure s
ĠH Store
Ġde coder
Connection Configuration
rm v
ĠBinary ObjectException
Ġsubscription Name
RU LE
H MS
b f
mp loy
Ġf etched
Region Configuration
column Index
ĠCache Store
ĠJava RDD
FIN I
ĠCompression Codec
ĠAmazon S
hasMore Elements
ithread ed
set InvokableClass
ID S
mo st
Ġlog Aggregation
Camel AutoConfiguration
cl ause
ĠBuilder Utils
ĠExpression Builder
Ġoff Heap
Network Connector
Ġggfs Secondary
LATE NCY
ĠSo ft
Cent ers
U NA
f hir
z er
Re partition
Ġin flight
ĠC HE
ĠM ax
space Name
UT H
CON SISTENCY
ĠType Description
ĠOr ganization
MetaStore Utils
Cast Exception
ĠLogical Type
ĠTRANSACTION AL
EncodedColumn Batch
/ *
M ime
Ġf air
Re dis
con sumed
File Location
ĠP owerMock
cy cast
Super step
ĠAd vanced
invo cation
Translator PB
Sem aphore
hook s
cycast le
A ZURE
de tail
Ġf is
Ġo bserver
Ġw als
create Topic
ĠV is
DE EP
Ġac cepted
Parameter Types
Ġnamespace s
Network Topology
Completed Snapshots
ITE M
ĠEX ISTS
Lex er
b ot
Ġp ick
Ġv irtual
Ġre jected
to Stream
Map Red
key Selector
ME MB
Ġout Record
Version Info
Ġpre ferred
region Server
If Not
getP h
getLocal Host
ZooKeeper Server
ĠIterable s
ĠIgfs Path
ĠAccessControl Exception
Backoff Ms
boun cycastle
ĠSCHE MA
or tion
Con sumption
Ġimp lement
ser ted
ĠC urrent
IN CREMENT
ĠG RID
On Row
Operation Info
index ed
send Message
Reference Count
Catalog Scan
Ġtransfer Envelope
G it
Ġ kerberos
get Internal
ex plain
Ġset s
ĠGrid FinishedFuture
Ġlist ing
command Line
Ġback log
Ġauth orization
Ġafter Test
Ġvector Expression
ĠDFS Client
ĠJoin Windows
serialized Size
getEnd Key
Ġw m
Table CFs
led ger
Ġrm App
Missing Bean
ĠRO OT
ConditionalOn MissingBean
ĠP osition
Comp ound
ĠComp letion
Ass ume
Ġiter ations
Ġexten sion
Subscription s
ĠVisor Cache
Tri angle
Ġdocker Commands
M V
m ur
in y
set Args
To Add
Data Field
ext ernal
im istic
Resource Calculator
bucket id
Type Descriptor
Col lation
ĠH BASE
Input Ref
Ġadd Property
local Metrics
ĠSystem Keyspace
Graph Node
Entity Manager
output Stream
Static Method
getM andatory
Authentication Exception
Optim izer
Escape Utils
G REATER
Ġget Short
Ġd p
ĠM ultipart
Ġnode Labels
Application Report
Aggreg ated
Quota Snapshot
ĠProcedure TestingUtility
ĠExprNode ConstantDesc
Na N
get Meta
LE ADER
iv y
Ġx id
Ġvolume s
ĠChar Sequence
ĠOUT PUT
ĠSalesforce Exception
ĠEOF Exception
M llp
Ġ METRICS
OR TER
Code Visitor
Ġfrom String
TABLE NAME
Ġup stream
IC AL
Db Util
Ab fs
MAP PING
thread Id
ĠFunction Definition
Immutable List
Contain ing
c aching
s uspend
on line
set Out
Rest Client
Reservation Id
HTTP S
Main Thread
power mock
m id
ĠT EXT
set Next
set Create
Ġtest List
Ġread s
Checkpoint Id
Ġfeature Extractor
Rout ing
m isc
Task Arg
Task Tracker
Record InputFormat
Ġclient Name
Ġtask Configuration
Ġstream Factory
Predicate s
ĠIndex Item
Enable ConfigurationProperties
getLive Containers
decrement AndGet
E valuationContext
f n
get ter
is Stopped
File Util
ON HEAP
Bytes ColumnVector
Access Mode
Ġhand lers
Ġlo st
Ġcompare Result
Ġtxn Batch
getPartition ing
Std OperatorTable
c ategory
Ġget Properties
[] >(
Ġh it
cache Object
As User
Ġstr ings
WAL Pointer
40 96
Structure s
man ent
ĠHO ST
! \
r al
get Plan
mp t
Ġs ite
Ġre mainder
To EndPointMap
Ġtest With
Ġserver Address
AP PEND
Ġent ire
avail ability
expect LastCall
ci dent
ĠTimelineEntity Filters
T aken
Re verse
ĠC B
ĠP ool
Ġtable Dir
SE NT
Ġro lling
ĠInvalid ObjectException
Blocking Interface
BACK UP
SSE S
get Counter
LI FE
ĠK V
mi ssing
NO RE
user id
Ġsession s
ĠOzone Volume
ĠConfig Helper
Bound aries
Ġbean s
Immutable Map
ĠCUR RENT
R src
S ig
s im
} },
re serve
re aker
Ġc k
new Single
ma ries
time Left
getRe served
AS CENDING
Partial From
PI PELINED
Low Value
Tracking Url
Y ES
Re newer
key Type
Api Method
Static Types
MEM STORE
Ġmini Cluster
Bloom Type
g ot
Exchange Id
Arg Name
do Start
Api Name
getBlock Id
ĠReentrant Lock
Extr action
j ks
get Action
Ġf rozen
Service Support
create Reader
Po ssible
ĠTest Name
Sub segment
ĠData gram
Ġwrite s
getA rity
ĠOzone Bucket
Doc s
IL LI
Allocated Slot
Reg Exp
interface s
+ ",
c ipher
get H
get Servers
get Errors
ut ive
Re paired
Key Count
Ġl p
getType Class
Ġdatanode s
rew ind
cogn ized
J ames
w x
Ġ avro
(" "
Ġst d
Ġm Bean
Time Window
>> ...
For Input
nap i
By Label
internal Cache
oc iated
Ġfirst Name
sn itch
getField Name
)} .
Ġspace Name
ĠSl ider
M ix
Ġ able
add Output
ab lis
Name Prefix
ĠC re
Log Entry
ĠF lat
Partition Id
Block Index
Ġcache Size
As Csv
Ġresource Uri
16 0
Ġby pass
One Way
<?, ?
ipient List
SUP ER
; "
P arity
b ay
l b
m iddle
St ale
ĠS kip
Ġh nd
ĠM alformed
Ġtest Remove
Ġme an
ĠK ryo
GridCache Query
ĠRMApp State
Ġrequire Permission
oun ce
dynam odb
Ġ Example
Map Tasks
Time d
ĠH igh
ĠF latMap
Grid Exception
12 6
SER VED
ĠBinary Row
Z oo
am ount
ĠA TO
new ContainerId
ĠRe start
Ġcreate Barrier
Partition Assignor
Event Dispatcher
close Quietly
11 4
OP ER
Init ialize
Mvcc FeatureChecker
Dead Letter
Fl uent
cap ability
IMP L
createRemote User
E valuation
a i
Ġi a
get OffHeap
ĠT ra
set Node
Ġcon version
key Class
ig uous
work Dir
Ġstate Dir
Double Column
Ġenum s
ĠStruct ObjectInspector
getApp AttemptId
e lection
Un wrap
ĠF ormat
Back Pressure
SH OW
Admin Service
Mapper s
ĠBlob Server
REPLIC ATED
ĠCHE CK
Ġ Startup
get MiniHBaseCluster
to Long
Pro x
set Stub
Column Mapping
Tx Local
ĠDe que
Ġscan Info
Di fference
Ġ7 0
ĠBatch Update
getBucket Name
u nder
Pro vided
ĠGrid TcpDiscovery
ĠO PER
Base Path
Memory Segments
Ġfield Types
Ġhand shake
dat am
Sort able
Ġprotocol Factory
Com ments
getEvent Handler
getGlobal Properties
" >
b pid
o lic
Ġ until
Re servations
Ġd iagnostics
Table Procedure
sec utive
CF MD
Web Services
ĠEnum eration
Ġunder lying
Combin ation
Ġjjmatched Kind
' .
j v
Ġget Scanner
State ful
Field Id
Processor Type
Ġro ll
Cl azz
RS A
getResource Scheduler
ĠAss ume
atural Endpoints
ĠVis ibility
s witch
get Range
Ġ( ++
row id
Ġre ached
set Block
Byte Sequence
arn er
ĠF ree
ĠFile OutputFormat
Ġcolumn Id
ĠType d
ĠRoute Definition
Rel DataType
Concurrent Consumers
Ġparagraph Id
C R
w in
Ġj c
Bytes Per
ĠR oot
SE EK
ĠO dbc
Mult icast
Ġversion Id
ware house
PA RE
Authentication Info
Ġgrp Id
ĠBloom Type
( \\
n egative
get Vertex
Ġr dc
per m
test Path
ĠRe name
Read Repair
input Format
com bine
Require ments
SM ALL
ĠSpring CamelContext
Ġtrust Store
Miss es
Cont act
. ,
N one
Ġe m
Ġre delivery
set TableName
ex cluded
Bytes Read
Ġtime Stamp
Ġdestination Name
ĠByte Buff
Affinity Assignment
PI PE
Ġflow RunId
j a
Key store
RE Q
Cache Enabled
write Number
vo ked
map ped
Ġ) :
False If
Full ApiSelfTest
Ġfamily Name
ĠLocal Properties
sens itive
r r
Ġget Environment
ID E
Ġstore File
Binary Object
Failure Exception
first Version
ĠConnection Info
ĠInterpreter Exception
ĠServlet Exception
rocks db
a int
ro ken
is D
In Stream
Col l
ĠN EW
Metadata Query
MI ME
Ġresource Profile
High AvailabilityServices
primitive s
soft ware
ĠSH ORT
ĠTR UE
TIER ED
I TERATION
Y MO
t ached
y ear
re voke
Exception Utils
Ġm on
Ġget Meta
To AM
ĠV iew
ĠFile InputSplit
temp File
error Code
data Dir
ol led
ĠNode Manager
Ġfull y
Ġinvo ked
Main tenance
Sy mlink
getPact Contract
V ol
m arsh
Ġo ffer
ex ch
Region Exception
ĠU SING
Ġmax Iterations
Ġtrans late
Open WireFormat
pri se
Ġev icted
Thrott ling
ĠSuper Column
ĠATO MIC
H olders
Ġp wd
se g
par ated
next Double
Aggreg ating
utation State
ĠNode List
ĠCompaction Request
o del
Test Context
Input Generator
Ġset FieldValue
job id
ater al
cur acy
Blocking Flush
ĠPar quet
Ġaggregation Strategy
vv vv
Ġoo s
M ech
String ObjectInspector
Ġm llp
ĠM B
Ġis RelatedTo
Partition Event
Ġread Fields
mb olic
stop ped
ĠCompiler Exception
MULTI PART
ĠAN Y
YMO US
N r
x slt
ap ability
Type Conversion
ĠM ILLI
create Instance
create Bucket
Be ing
ĠPath s
Hive OperationType
Ġrel Builder
ĠExprNode ColumnDesc
alloc ations
MEMB ER
D Vs
er cer
Ġn b
ĠS u
ĠL ast
ag ios
ignite InstanceName
Hive ObjectPrivilege
Counter Long
Invalid ate
Connector Configuration
ĠRE S
ĠSh ow
ĠSql Kind
velo ped
Release d
ĠTe mplate
' ='
i dent
riv Requirement
ĠIgnite InClosure
User Permissions
data stream
Ġlast Name
Init iate
ĠAbstract ID
13 4
13 9
Disk Ranges
Side TranslatorPB
getNext Available
address es
jup iter
u du
In line
And Remove
Ġnot ification
final ly
ĠInt Serializer
clear Property
Database Desc
REGI STR
Envelope s
ĠHFile Context
going Connection
ĠSUB DIR
Vari ation
M m
] \
ce il
ass umeTrue
ĠT Message
ĠP B
Ġout Type
Properties Evaluator
Ġwh ether
Ġan s
ĠCon tinuous
success ful
Scan Metrics
ĠEX PECTED
orig in
TaskAttempt Context
prox im
3 96
En rich
With Id
ly Generated
Ġadd ing
Sub ClusterId
Ġregion States
Join Order
Process Strategy
USER NAME
Ġkeyspace Name
Ġrelease d
ĠWrite Entity
MessageListener Container
ĠOB JECT
D ns
p lu
ap e
set CacheMode
Ġsh ip
task Executor
getC atalog
Sink Invokable
ĠSimple Type
keyspace Name
IG IN
ssl ContextParameters
Ġscope s
dempotent Repository
Zeppelin Configuration
. </
T REE
in el
re load
Ġp read
Ġf q
(" ^
Ġs ynchronous
Client Utils
Record Context
Ġgroup Vertex
Deleg ating
Open Wire
ĠJava SparkContext
Ġflink Config
PT OR
ĠTopology TestDriver
ĠTableDescriptor Builder
SQ SClient
datam odel
D on
E F
m ultipart
u f
ĠA ut
log Dir
Ġde tail
write Value
PE CT
Read Write
Argument Matchers
UN IT
Ġq t
ĠExchange Helper
Ġcre ds
Program s
spec ific
Ġpred iction
REF ERENCE
writeNumber Field
lyGenerated InputGenerator
J Logger
c rc
(" {\"
Ġb atches
Ġl hs
Ġset Type
KE EP
Ġstate Backend
Ġdir Name
Ġremote Broker
ĠTypeSerializer ConfigSnapshot
SIG NED
get Nodes
get MemStoreSize
Ġreturn s
so ut
ĠL ifecycle
ast orage
ĠRe pl
Grid Rest
HE ALTH
ĠColumn Identifier
exp ireTime
Ġwindow Store
ĠKafka Future
avig ator
Grant s
Ġ arch
get Statistics
De ep
Output Size
Cluster Service
Command Handler
11 8
java Type
Ġx ceiverClientManager
MAT CH
Ġcompression Level
getSource Pact
need s
B reaker
E ager
f etched
al len
Ġc and
Ġget Bucket
ip Option
GE N
Ġun safe
ĠCache PeekMode
ĠCamel Spring
Ġuse s
Ġmove d
fol lowedBy
bytesTo Hex
F LOW
get Directory
ĠT MessageType
Type Comparator
Un initialized
AC TED
As Xml
Ġ' ,
Ġparam Types
Transport Exception
destination Name
Immutable Set
TU AL
I ES
j pa
pe ed
ed its
ĠG rouped
Ġse ction
task Info
App Name
request Id
ĠGridCache Adapter
ĠCon straint
Ġhandle Exception
atched Event
Ġsubmit ted
Located Blocks
\":[ \"
ĠAzure Blob
GRA DE
To Remove
SE Q
sol r
Metadata State
ĠDouble Value
One Node
Remo val
M b
M ig
g son
m andatory
he ets
en u
Ġj etty
UL K
ĠN ormal
sub task
context Aware
state ments
Ġqueue Manager
\", "
LD AP
MODI FY
Ġ Delay
ce s
sub marine
Ġmem bers
Predicate PushDown
files ystem
STAR TED
R m
W s
it ude
Ġget Description
ĠException Utils
ĠR UN
Ġg o
Ġfield Type
Ġmap Join
Ġpartition Id
TaskManager Gateway
ByteString er
ĠMatch Contract
L edger
s id
ĠT arget
Input View
FA MILIES
Ġen countered
ĠHash table
mented File
Ġvert ice
SLO TS
9 19
I ON
P lease
V A
er ator
De p
lin es
Message Dispatch
Query able
:// %
order ed
Ġ[] []
unc ated
ĠKafka Consumer
ĠNull Writable
Slots Per
Rack s
Ġtail Config
ĠCS Queue
? "
c ity
d rive
Ġ 90
set Result
av y
loc Node
Endpoint ProducerBuilder
Gener ate
ReplicationPeer Request
irc ular
ATTRIBU TE
P S
Ġget Min
Ġd rain
Context Name
Ġarg Types
Ġ_ __
Route Id
ĠUn registered
Ġsnapshot s
ĠJson Stream
ys is
Ġactive Tasks
K AFKA
S ftp
); ");
re connect
() !=
id le
th ree
Client Context
ig its
Execution Mode
Lock Manager
ĠNode Processor
Ġwait Time
ĠComposite Type
cacheObject Context
) ((
S alesforce
g rouped
Ġ= >
Ġreturn FalseIf
ĠL anguage
RE START
Ġde ployment
io manager
Response s
Ġclient State
ĠDefault Component
WAL Provider
object s
ĠValue StateDescriptor
getField Value
ĠSubscription Info
C ASE
G S
get Paragraph
Ġd aughter
Ġl if
Value Serde
ĠList ener
With States
SA VE
Managed Operation
DataSet s
REP ORTER
ENG LISH
MU TATION
I AL
u er
col Num
Input Channels
Query Builder
ĠIn finispan
Ġsub partition
Conver gence
Abstract SelfTest
ĠKey GroupRange
Ġsplit ter
Ġup dater
Placement Policy
ĠHazelcast Constants
D OT
get Db
lo or
un ptned
en coder
ĠI tem
File Descriptor
ĠCon trol
Ġraw Store
ĠCompression Type
EXEC UT
Exclusive Lock
ĠGridNear Atomic
Ġ'} ';
plu gable
Ġre serve
Log Files
Execution Type
db name
MO CK
ĠSql Query
We ak
ĠBuffered RandomAccessFile
ĠSE CON
datanode Details
Ġmark ed
ĠgetMax imum
Located FileStatus
FilesTo Compact
Capt urer
I tr
get Compaction
is Success
Ġco processors
ĠG G
ĠGrid BiTuple
queue B
Consumer Id
getClass Resolver
Yarn Client
Ġverify Allowed
ĠJson Util
Success fully
getNumberOf Available
ĠReservation System
CONT ROL
\":[ {\"
ĠMetaStore Utils
4 000
H ybrid
Ġ MemstoreSize
re delivery
get Prefix
set Affinity
ĠS OURCE
pro tected
\" }
Ġnum Retries
From Config
index es
Ġblock ing
Ġpart Cols
MAX IMUM
find ByThriftId
Ġm agic
ĠA CCESS
ĠObject Creation
link ed
Job ExecutionResult
Ġbyte Array
Source Unit
ĠProperties Component
Ġreport s
ĠRange Tombstone
Ġpe ers
Flushed SequenceId
ĠPrincipal Type
s ax
get Cols
is Primary
ĠP UT
ĠB i
Ġtest Un
Record Batch
Group Admin
Ġon Complete
Vector ized
Ġlocal Dirs
Ġchild Expr
DO MAIN
Ġgrid Count
Trigger s
Ġpl acement
Removed Exception
ĠWe ak
y aml
() ]));
Ġs nd
ER O
el ong
ĠRe cognitionException
Ġcreate New
Ġnum Fields
ĠBoolean Expression
ĠField List
ĠService Call
ĠExprNode GenericFuncDesc
ĠInstantiation Exception
AW SCredentials
M ost
() ",
Ġr sp
to F
ra ft
Request Handler
Response List
protocol buffer
Dat um
Ġdel egationToken
last Name
ĠYarn ApplicationState
Ġsegment Size
Ġorder ing
release Slot
WOR KER
ĠAggregation Strategy
createNew File
pager ank
Uninitialized MessageException
S uspend
b loom
c mp
Ġp ull
(" //
Ġm n
Of Type
ign ored
server Address
Execution JobVertex
Sc anned
Get s
Timeout Millis
NO TI
ĠCache DataRow
Sql FieldsQuery
Throw n
Users Manager
MISS ING
p lus
r x
read Operator
Cache Config
Ġh TableDescriptor
du ction
Ac cepted
ĠIgnite InternalTx
Ġpre load
Ġle x
Position ed
Ġbase Offset
Ġheader Name
ĠSingle InputPlanNode
CHECK SUM
deliver ed
ColumnStatistics Obj
ĠAlter Table
M ixed
re cursive
riv al
Ġtest Case
Local Dirs
ĠColumn Path
ĠContainer Data
Ġreq s
ThreadPool Size
SERIALI ZATION
pop ulate
decl ared
Ġph ysical
B oth
x stream
get Processor
get Kubernetes
Ġc rd
Ġe st
Ġreturn AST
ter m
Ġj ust
Ġget Remote
To Cache
Class Runner
Group Request
Pre processor
TER MIN
wait Active
Auto generated
memory manager
Ġauth ority
ĠNot ification
Ġso i
ĠValid ator
Ord ers
Cor rupted
ĠTxn DbUtil
A ux
S kew
p ooled
s ch
get Serde
Ġf tp
Pro filer
ĠObject InputStream
ĠF acebook
++ ));
config s
Ġexec uted
Disk Range
Compression Codec
getFile name
Ġyarn Client
GridGgfs Path
Leaders hip
Implemented Exception
setB oolVar
B Plus
H bck
H DDS
S yn
y p
Ġ ke
Re voke
ĠM Y
DE S
SI S
Range Tracker
Ġoperator Name
ĠTypeSerializer Snapshot
ĠRequest ed
Shuffle Environment
Perf Log
- ");
K ahaDB
S D
w atermark
get Identifier
Ex Impl
Ġre latesTo
Object Message
sh a
\" >");
Request Header
LE Sparse
Exec uted
Task Status
ĠV irtual
Ġoutput File
Ġcurrent Key
Ġevent Type
Interval YearMonth
the me
Bind y
content Type
Ġword s
ĠRegular lyGeneratedInputGenerator
LESparse ResourceAllocation
& \
Ġst m
Ġget Cache
ĠC ancel
Cache WriteSynchronizationMode
Ġresult ing
Ġen ough
MO B
Api Versions
multi get
Termin ated
edForDelete At
) /
get BrokerName
Ġ" ${
Ġcreate Function
getValue Length
Ġdel egation
Match Iterator
ĠGridCacheProjection Impl
G oing
H old
get Resources
Ġf lushed
Cache able
Out standing
Xml Transient
Ġremove All
Trust Manager
ĠAc count
ĠCli Frontend
getAllocated Resource
ĠZoo Log
clou ds
de pth
get Args
fo x
To Write
ĠG ate
AR GE
Ġmax Length
Application HomeSubCluster
Ġfail ing
Abstract Message
Ġsend Messages
READ ING
COMP LETED
Blob Cache
Managed Memory
Ġ# "
ReplicationPeer Response
ĠFs Action
Ġfree List
WR AP
ĠCf Def
x Bean
get Tree
get Scm
Block Count
Writer Impl
has Arg
LA UN
object Creation
ĠTrans form
Web socket
getLocal Strategy
Cur ator
ĠStreams MetricsImpl
Tra iler
Ġcombin ed
o le
Ġnew Data
Ġs ynpred
TI MER
Ġadd rs
LO VER
ĠCache Mode
Ġz xid
rie nds
getFile Pointer
Ġmodel s
ĠReduce Contract
Inner Class
Ren amer
9 12
D UMMY
F i
] ";
p ha
Ġ legacy
get Rpc
Ġs ps
Ġin jector
ĠH ystrix
not Empty
Transaction Manager
ĠSe quential
SA MPLE
compute IfAbsent
2 016
? ");
B LOOM
H nd
P ACKAGE
ĠT ri
State Serializer
Data Buffer
Data gram
create PactJsonObject
Ġbyte Buffer
With Ret
Bean Definition
ĠTask AttemptID
Change Listener
Sync ReplicationState
ĠOutput Collector
Ġarchive d
Termination Future
Malformed URLException
ĠEvalu ableExpression
B ench
get Original
ing er
Ġf eed
To Child
Ack s
Ġproduce d
Choo ser
P ower
h ub
h cd
r mi
get MetaData
Ġt raining
put x
test Data
ĠGrid Predicate
for ced
ĠZ ERO
getS ql
18 0
ĠDouble ColumnVector
IS O
Ġprint ln
Ġssl Context
getPartition Keys
Fixed Length
ĠAvailable PortFinder
N Ms
get Call
Co unted
Ġget C
Ġget Un
ir th
Ġcreate TempFile
aggreg ator
Ġfamily Map
Timeline Collector
ev iction
ĠAn not
trigger Checkpoint
Produce d
ĠCompare Op
e Line
get ExecutionState
is Last
Key Provider
Test Server
Data Manager
out Dir
Group ReduceFunction
count ers
ps i
Update Response
End ian
assign ments
Activ ation
Pr j
Ġrepl aced
SEd itLog
s qs
Ġ< --
String Pair
Ġget Size
Null PointerException
cover able
Reflection Utils
Ġ 99
Ġget Temp
new Static
Ġcache Mode
RI VER
Ġcheck Query
Ġ3 5
Json Value
Procedure Result
16 6
med ia
Ġmetric Tags
BE FORE
Ġks Name
Ġggfs Cfg
ĠSp illing
Hazelcast Constants
ĠAP P
ĠCONNE CTION
D ONE
K W
u mented
Ġ Fields
ĠF ULL
are st
Proxy Instance
Edit Log
Recover ing
Privileged Operation
Optimized Plan
Ġ"@ "
F etched
G IT
re sume
Ex am
In Cache
In active
ĠS mall
ĠP ost
\" />
Ġarg List
Per Server
KeyValue Scanner
host Name
ĠGridCache Return
ĠCount ers
Ġcre dential
ĠRead ing
ĠPersist ent
Re stricted
con sumers
Group Reduce
Ignite MBean
Ġbuf Out
ess imistic
ĠKEY S
rest ored
Plugin s
ĠDo NotRetryIOException
abbit MQ
Navigable Map
Ġear liest
Ġc tr
Ġf wd
RE L
Ġkey Length
CON VER
Tr ash
Create Flag
', '
Ġload ing
Runtime Info
ĠLocal Strategy
ĠLe af
ph an
Ġjar File
C apture
get FileName
get ClusterId
Re using
In activity
Ġset Id
Ġvalue Class
For Table
Json Parser
ĠZ QL
WAL Dir
Ġtransaction s
Hook s
Ġtxn Id
ĠRet rying
BRO ADCAST
Sampl er
caught ExceptionHandler
Ġmail box
U X
c cessor
j axb
de pt
Ġf raction
ch oose
key Serializer
el ix
Cache Cfg
ĠGrid Streamer
<? >>>
Ġjob Info
field Names
Procedure Done
16 8
getColumn Count
SUB MIT
ALGORITH M
allen ge
g s
st omp
ĠString Reader
ĠH istogram
Store Factory
User Permission
direct Type
Ġac cessor
trans lator
18 1
Ġstop Row
Satis ified
Generic TestUtils
Ġentity Manager
Submit Work
ĠCsv InputFormat
ĠSP LIT
T ar
Type Id
Stream Status
Ġh its
Ġvalue Obj
comm ission
Resource Uri
ĠFile InputFormat
Ġlog File
ĠN ext
Ġrow Size
Writable Comparable
Ġwrite File
Ġret ention
bl ing
sTo Retrieve
13 7
ĉĉ ĉ
Ġrc v
HEADER S
IALI ZED
KTable Impl
ThreadLocal Random
OPTI MI
F ER
Ġp lus
In Any
Ġj av
Key word
ĠC aching
\" "
ĠB ook
Ġbu ilt
Ġdo Return
Ġ' );
from Json
Double Writable
Ġ9 7
ĠINode File
avor ite
Smpp Constants
ĠEncoding Utils
PROG RESS
ĠCB Util
W as
r dd
} ),
Ġ 00
To Type
ĠF SImage
CON STR
Next State
http client
Timeline Reader
BO UND
ĠPriority Queue
ĠHel lo
Ġlon ger
D am
d Program
Ġ QUERY
st Row
is on
ab solute
co ordin
set Path
new Name
Message Body
create User
Loc atable
Resource Spec
Ġnum Keys
internal TopologyBuilder
any Long
PL AN
ĠCOMP ONENT
Virtual Cores
attr s
Ġcaller UGI
ĠSerialized Value
VIR TUAL
P GP
i qu
re peat
Ġc ookie
ĠC Q
lu x
Ġkey Deserializer
ĠR ule
TE Z
For ced
null Pos
Component AutoConfiguration
DI T
Ġqueue Id
Label Expression
Auth ority
Ġtr acer
ĠGridHadoop Job
NoSuch ElementException
candidate s
ĠSTA T
ĠCOM MA
CommonConfigurationKeys Public
k lazz
Ġ annotated
Ġ{ '
get Iterator
Re balancing
Ġm atrix
Ġj g
Input Type
Timeout Ns
Ġrequest Id
delete OnExit
ĠBoolean Node
Fs Permission
WAL Edit
Ġinitial Time
ĠSec ret
require s
ALTER TABLE
ĠMiniOzone Cluster
D iv
d m
s ame
Ġi re
Ġnew Name
Ġre ported
Key HashMap
Int p
Num s
ized Message
Ġregion Load
iver se
bl k
Back ingStore
ĠState ful
POINT WISE
Domain Name
ĠActor Gateway
Ġthrough put
micro soft
ĠjjStartNfa WithStates
AutoConfigure After
Stream Thread
Cache Flush
size Of
ill a
Error Table
Ġfield Node
for Checkpoint
VI SI
ĠConfig urable
ĠWritable s
CHE D
Ġshared Ctx
sy mbol
F ifo
m ultiple
add Listener
get Open
Ġv ec
put s
Ġj aas
sum mary
DE L
Connection State
leg ram
Tracker Service
SP LI
ĠNode State
ĠRE TUR
Ġam Client
ĠCluster Client
DelegationToken SecretManager
ĠIter ation
Ġposition s
Acknowledge Message
ĠGridPortable Object
Head room
ĠOne ShotLatch
CHAN NE
add Mapping
Ex cluded
Ġget Processor
To ByteArray
Ġw ant
Ġ* =
Be arer
ĠArray Writable
Ġlog ged
UT C
Ġsub tasks
resource ID
ĠCamelContext Aware
Interceptor Chain
Percent Usage
ĠQu artz
ĠProgress able
Ġp b
Ġp act
Ġ} .
set Backups
Ġget Status
Ġget Mock
Ġis Running
PRO C
Primitive ObjectInspectorFactory
Ġqu ick
Ġreduce d
38 4
Ġcustom er
enable Table
Ġbus y
C N
O V
in validate
Cache PeekMode
With Exception
With Memory
Ġcheck er
Interpreter Process
Ġpri or
ĠSingle InputGate
ĠINTER VAL
ĠAcknowledge Checkpoint
ANON YMOUS
Y LOAD
Ġj vm
File OutputFormat
Value At
pr eters
Ġset Default
Ġinput Data
Or More
Body To
Retry Exception
Primitive Category
Ġurl s
Ġcause d
ĠLe ase
ĠPage IO
ĠcontainerId Str
KeyGroup Range
E ither
or oush
write AsText
CO MB
ĠType Sizes
Match Code
Groovy Lang
ORD IN
getLocal Port
dist inct
createAnd Prepare
re x
Ġl ifecycle
Time Millis
Inter ns
write Map
Operator ID
Process Tree
Init ializing
Ġend Index
("/ ",
Ġroot Tasks
Linked HashSet
Ġresolve PropertyPlaceholders
Heartbeat Response
PRI MITIVE
EQUAL S
Jms Message
Ġmemoized HashCode
cyc ler
set Read
Ġget Response
Ser ies
ĠRe covery
Region For
Ġcol located
SH IP
Ġx form
Wait For
ĠByte Sequence
Shared Slot
ĠLabeled Vector
ĠString Record
ĠM arshaller
ĠM SG
table Desc
write Short
Ġtask Type
Static Type
Network Environment
SERVICE S
ĠMockRMApp Submitter
IgniteFs Path
comparison Expression
P aging
S R
S INK
re con
get GenericsTypes
Ġget Session
bu ff
Ġw idth
tx id
Sub scribers
getC apability
getP rivate
TT ING
Ġloc NodeId
Ġwindow ed
COM MENT
Ġallocation Id
ĠCommon ConfigurationKeys
Ġlar ger
z ooKeeper
ur mur
set First
Message Factory
Ġis Satisified
Ġu dt
And Check
ĠRE C
ĠSub ject
L ag
N IO
c orrelation
ic table
get Array
get Locations
Re activeStreams
set Persistent
assert Same
Ġ. ..");
ĠV O
Container Cmd
Ġnum Threads
ĠData Structure
Http Method
ĠDefault Endpoint
Ġcamel Exchange
Multi Part
Ip Address
ĠOrder ing
D igitalOcean
v irtual
Ġp arity
get Builder
get Trimmed
ĠR ate
Ġcomp at
Dis coverer
client Node
Ġz eppelin
Compaction Queues
ĠOzone Consts
ĠOperator StateHandle
scheduler Key
Reservation Allocation
Ġleaf Queue
234 5678
getPh ysical
H ystrix
Ġl cv
read ers
Region sTo
num Rows
Ġ[ --
EX TERNAL
order ing
header Name
ĠSub task
getFirst Child
ĠAllocation File
Ġjms Message
* \
C b
R cv
W here
f use
is Shutdown
Map Work
Ġ3 6
getKey Name
Json Util
ĠGridCache Queue
requestBody AndHeader
AB C
Numeric Node
Ġlib rary
re mainder
set Memory
test Name
RE TAIN
ĠObject OutputStream
ĠM ultiple
Ġde crement
table Path
Ġfile List
Ġstate Directory
Ġ4 00
Ġshould Not
ĠCh ained
ĠBuffer Pool
ActiveMQ Queue
Void Namespace
Optim ize
ĠDrop box
ĠOFF SET
ĠinterpreterSetting Manager
ĠSUPER USER
j ac
String Record
(" @
Ġs uspend
Ġst rip
Ġget Active
Path Name
DE AD
OR C
AC KET
Ġen c
12 9
Join ed
ĠĠĠĠĠĠĠĠĠĠĠĠĠĠĠĠ ĠĠĠĠĠĠ
Sink Desc
Binary Row
ization Context
Ġbroker Name
ĠSlot Profile
filename For
Managers Parameters
Ġ'. '
h row
Ġ Statistics
st alk
get SerializedSize
Ġget Success
new ProxyInstance
ĠD IS
Check pointed
Ġch ore
Execution AttemptID
ĠE NT
mem cache
Admin Client
STRUCT URE
ĠNetwork Environment
Ġserde Constants
Classification Model
p ig
get Stage
ap sed
String To
read Buffer
LE G
Client Configs
Update Info
Ġte ardown
Compaction Request
Item Type
Authentication Method
Ġover flow
1234 5
Example s
estimated NumRecords
Backed SortedColumns
ĠDist Cp
/ \
2 50
E lem
Ġc id
set Service
set LocalStrategy
0000 1
Ġsuper Column
Start Key
Part Name
broker Service
Datanode Info
Ġproto type
ĠCheckpoint Coordinator
istic Regression
ĠIgfs FileInfo
ĠgetConfiguration OrCreate
ĠReduce Function
ĠZeppelin Configuration
Ġmk Entry
Fatal ErrorHandler
GroovyLang Parser
B Tree
b a
m ux
he et
Ġre sume
Table Snapshot
En code
Ġde pendencies
create Value
Server Utils
Query Identifier
Ġdo l
MI X
ĠIn stant
13 6
FIX ED
ĠSplit Log
ARG S
accumulator s
E E
Ġ Projection
um bling
ĠC rypto
AC Y
ĠN ephele
Metrics Group
Ġblock Buffer
Cell Visibility
Sql Fields
raint ree
Ġlo ok
lus hes
ĠLlap Daemon
Durable Topic
Ġass umeTrue
ALLOW ED
Ġ" //
Ġget Schema
Ġd ot
Ġto uch
Ġsuper Class
Default Endpoint
data Stream
ĠResult Message
do Stop
Allocation ID
ĠGridDht Partitions
access Token
ĠOrder ed
ĠGenericFile OperationFailedException
ĠAuthorization Exception
< =
_ ().
l ia
get OnlineRegions
In dent
id ual
el apsed
du nd
data Structures
Route Exception
Ġas ynchronous
ĠSql Function
getJob Id
ObjectName Exception
Ġsubtask Index
ARGU MENTS
d ns
m ort
Ġnew UninitializedMessageException
ve led
To Store
ĠM atrix
ĠList en
LE ASE
Record Builder
Block Type
Ġnode Name
Ġexpected Body
mi ss
Max Apps
LOG DIR
PRE EMP
atis fi
Rest Api
root dir
Jar File
getConnection Id
getCluster Status
Hazelcast Instance
SO CKET
ĠIgniteSpi Exception
: '
C LE
S nd
re initialize
le ared
is SecurityEnabled
as df
To Attributes
Ġh c
Column Prefix
Ġtest Plan
build Side
Ġstream Id
13 3
000000 40
ĠHttp Response
SQL PredicatePushDown
getParent Operators
PIPE LINE
it alize
is Connected
In List
ĠG it
Status Builder
SI C
Ġ4 7
Ġlocal Broker
Non blocking
00000000 00
ĠTimeline CompareOp
Throw Exception
Partitioned State
Hi bernate
ope napi
J OR
M T
V Long
Ġget Read
Column Info
Ġcreate Path
ag ation
Partition Iterator
Ġg g
LO Y
Uri Prefix
Ġexec uting
If Exists
ThreadPool Profile
ĠNUM BER
ĠGroup By
ĠisUse RouteBuilder
ĠMe sos
PartitionMap Exchange
Ġget Token
Cache Query
ME GA
Output View
OR IGIN
From File
error Message
Get Request
Ġinit Fields
ĠTable Scan
ĠAccess Controller
ĠRead Only
Without Header
seek To
Ob solete
Ġtight Marshal
G p
c al
p urge
t ies
Ġs ure
Ġget App
To Use
sh ims
Resource Requests
For Job
Dat acenter
ĠRow Filter
Full PageId
Ġcheckpoint s
skip ped
b ool
add Property
String Buffer
to URL
Ġ2 7
file Status
Up stream
Error Reporter
der by
CamelContext Helper
from DataSet
TEST ING
FOR CE
Frame d
Ġchunk s
Ġhdfs Cluster
mut ations
ĠDirect ory
Ġshut ting
= ",
A FileSystem
get Trace
get Vertices
Ġc ertificate
is All
oo m
set Quota
Ġd up
Stream Source
IN MEMORY
Exec Procedure
Inter estingProperties
Ġg auge
Auth Bridge
jms Component
Ġbase line
ĠSSTable Writer
jac ency
) -
ro py
Ġto Read
Task Scheduler
Of Table
Ġu id
Ġmax Retries
:" +
ĠOzone Protos
InetAddress AndPort
ĠEndpoint State
ĠBuffered InputStream
ĠZooKeeper Server
Extended Cell
ĠProgram InvocationException
parsed Message
ĠCopyOnWrite ArrayList
B atis
D ynamoDB
S ynchronized
o to
re active
get CoprocessorHost
Ġt ip
set Version
set IpFinder
Key Request
Class Loading
loc NodeId
Queue Entry
Ġ6 3
Ġscheduler Key
ZooKeeper Watcher
ĠNoSuch ElementException
Ġretrieve d
ĠDocker Helper
getPrimitive Category
FINI SH
1 00000
an ging
In Subtask
ĠA SYNC
Key Schema
ĠB ootstrap
ĠTh rottle
Camel Aws
input State
ĠBytes ColumnVector
process Watermark
Ġtr acking
ĠRM NodeLabelsManager
Equal ity
isNullOr Empty
InSubtask Group
q b
In ode
pro val
Ġ& =
Bytes Message
ĠArray Utils
Ġuser Info
Ġcurrent Value
Ġindex Name
Ġindex Of
ĠMock AM
Ġsub scribed
Ġret rie
Ġpar sing
Ġcf name
ĠPartition Desc
ĠRef resh
Ġec ho
EndpointBuilder Factory
re lation
Ġc red
Ġ" .*
ĠS PI
Ġl h
ĠD ual
Ġtable Schema
Connection Id
Thrift AuthBridge
ĠST ORAGE
CONT IN
Checking Context
Ġacknowledge ment
t ar
in cluded
con st
Ġin Memory
Ġl ay
Up loader
Source Context
gre ater
query Id
Idx s
ĠConnection Context
ĠStorage Exception
IG HT
PA USE
compaction s
TypeConverter s
Sem i
Ġcombin er
Ġrq st
ĠFull PageId
O SS
ri t
Ġc are
set Password
Ġstat uses
create Task
Function Keys
CamelContext Aware
Ġap plied
GridCache Return
22 22
ĠUser Permission
Ġgener ics
ful Gateway
ĠComponent Verifier
Ġblob Server
Compacting MemStore
DISTRIBU TED
add Processor
ĠI o
Ġtest Write
Cluster Metrics
GE ST
Ġdb name
Ġwork ers
Ġaggreg ated
Follow er
WA RE
readField End
ĠJavaPair RDD
C orre
Ġe s
Ġex press
sh iro
Ġis Static
Event Message
ĠO ff
ĠTest Base
Ġ4 4
Segment Size
Reference d
Ġx FF
Space Manager
getData TestDir
Two Step
ĠJdbc Thin
Shim Loader
pack aging
CB C
Ġ Ex
get Routes
Ġc sv
Ġth rew
read Short
Field Accessors
Ġtest Filter
Ġtest Simple
Ġdo Get
Ġsend To
Compaction Threshold
Authorization Exception
dec orate
Ġdecl aringClass
Ġatomic ityMode
Priv s
ĠAnnotation Node
BIG INT
ĠPart ial
ĠOPER ATION
2 014
F RA
H a
ss c
get GenerationStamp
to Milliseconds
set Protocol
ĠS w
sp ill
ĠP ort
Ġkey Args
Client Mock
Output Equals
Ġcreate SchedulingRequest
ĠTime Zone
Ġab fs
Valid ity
visit Label
23 7
IL L
Backend StateMetaInfo
Authentication Protos
support s
Jar Files
ĠStore Scanner
Ġreference d
ĠOp Code
getConsumer Id
CANCE LED
ircuit Breaker
ĠAD MIN
T rees
m aterialized
ĠU nt
print Info
Ġ5 4
HI TE
25 5
getField ObjectInspector
ĠParameter ized
receive AcknowledgeMessage
ĠSopremo Plan
O Auth
Ġ NamespaceDescriptor
de al
ch at
ĠB roadcast
Ġ5 1
ĠRE MOVE
Satis fy
ĠExpression Statement
Subscription Name
ĠTcpDiscovery VmIpFinder
Low Level
aff eine
hb ck
Materialized View
$ ;
P owerMock
d Containers
l ambda
Ġ Messaging
ic ode
get Entry
Ġre p
age nt
File Type
For Cache
gr pc
ĠThread Cache
ol dest
14 1
Ġmin us
Ġidx Name
ĠOzone ConfigKeys
ĠCluster Status
ang lia
Ġcan onical
ĠSt ripe
ĠTransaction al
Cf m
ĠSpark Conf
ĠInstance ConnectionInfo
Distribution Mode
Ġprincipal Type
Ġconverter s
REPL Y
Ġtra iler
ĠExpected Exception
ĠValidation Exception
mult icast
PLU S
StaticTypes Marker
ch anism
set Column
File InputSplit
create Socket
Ġk lass
Protocol Client
Ġinit HRegion
Tx Finish
Ġparent s
Ġtmp File
Model s
Ġtemp oraryFolder
Ġdeserialize Portable
DataOutput Buffer
Ġdescriptor s
VAR I
Ġfeature s
setUn finishedMessage
CREDENTIAL S
b d
Ġnew Path
lin ux
Ġfile Length
Ġon ce
Ġclient Port
direct Executor
ĠCache AtomicityMode
Interpreter Group
ĠCheckpoint Stats
Req s
Ġseq Id
ensure FieldAccessors
ensureFieldAccessors Initialized
S co
w ind
Ġm andatory
set Family
Ġcon cat
Map Task
ĠD ROP
Ġtype Converter
From ProtoFormat
ĠPath Expression
Snapshot Exception
Ġthread Name
OFF HEAP
Trigger Policy
Compression Level
ĠStreams MetadataState
mill is
Ġcompact ing
D to
R ACK
on se
Ġi dent
it tle
as Array
set Size
Ġget Snapshot
Ġco sts
write Header
Exchange Helper
ĠComp ressed
Ġreq Id
Plugin Exception
Ġfull Id
ĠTr uth
ĠOperation Type
ĠJobManager Messages
txn Id
Ġjms Component
ĠDi gest
t rain
Ġ license
ar row
Key Set
Ġde crease
ĠD ump
Job History
pre fetch
Ġk illed
Yarn Server
url s
bucket s
mort bay
z illa
add Auth
get Note
In f
Ġget Route
Time Out
pl c
Meta Storage
Ġcomp iler
Camel Box
Sp read
Range Tombstone
Http Constants
Partial Solution
ĠMutable CounterLong
ĠNot FollowByData
Ġass ume
ĠVersion edValue
ĠMail box
V ATE
get Dispatcher
ĠList StateDescriptor
Ġ' )
15 9
TableDescriptor sBy
Usage Manager
Kafka Consumer
rott ler
Tbl Desc
Watermark s
Main ThreadExecutor
ĠResultPartition ID
ĠFire fox
B est
H L
Q os
p at
Ġ av
or er
Ġb alancer
Key Len
RE COVERY
comp acted
And Epoch
Grid Service
Regist rations
Ġoutput Dir
Broker A
Binary Marshaller
ADD R
REF RESH
stRow Before
F D
m iddleEvent
get Initial
get ErrorCode
Ġm ult
Stream Caching
ĠG son
LE T
Un assign
ĠV I
Container Location
RI ES
Sub scribe
Sub tree
Ġlocal Server
ĠDE SC
ĠDefault Producer
Ġ[] >
Single Node
rm Container
ExprNode GenericFuncDesc
Hook Context
Ġchange log
Ġpl anner
DU LED
Ġsequence Id
MetaMethod Site
Duplicate s
ENC RY
ĠJAXB Context
] )));
get StructField
Data Frame
DE C
With Custom
Ġa nt
Pre decessor
Write ResponseHandler
Ġfirst Row
Ġdest Path
33 8
Ġprotocol Version
DU CE
Kinesis StreamShard
fuse source
jacency List
A st
b rokers
d urable
m ll
â Ķ
Ġ Delegate
Ġ< "
add Method
Ġi ae
ce iving
Ġr ing
File Exists
ated StateManager
om b
Channel Manager
ĠInter cept
Min us
Ġresource Id
Ref Count
getRe l
22 1
Flush able
Ġ"' ",
ĠRel MetadataQuery
ĠDriver Strategy
Ġsecret Manager
Upper Bound
Render er
mll ib
get SecretKey
Ġs Object
ack ed
Column Type
byte Array
Ġexpected Exception
Storage Utils
AM L
open stack
ĠCluster Metrics
ĠJobGraph Builder
ĠCatalog Exception
ĠDruid StorageHandlerUtils
Micro s
b ounds
Ġt Type
Re cur
Ġm reg
Object Request
Ġl ate
On Start
Socket Connector
max Size
Yarn ApplicationState
WAL Key
Transport Connector
Java RDD
Ġbefore TestsStarted
Upload Part
Ġpattern s
ĠCommand ProcessorResponse
Ġreplic ate
Sl ash
Author ized
ĠProperty Expression
Greater Than
Ks Def
536 870
); }
ĠS ObjectField
ĠL ambda
ĠP ooled
Log Dirs
Ġset Output
Region Locations
Ġ2 9
ĠO S
met er
Grid Future
Ġload Balancer
Ġ{" {\"
Ġsavepoint Path
X Stream
] *
re dis
Par sing
su fficient
ĠTable State
ret val
Mo zilla
UP LE
Ġsource Name
getP rincipal
33 3
Drop box
Tri p
Under Test
Ġawait PartitionMapExchange
Thrott ler
ĠAuto Closeable
S emanticException
add Transition
get Writable
get JSONObject
Ġt witter
Ġf avoredNodes
Ġget Time
Ġget Parser
Ġex act
SE N
Cluster Key
ĠE ipOption
Ġclient Cfg
db ms
Ġcall ing
Ġfail s
UUID Type
getType At
PO CH
ĠRE PLACE
Allocated Resource
ĠMod ifier
Ġextr actor
U INT
m llp
de vice
re p
Ġfinal ize
en velope
new State
Storage Movement
Su cceeded
broker Name
ĠPartition er
Allocation Exception
Leader Process
Super User
submit Procedure
namespace s
ĠTr ust
ĠKStream TestDriver
DELI VERY
Health y
Remo vals
setWrite SynchronizationMode
assertNot Equals
al ign
() });
Ġre d
set Driver
De serialized
assert OutputEquals
Key Response
Data BlockEncoding
Configuration Entry
Service Factory
Not Running
Ġlist Of
Ġcontainer Data
state s
Load Source
SH I
00000000 000
ĠGener ated
ĠMemory Records
CONTAINER S
getColumn Families
Ġdelet ing
catalog Name
ĠMetaClass Impl
Cr ash
L st
P od
R olled
get Enabled
get Label
Ġn one
us ion
Ġis Local
ĠGrid Test
Ġnum Splits
ĠJob OutputVertex
Length s
ĠColumn Info
struct ures
Doc umented
ĠFS Namesystem
full Id
replic as
ĠBRO KER
et ches
Ġp latform
get TransactionId
List Of
ĠS ome
pt ime
Ġtest Update
Ġset Conf
With Pos
Ġa Class
Ġstart Column
ĠK Means
Ġal iqu
Ġ", ");
my app
Page Store
DB Y
Ġapplication s
Ġcompare Op
00000 4
77 7
ĠDec ision
So ft
Io Impl
Net Utils
r f
et a
Ġnew ly
Ġb ool
Ġj sc
ĠA LTER
Over lap
Task State
ĠO Auth
Default Component
Lock Type
Op Type
Delete Column
Ġcf Id
DFS Util
Ġx path
Exp iring
Bi Consumer
Z NODE
add Header
In Queue
File Split
Node Ids
ST D
And Namespace
error Handler
Dec ry
Ġas cending
URI Support
Ġent er
Ġad just
open Connection
ĠNode Type
Java Class
Constructor s
DataSet ID
Ġleader SessionID
Quote s
Limited Private
F OLDER
get TaskManager
Re serve
Ġre voke
ĠS mpp
con t
th in
Ġkey Count
Ġadd er
Property Placeholder
Per Second
mit s
Ġun resolved
Load Balancing
AM Container
13 8
aggreg ated
Ġobject Mapper
ĠValue Builder
Raw Writer
Ġ"\" ");
Ġbackup Id
Submission Result
Ġauthor ize
Ġupper Bound
P k
j ndi
Ġin Type
Ġpro ducers
comp ens
With Location
Ac ross
ĠMock Time
Ġmock Result
Ġerror Msg
array Aware
Ġmeta Info
getRe al
Space Spi
force BlockingFlush
Shared Manager
Restore Settings
ĠPactRecord ComparatorFactory
ĠNot ImplementedException
Parameterized Type
Tra its
ĠMo ve
ĠShared Cache
Ġow n
Ġsmall er
arrayAware ToString
L ANGUAGE
R F
U e
d ot
get Char
get Leader
get Alias
In jected
ĠS emantic
con currency
ĠL RUCache
Ġstate Table
output Path
block ID
Ġall Preds
Ġproducer Only
Aggregation Function
ĠStorage Policy
Managed Resource
ĠConsumer Info
Ġstreams Configuration
Ste ps
ĠSnapshot TestingUtils
Ġreference s
White list
Semantic Properties
MemstoreSizePhase I
FR ACTION
A INT
b w
Ġst ale
ed it
Ġassert No
ream ble
IN NER
ĠF irst
Qu oted
Row Range
Record ingLevel
On UriPrefix
Ġstream Graph
meta Class
COMP ARE
do Return
Deploy ed
Opport unistic
3 00000
T C
f allback
Ġp lease
Con firm
Ġr ules
row Index
Buffer Consumer
Ġbyte sTo
For User
Num Of
toString Utf
Instance Id
On Timeout
Ġcheck Exist
ĠCache able
wrap RuntimeCamelException
isSet O
Timeline Store
Global SSLContextParameters
Secure BulkLoad
artifact Id
BuiltIn Function
C GroupsHandler
ce n
String EscapeUtils
ĠT Get
Ġm m
ĠS pan
Node Type
ĠM ongoDb
Un marshall
Event LoopGroup
Add ition
Status Updater
ĠW ill
As List
Write Ahead
index Name
ĠRE SOURCE
getRegion States
Leader Retriever
<?>> ();
getIndex Of
Ġrack s
ĠCOM MIT
CLA SSES
unescape Java
ĠReservationSystem TestUtil
D ed
get Split
get Quota
un pack
sh ut
Ġse m
RO UT
Ġrow Type
Ġtime To
ĠMessage Out
Page Memory
Hive PrivilegeObject
Auth Method
Database s
ĠConcurrent SkipList
Bl k
NON CE
6 23
F B
\ ");
Ġget Target
ĠC loud
Stream Time
ĠH ServerAddress
Ġh log
Output File
With No
Ġg ood
write ByteArray
Query Operation
ĠData BlockEncoding
down load
Double Scalar
Ġloc s
ĠBuffer OrEvent
family Name
InputSplit s
ĠIndex Helper
Dump Id
Pr ice
IgniteTx Key
K STREAM
b est
an onymous
po licies
). ",
Ġcomp uted
Grid Security
parse DelimitedFrom
ities Manager
Ġmin or
15 7
Compaction Policy
ĠHttp Server
NumberOf Subtasks
ĠCamelContext Helper
FAI LOVER
Primary Keys
Ġclean Up
Ġhel lo
Prob lem
Ġcor rupted
A nti
_ (
get StackTrace
St orm
sc anners
Ġw c
LE CTION
Un interrupt
write AsCsv
Ġread External
Ġsche mas
Is SnapshotDone
Return Types
ĠQuery Processor
increment Expression
content s
getStore files
Ġnested Class
transition To
Ġdirs Handler
Enforce ments
Bytecode Adapter
ĠStorageContainer Exception
IgniteMBean Description
B AR
E val
Ġ Debug
Ġ{ -
ĠT ab
Test Key
Ġname Node
From User
Grid Uuid
ĠE ither
old Value
getRe ply
Ġscan Type
CF G
Backup Id
ĠSource Function
Ġrel ated
W asb
Ġ} });
In ference
Ġget Proto
Ġin side
Test Object
Collection ItemType
Constant Set
Properties Component
TH IS
RM NodeLabelsManager
Ġhas More
Pair ComparatorFactory
raw Cells
Termin ate
199 5
Forward er
getQualifier Length
Ġaut henticate
ĠFlatMap Function
InAny Order
S DB
m appings
get Collection
get AttemptId
get Top
is Auto
In strumentation
set Enabled
sc ala
Request Map
Index Info
Block Reader
And Roles
Pri or
End Time
ative Expression
15 2
ColumnFamily Descriptor
30 4
function Name
Active Tasks
1111 1111
R mv
n el
get MBeanServer
Ġn anos
ser ializers
gn l
point s
Ġtest Multiple
ĠF ifo
her ited
ĠTable Permission
Tree Node
Sequence Ids
("/ "
visit or
Ġskip ping
Serialization Proxy
Imp urity
ĠZooKeeper Protos
ĠGridHadoop V
Ġserde Params
G zip
R AM
m c
in dent
set File
Ġget Host
Request For
Local izer
Ġwh y
PAR TIAL
EN ER
Single FieldBuilder
ĠHdfs FileStatus
Tra iling
Interrupted IOException
ĠHLog Key
M DC
P adding
j vm
p ng
Ġ LocatedBlock
Ġn aming
Ex cept
Ġb a
Key Pair
Data BlockEncoder
Set table
Message Bytes
table Descriptor
Ap plied
ĠW M
Inspector s
from Configuration
17 2
Cached ThreadPool
Script File
Search Result
(". /
Privileged ExceptionAction
ĠComb in
VO ID
( ++
T L
st ress
Ġt md
Ġnew Part
Ġget ColumnFamily
Un managed
Ġset Input
Server Endpoint
Metrics System
word count
Ġdis pose
getS o
ĠIO ReadableWritable
Global State
Sort ing
Ġnested Parameters
ĠSl iding
Verification Error
PRODU CER
D UP
E A
H Master
b fs
l fs
it ter
ver ifier
ĠS em
Ġco pied
log Aggregation
Ġset Column
ign ature
end Time
map Key
Spec ulative
parse Double
Proxy Provider
ĠActiveMQ Connection
ĠVer ify
xx xx
Attach ments
trust store
Ne cessary
Pick list
N Add
S omething
get QualifiedName
Pro tection
Value Array
Ġtest Query
ĠE VENT
By pass
clu ding
ĠCache ContinuousQuery
DI AN
Ġlocal Dir
Ġauth Method
Ġcp Host
schedule Immediately
parameter Types
ĠZeppelin Server
Azure FileSystem
Instantiation Exception
M k
get Artifact
is Interface
Ġs olr
set Region
ĠG u
arg That
ĠF old
Ac cum
Ġcache Names
Ġjob Status
ĠSql Listener
ActiveMQ Message
Ġproxy Port
Management Strategy
Follow ing
Right s
Less Than
ĠSTAT US
( .
8 000
O PE
l arge
ad oc
Ġt ook
Test Type
Value Type
ĠP ART
Data Center
RE AL
Field Types
Row Position
And Count
Conf lic
Ar quillian
Default GroovyMethods
app Name
cre asing
Internal Key
ach able
Ġtxn Mgr
Dead Servers
ĠApp Attempt
Ġpersist ence
ĠDocker Constants
ĠFor ward
getSuper class
######## ########
P y
al ive
get AccessKey
String Writer
Ġcon sistent
ra id
sc alarValue
Ġw in
read ByteArray
ĠF ind
ĠExecution JobVertex
13 5
|| (
Tra ver
Evalu ableExpression
Large Tests
616 16
VA ILABLE
L Z
l ifecycle
to Short
key Tokens
ĠU D
Tuple Exception
ret weet
EN DIAN
getNode MetaData
IST IC
ĠGenericUDF OP
g z
get Elements
get ZK
Ġf b
set Location
Bytes Store
Service Helper
vent s
ĠIgnite Callable
ĠW hen
delet es
getValue Array
format s
Quota Settings
ĠRE QUEST
Ġ[] ,
ĠHttp URLConnection
ĠEvent Handler
ĠTypeSerializer SchemaCompatibility
Link s
ĠIter ative
drop box
Ġdecl are
decl are
Shut Down
CHANNE L
Ġn etty
Ġb w
Ġh ighest
Ġtest Class
CON CURRENT
result Type
ĠK aha
Ġfield Set
Producer Id
Ġrecord Buffer
Non Empty
Sql Node
Cl aim
This Subtask
JMS X
Iteration Head
NodeLabel Expression
Ġman ually
ĠTimelineReader Context
+ =
A gain
x c
an other
up grade
ron t
01 00
getMessage Count
Ġtemplate String
14 3
PRO FILE
mb le
Deleg ation
ozone Manager
src Path
ĠRM StateStore
ĠGroovy ClassLoader
88 59
Ġtransaction Id
Ġpl ain
ĠDummy Service
ĠWeb App
016 2
UDA FE
PROP S
ACCE PTED
ĠPageId Utils
WithRet ract
S ynthetic
U DIT
s k
get Binding
set Response
ext r
Client ConfigKeys
ĠO sgi
ĠNoSuch TupleException
Normal ization
Program Exception
getToken Factory
ĠAccessControl Protos
cho ice
Extr as
ĠRMAppAttempt State
Truth Value
A MPLE
D rain
n fa
set Bytes
File Block
ĠP UB
UL ATOR
Grid Query
Per Topic
Ġ5 3
Ġshould n
sec s
00000000 0000000
EX IST
open mbean
Ġwait Until
ĠCluster Topology
ĠActiveMQ Message
Repair Service
sw t
ĠST REAM
GridGgfs Hadoop
azure bfs
j c
~ ~
Ġ Integration
get Command
Ġth ird
Ġget Progress
key Fields
ĠP ub
ĠH TU
pr un
Ġis Singleton
Ġadd Output
Ġread Only
Write Chunk
Ġ5 2
output Gate
Ġany Long
ĠColumnFamily Type
BulkLoad HFile
Ġweb socket
Ġec Policy
m utable
get Metric
get Op
get SequenceNumber
Ġre write
Ġget Method
Time Sensor
ĠH L
ĠD U
Ġcreate Default
DE SERIALIZER
Check NAdd
MA N
InputStream Task
ret rie
Ġlast Key
Ġroot dir
Ġjj CheckNAdd
Parse Context
report s
Ġdown StreamComponentName
peer Config
ĠDense LocalOnHeap
ĠInvocation TargetException
is A
set VolumeName
Data Store
Ġtest Path
Storage Directory
part Name
Ġstop per
Peer Id
Single Input
HA ServiceState
Ġ"] ",
Ġrole s
Ġinterceptor s
DR UID
Q f
ar ativeExpression
Ġr d
Ġm aven
Key Slice
Table Column
Ġdata Len
CO ORDIN
Ġcontainer Info
14 8
IO MetricGroup
Scan Info
ĠQuery Sql
Shared Buffer
ĠURL ClassLoader
ĠkeyGroup Range
Ġzip kin
Sw agger
2 0000
ic en
it rite
is InstanceOf
Ġd on
To Long
Table Type
Read Entity
mit ted
Ġuser Type
partition ing
Window ing
CH ILD
STable Descriptors
One InputStreamOperatorTestHarness
ĠAsync MethodCallback
getTask ID
Creation Time
DELI VER
Subtasks PerInstance
ĠTH READ
ĠPayload CarryingRpcController
ĠSAX Exception
ASC II
G String
r abbit
get Pattern
get SchedulerApp
Re ached
set Container
Ġget Boolean
ĠM aven
Client State
Or Get
Ġoutput Channel
with Inputs
Broker B
Ġload Class
ĠPartition Info
Ġslot Request
Ġtemp Dir
getJob Graph
Lower Bound
Startup Order
JobGraph Store
PARAMETER S
dead line
Ġsasl Server
ĠNaming Exception
T i
] ]
v ec
set Delete
Ġget Broker
ĠA SC
Ġde coded
ĠF iCaSchedulerNode
value Serde
Http Address
Ġq p
Ġop Rules
Copy OnWrite
Ġmode s
Archive Dir
Ind icator
Day s
ĠManagement Factory
ĠEntryProcessor Result
REP LAY
IndexSize KB
ĠContainerCommand RequestProto
- %
C BLOCK
_ )
h ose
(" +
Ġget Operation
Ġassert Output
ĠC urator
RE PAIR
ĠĠĠĠĠĠĠĠĠĠĠĠĠĠĠĠ ĠĠĠĠĠĠĠĠ
Ref lect
An other
Auth s
random Numeric
ĠKafka Exception
ĠCell Scanner
Script Engine
Ġappend er
Ġblob Key
transfer Envelope
ĠDi ff
2 001
J T
Ġt aken
ST AN
Ġis Compaction
TE NT
Up dating
Storage Descriptor
ĠGridCache Atomic
Ġother wise
Ġquery able
isSet Ire
Bi Function
FIN DER
ĠRO WS
GG FS
Ġactiv ate
Ġvis ited
ĠAP PLICATION
G eo
i am
o ve
get Latest
ĠH Msg
Ġcreate Writer
Ġa ux
TA sync
Ġcheck Open
protocol PB
Ignite Spi
Ġro ut
Write Order
sub j
Temp Queue
Encryption Key
Ġdead Letter
imp licit
oth ers
ĠReplica Info
ĠOn Exception
Ġjdbc Template
ĠAnnot ated
get Page
Ġt id
Name Type
put Short
ĠH as
plic able
ĠF inis
inter mediate
Out Stream
Ġwrite External
.. .",
Http s
16 4
Ġend Of
Reduce SinkOperator
... )}
kv State
Ġsubmit Job
ĠReservation Id
getTestVertex WithLocation
ĠFetch Response
G RO
H al
get NM
ation Time
Ġget Length
sh ift
ĠRe dis
Ġkey Size
ĠF TP
Region Sizes
pre loader
ĠN N
HE LP
array Creation
Mod ifiers
13 1
register Query
ĠCluster Connection
HRegion Server
Quorum Peer
Jms Component
Ġpk g
writeMessage End
Pax Exam
GridToString Exclude
BuiltInFunction Definitions
m icrometer
ic ting
Re dund
pe ers
set Host
Ġget FileStatus
Ġin clusive
RE SERVED
ĠR ound
And Close
Meta Table
ĠN io
ĠW eigh
Ġ{} :
Memory InMB
ByteBuffer Cell
Lock Id
Ġ4 9
run Async
If Necessary
err Msg
Ġpo tential
ĠFilter Function
ĠSec ond
Ġinst all
div ide
Collision Spi
Ġmer ging
through put
DEP LOY
ĠCompatibility Result
); \
get Ignite
get Expressions
is Blank
el ine
Server Exception
With IOException
On Error
Comm a
Ġout Dir
Ġnum Vertices
ĠTest Object
Sub stitution
data Size
Ġ% %
Ġ% .
Ġpar quet
Ġac id
iv ist
Runner Options
Move d
Pax RunnerOptions
Ġha Services
' ][
get Dest
List End
set MemorySize
set BucketName
ĠA WS
sh rink
Service Filter
Queue Length
Base Statistics
data Source
Metadata Request
ĠInt Pair
Ġun assigned
http Client
The Class
Parent s
Mockito JUnit
Ġleader Id
ĠjobGraph Builder
LAY OUT
ĠZoo Defs
CANCE L
ĠCONNE CTOR
ĠLine ar
getSuper Class
F ill
R aid
o S
in crease
get Variable
Re ceipt
Ġv iolation
set Buffer
ĠS ASL
File Cache
ĠP ES
Stream Element
Message History
Cache Group
Ġkey Set
Ġset Last
om in
With in
Base Work
ĠTh row
MP P
Ġread able
ĠĠĠĠĠĠĠĠĠĠĠĠĠĠĠĠ ĠĠĠĠĠĠĠ
sTo Delete
MIN IMUM
SCHE DULED
Ġproxy Host
Ġconnector s
Ġupload ID
oned DateTime
Ġpreemp tion
ĠBPlus IO
ĠOptimized Plan
getHadoop Shims
cen ari
ĠPES SIMISTIC
ul ating
Ġe very
am q
Config Options
Ġfrom Message
Ġfrom Json
Ġwrite Buffer
Write Buffer
ĠStream StateHandle
Transaction State
\":\" \\
Finished Event
Grant Info
AVA ILABLE
ĠConsumerRecord Factory
omatic ally
D DB
D RIVER
S eda
j os
s Map
x sd
add Remote
get Stub
get ContentType
Time End
Ġtest Collection
Ġ3 7
Ġon Error
Ġon Leave
Ġk ms
Storage EndPoint
Ġsize Of
ĠMessage Reference
Ġdel im
15 6
ĠPact Compiler
22 4
Ġlo ose
getString ValueAt
Ġoperator State
ActiveMQ Topic
getNode Name
getBlock ID
ĠJoin Operator
Ġaggregation Buffer
Ping Protos
ATTRIBU TES
secutive Data
createUser ForTesting
Ġ ord
or n
co st
Ġget Expression
To Log
Ġw ould
Ġde stinations
Ġthe ir
Ġmet er
ĠJ O
mock Object
Split Log
Ġinit iate
getC md
ĠLog Context
Ġevent Queue
("/ ");
Raw Reader
ĠPage Handler
ĠHdfs Constants
MIME TYPE
greater Than
MockitoJUnit Runner
G ap
ac id
Ġf old
Ġj t
Data Map
create Copy
Ġvalue Type
Index Item
Result Codes
file Size
iter ations
Ġnum Versions
ĠTest Value
14 2
Ġparent Task
Ġtimeout Ms
GridCache SharedContext
Loop back
ĠVertex Value
always Use
Phone Number
B RID
b ut
d ictionary
w t
ch ore
Bu iltin
Ġget s
Ġd iagnostic
Object Pool
Ġse en
utor s
Line Length
Ġinterpreter Result
201 5
Temporary Folder
ĠActor System
ApplicationMaster Response
ĠassertNot Same
qui val
ĠHierarchical PropertiesEvaluator
Mech anism
G T
W atchedEvent
bu s
Field Builders
Record OutputFormat
Result Type
ĠU ndertow
Ġon Enter
Uri s
query Names
path Expression
Ġsub scribe
Ġstore Files
Page Addr
Expr Map
any Int
ĠRM Context
30 7
88 88
Fair Scheduler
Ġseek To
ĠComb ine
ĠJO IN
alwaysUse FieldBuilders
B ULK
K Means
add Resource
il y
ĠS Jaql
Ġcon firm
ĠL T
ĠP rivate
ID DEN
Field Metadata
Ġtest Driver
ĠD UMMY
Loc n
Le ading
Ġtask State
DI ST
ĠCon sumed
Ġtr ash
201 8
Flow Run
SING LE
copyFrom Utf
PERCE N
MessagesPer Poll
L b
h istogram
p i
y ammer
get Failed
ĠM ongo
Job Client
Server Metrics
Ġthe y
Comm un
Ġout File
ĠData Sink
Ġrun Command
DI SP
Ġdis patched
14 6
Ġassign or
ĠCo sts
Near Cache
Link Exception
Ġom Response
Require s
ĠRemote ExceptionHandler
Ste aling
Hdfs Constants
Ġct or
TableScan Operator
ExclusiveReadLock Strategy
H REGION
S z
e val
h int
Ġf Name
Add Column
Ġout Tuple
Ġnum Nodes
Ġoutput Type
KeyValue Timestamp
ĠJob ExecutionResult
SH UFFLE
Ġverify Run
Ġexp and
ĠClient State
merge UnknownFields
writeString Field
RegionServer StatusProtos
Alter Status
ĠSopremo Module
Ġflow Name
Ġweight s
Merging Regions
SERV ATION
> ...
E B
b its
e ver
h ist
Con sumable
Ġs id
Ġget Family
Test Action
Node MetaData
ĠL dap
Ġh alf
ĠG pu
ĠM arshal
With Retry
Ġlog Files
Get CompletedSnapshots
Ġtask Runner
Ġread From
input Channel
ĠStream Collector
Comparator Setup
Ġquery String
ED ERATION
ĠHBase Protos
ous ly
Ġafter TestsStopped
Sorted Set
Placement Rule
NoSuch ObjectException
Ġsequence Number
MAR SH
Behav ior
ComparatorSetup ToConfig
, (
ĠS te
ME D
out bound
Task Config
path To
Update Type
Ġapp Context
group ing
SP ORT
Ġcheckpoint MetaData
90 80
ws dl
ĠFloat Writable
fut Id
ServiceDiscovery Configuration
) };
S el
c alendar
h trace
s low
get Failover
Ġs v
set Rest
ĠRe store
FI CATION
Ġadd Method
Ġinput Split
Property Expression
Local Adapter
Ġapp Report
Cell Builder
TR ACK
15 4
getNum Containers
TProtocol Exception
Added Event
Ġrec ipient
doc s
getDeclared Method
Redelivery Delay
DELE TED
Ġshut Down
d In
d iagnostics
get Rack
Id Enum
Ġin line
Ġd igit
test Task
Message Cursor
Log ged
ĠD urability
ĠO PEN
ĠIgnite SQLException
end Point
Dis co
Ġclient Version
KeyValue Iterator
getKey space
num Records
ĠGridCache Entry
16 5
Ġproducer Config
getPath To
Mutation Proto
Ġremote Address
Ġrpc Client
Ġmetric Group
Spark Interpreter
ĠBlob Cache
dec oratedKey
OVER RID
Ġmini Id
ELE MENTS
ĠHigh AvailabilityServices
get DelegationToken
ra ve
pre load
ĠData Transfer
xy z
Ġab ortable
with Header
Hive StringUtils
Discovery Data
Trigger ed
ĠByte String
27 56
Ġts Wrapper
Ssl Context
getServer Address
seq id
ĠShipStrategy Type
groupBy Key
ĠGoss ipDigest
EXCLUSI VITY
combin er
get CachedClass
Ġn eighbors
Re writer
>> ());
ĠF IN
Token Range
Grid Spi
Ġtime ToLive
ĠInt Stream
getClass Node
ĠTask Factory
Match Stub
ĠQuery Filter
transaction Manager
checkAnd Mutate
Respon der
Ġprob lem
Ġcons ider
ĠFlinkKafka Producer
Unwrap ping
f name
Re ducing
Ġ( );
ĠA W
[] []{
ex plicit
Count ing
ĠR LESparseResourceAllocation
Output Committer
append er
Ġnode List
Ġsc ratch
LOC KED
Bucket Response
ĠKeyValue Scanner
header FilterStrategy
SY NT
Live ness
ĠMetric Group
ĠOutput Gate
Ġdoc Comment
Poll Consumer
Ġsleep Time
ĠCustom er
Compacted Row
mon th
A FileStatus
M aven
get TaskManagerLocation
Ġget Operator
key Group
read BitSet
Ġtest Component
Ġcreate Cluster
Ġtype Mapping
Code Source
Memory Usage
Channel Selector
ĠStream Utils
mem bers
Ġcf amily
Ġas cii
Ġ6 5
Ġloc ator
ĠSql Node
vi ation
AV G
parser s
Ġip Finder
mini Id
Round Robin
ond on
scal ing
mploy ee
s anitize
() ?
ĠL ook
write ComparatorSetupToConfig
Ġnum Buckets
Sc ala
Ġclient Configuration
Ġlocal Fs
ĠNode Attribute
Open ed
resolve WorkDirectory
SA TIS
Dump Locn
201 7
ĠContract TestUtils
Save d
Ġredis Client
SHI FT
F MetaData
G rpc
H StoreFile
c ross
m arker
get Cached
Ġf i
Service Status
Container Executor
write BitSet
ary ing
Ġ{} );
Properties Parser
ĠK ahaDB
Ġ4 5
Ġtmp Path
do Privileged
Linked BlockingQueue
ĠTaskManager Location
ĠDead line
SendTo Endpoint
OPER ATOR
E Tag
F C
} </
get Previous
Ġget Master
Config Value
Time Nanos
ĠRe place
On Close
Ġclient Builder
dis ruptor
FILE NAME
ĠApplication SubmissionContext
getField Names
getNode Value
ĠWritable Comparable
cls Name
identity HashCode
cod ings
Ġexcluded Nodes
ĠDeferred JavaObject
, %
G GER
get Procedure
Ex perimental
set C
Ġget Query
Index Helper
Ġsc ore
Ġserver Socket
ĠMessage CollectionItemType
Ġmin Alloc
ĠKeyValue Util
Ġpo inter
StateStore s
getAll StructField
Subscription Info
TOPIC S
ĠTimestamp Clock
MR Cluster
IgniteTx Ex
ĠSelection Key
J ackson
on Exception
ve nd
00 10
po w
Connection Exception
Ġnode Ids
Ġpre p
Ġmap Work
Sp illed
SC A
EX CHANGE
17 8
Ġslot Provider
Ġstreams Config
AppAttempt s
mbean Server
ĠPersist enceAdapter
Compilation Unit
ENG INE
536870 912
F iCaSchedulerApp
e fficient
get Non
Ġnew Node
Map Output
ĠD IR
Inter actions
job Master
service Id
trans acted
Calc ite
vis ibility
ĠReservation Request
ĠCompare Operator
Ġaudit Map
Cop ies
Subpartition View
Exclu ding
T IN
ss h
Ġt ickTime
Ġl s
Data Block
ĠH ConnectionManager
ree ment
Ġstart Offset
Ġstate Map
Ġexec Operation
Ġinit ialization
ĠHive Lock
Min Max
Ġtx s
Ġsession ID
Volume Response
64 7
Generic UD
convert BodyTo
Trust store
ĠSecurity Utils
KvState Request
74 90
ĠXml Signature
Ġdocument ation
E EK
Ġ Info
Ġi m
ey Number
List ObjectInspector
Ġget Password
ĠI rc
spon ding
Ġkey Positions
Ġfile Len
Cell Comparator
Ġquery State
PA YLOAD
ĠChannel Handler
Jar Path
Bind Address
Ja as
Emit ted
Combine Function
Least Once
Ġfl uent
Ġcompat ible
COORDIN ATOR
D aughter
y clic
} };
is Active
In Milliseconds
ter s
List Strategy
set Null
Ġj axb
To Source
Ġpro filing
orm Type
Ġh erder
col Stats
ĠRe ducing
base dir
value Bytes
Container Logs
Record er
And Update
Ġadd Column
Ġblock ed
with Long
Prefix Bytes
ĠUnsupported EncodingException
ĠInvalid OperationException
Ġinitial Capacity
ĠnumberOf Channels
getF ragment
ĠRequest Header
ĠInput Channel
ĠEX EC
ĠPrivileged Action
getPrimitive Writable
Ġmer ger
Atomix Client
G ranularity
ad apt
Ġ" >
un compressed
read Size
\" },\"
Ad viceWith
Ġinput Path
Local File
Sub Query
queue A
Mock s
Ġstate Manager
list MetricStore
close Stream
getC lose
15 5
output Column
Pact Null
Ġcommit Log
ĠCell Comparator
ĠInterpreter Setting
CODE C
Ġdec oratedKey
Ġreplica Info
ĠShared Buffer
ĠjobMaster Gateway
ĠgetAnd Remove
VARI ABLE
f p
de termine
Ġn c
Re con
set ShipStrategy
Ġget Random
lu ser
ob tain
ĠD SL
For App
Ġu nd
Ġinput OI
Dis connected
Ġread Command
param Types
with Name
Namespace Descriptors
Ġproducer Id
ĠTABLE NAME
ĠMini HBaseCluster
ĠUp grade
DESCRI PTOR
ĠPRE FIX
ĠDeferred Object
E q
b ob
get Element
as cii
ed Region
Ġget N
Ġget Hive
ĠA rithmetic
Ġd k
Ġ1 10
Ġh rs
base line
Resource Limits
iter als
Grid Name
ĠRE PLICATION
ĠToken Identifier
operator Option
allocate Direct
MEM TABLE
[...]
