{"<s>":0,"</s>":1,"<pad>":2,"<unk>":3,"<mask>":4,"<added>":5,"<removed>":6,"<STR>":7,"<NUM>":8,"!":9,"\"":10,"#":11,"$":12,"%":13,"&":14,"'":15,"(":16,")":17,"*":18,"+":19,",":20,"-":21,".":22,"/":23,"0":24,"1":25,"2":26,"3":27,"4":28,"5":29,"6":30,"7":31,"8":32,"9":33,":":34,";":35,"<":36,"=":37,">":38,"?":39,"@":40,"A":41,"B":42,"C":43,"D":44,"E":45,"F":46,"G":47,"H":48,"I":49,"J":50,"K":51,"L":52,"M":53,"N":54,"O":55,"P":56,"Q":57,"R":58,"S":59,"T":60,"U":61,"V":62,"W":63,"X":64,"Y":65,"Z":66,"[":67,"\\":68,"]":69,"^":70,"_":71,"`":72,"a":73,"b":74,"c":75,"d":76,"e":77,"f":78,"g":79,"h":80,"i":81,"j":82,"k":83,"l":84,"m":85,"n":86,"o":87,"p":88,"q":89,"r":90,"s":91,"t":92,"u":93,"v":94,"w":95,"x":96,"y":97,"z":98,"{":99,"|":100,"}":101,"~":102,"¡":103,"¢":104,"£":105,"¤":106,"¥":107,"¦":108,"§":109,"¨":110,"©":111,"ª":112,"«":113,"¬":114,"®":115,"¯":116,"°":117,"±":118,"²":119,"³":120,"´":121,"µ":122,"¶":123,"·":124,"¸":125,"¹":126,"º":127,"»":128,"¼":129,"½":130,"¾":131,"¿":132,"À":133,"Á":134,"Â":135,"Ã":136,"Ä":137,"Å":138,"Æ":139,"Ç":140,"È":141,"É":142,"Ê":143,"Ë":144,"Ì":145,"Í":146,"Î":147,"Ï":148,"Ð":149,"Ñ":150,"Ò":151,"Ó":152,"Ô":153,"Õ":154,"Ö":155,"×":156,"Ø":157,"Ù":158,"Ú":159,"Û":160,"Ü":161,"Ý":162,"Þ":163,"ß":164,"à":165,"á":166,"â":167,"ã":168,"ä":169,"å":170,"æ":171,"ç":172,"è":173,"é":174,"ê":175,"ë":176,"ì":177,"í":178,"î":179,"ï":180,"ð":181,"ñ":182,"ò":183,"ó":184,"ô":185,"õ":186,"ö":187,"÷":188,"ø":189,"ù":190,"ú":191,"û":192,"ü":193,"ý":194,"þ":195,"ÿ":196,"Ā":197,"ā":198,"Ă":199,"ă":200,"Ą":201,"ą":202,"Ć":203,"ć":204,"Ĉ":205,"ĉ":206,"Ċ":207,"ċ":208,"Č":209,"č":210,"Ď":211,"ď":212,"Đ":213,"đ":214,"Ē":215,"ē":216,"Ĕ":217,"ĕ":218,"Ė":219,"ė":220,"Ę":221,"ę":222,"Ě":223,"ě":224,"Ĝ":225,"ĝ":226,"Ğ":227,"ğ":228,"Ġ":229,"ġ":230,"Ģ":231,"ģ":232,"Ĥ":233,"ĥ":234,"Ħ":235,"ħ":236,"Ĩ":237,"ĩ":238,"Ī":239,"ī":240,"Ĭ":241,"ĭ":242,"Į":243,"į":244,"İ":245,"ı":246,"Ĳ":247,"ĳ":248,"Ĵ":249,"ĵ":250,"Ķ":251,"ķ":252,"ĸ":253,"Ĺ":254,"ĺ":255,"Ļ":256,"ļ":257,"Ľ":258,"ľ":259,"Ŀ":260,"ŀ":261,"Ł":262,"ł":263,"Ń":264,"Ġ<":265,"ad":266,"add":267,"er":268,"on":269,"de":270,"in":271,"or":272,"at":273,"et":274,");":275,"del":276,"st":277,"ion":278,"re":279,"al":280,"le":281,"te":282,"Ġ=":283,"Ġ{":284,"ic":285,"Ġp":286,"()":287,"ss":288,"Ġi":289,"ro":290,"me":291,"ac":292,"nt":293,"get":294,"St":295,"mp":296,"an":297,"Ġt":298,"ri":299,"ce":300,"Ġ}":301,"Ġc":302,"Ġn":303,"tion":304,"he":305,"ap":306,"ing":307,"ate":308,"ar":309,"ut":310,"ur":311,"se":312,"Ġf":313,"Re":314,"ort":315,"ue":316,"ew":317,"ul":318,"lic":319,"ub":320,"Ġ(":321,"il":322,"Ex":323,"ame":324,"ass":325,"ec":326,"Con":327,"Ġimp":328,"ache":329,"Str":330,"Ġ\"":331,"it":332,"Ġimport":333,"String":334,"ublic":335,"Ġpublic":336,"ge":337,"is":338,"ab":339,"();":340,"In":341,"Ġe":342,"ĠĠ":343,"ption":344,"Ġnew":345,"(\"":346,"Ġr":347,"Ġth":348,"lo":349,"org":350,"Ġs":351,"ation":352,"Ġorg":353,"int":354,"Co":355,"able":356,"pe":357,"oo":358,"ception":359,"ist":360,"urn":361,"Ġ+":362,"eturn":363,"Exception":364,"ver":365,"apache":366,"Ġb":367,"Ġreturn":368,"id":369,"ck":370,"Ġv":371,"nd":372,"ull":373,"fi":374,"ert":375,"Ġif":376,"ve":377,"Ġst":378,"lass":379,"row":380,"Name":381,"Ġre":382,"ey":383,"am":384,"co":385,"ie":386,"ch":387,"iz":388,"um":389,"up":390,"as":391,"inal":392,"ype":393,"age":394,"00":395,"to":396,"\",":397,"ile":398,"ect":399,"Pro":400,"put":401,"xt":402,"riv":403,"ter":404,"ĠString":405,"ode":406,"Ġ@":407,"ed":408,"Ġfinal":409,"Ġthrow":410,"rivate":411,"Ġnull":412,"Ġprivate":413,"ĠT":414,"alue":415,"());":416,"List":417,"oid":418,"Ġm":419,"().":420,"ger":421,"art":422,"set":423,"ime":424,"De":425,"Ġvoid":426,"fig":427,"ult":428,"un":429,"));":430,"act":431,"en":432,"Ġj":433,"ot":434,"Id":435,"assert":436,"ata":437,"ĠS":438,"Lo":439,"Ġstat":440,"sp":441,"Type":442,"yte":443,"ry":444,"qu":445,"ase":446,"ted":447,"ment":448,"est":449,"Ġthis":450,"Ġcon":451,"bj":452,"Bu":453,"Ġo":454,"\");":455,"Ġget":456,"con":457,"av":458,"Ġstatic":459,"ĠĠĠĠ":460,"ff":461,"ĠI":462,"Ġ</":463,"Map":464,"Ġex":465,"Ġin":466,"ĠA":467,"ize":468,"ld":469,"Ġthrows":470,"th":471,"ava":472,"bject":473,"Key":474,"ser":475,"Ġ0":476,"ild":477,"File":478,"and":479,"Ser":480,"ct":481,"ong":482,"Ġint":483,"Ġd":484,"text":485,"ive":486,"Ġassert":487,"Object":488,"ator":489,"Test":490,"ream":491,"per":492,"ra":493,"po":494,"had":495,"ore":496,"fo":497,"que":498,"oop":499,"ath":500,"(),":501,").":502,"als":503,"gn":504,"Config":505,"bu":506,"Ġco":507,"Ġl":508,"Col":509,"ory":510,"ain":511,"To":512,"ĠC":513,"lean":514,"unt":515,"pro":516,"ition":517,"ers":518,"Me":519,"cess":520,"Ġjava":521,"Met":522,"ow":523,"hadoop":524,"ssage":525,"sc":526,"new":527,"Node":528,"quals":529,"atch":530,"ER":531,"ack":532,"oolean":533,"so":534,"key":535,"lu":536,"rue":537,"Ġw":538,"ir":539,"sult":540,"ress":541,"Ġ1":542,"Ġpro":543,"urce":544,"reate":545,"ite":546,"())":547,"Value":548,"od":549,"el":550,"Over":551,"Byte":552,"State":553,"uration":554,"[]":555,"Ġfor":556,"ilder":557,"ial":558,"ride":559,"amel":560,"Override":561,"umn":562,"ĠL":563,"ient":564,"class":565,"Ġ!":566,"ure":567,"ĠP":568,"Data":569,"ction":570,"ange":571,"Stream":572,"ask":573,"Ġ==":574,"Context":575,"ON":576,"util":577,"ord":578,"),":579,"ield":580,"tain":581,"test":582,"point":583,"ock":584,"Comp":585,"lient":586,"lin":587,"ob":588,"quest":589,"Time":590,"che":591,"ray":592,"ST":593,"ice":594,"alse":595,"ader":596,"rid":597,"mm":598,"one":599,"Info":600,"Set":601,"ance":602,"gion":603,"ĠH":604,"Message":605,"sh":606,"ffer":607,"read":608,"Equals":609,"IN":610,"Ut":611,"rent":612,"Ġ!=":613,"rray":614,"RE":615,"lock":616,"vice":617,"ast":618,"ager":619,"ace":620,"Util":621,"))":622,"orm":623,"gnite":624,"anager":625,"Ġboolean":626,"Ġ.":627,"ex":628,"Table":629,"Class":630,"Builder":631,"ID":632,"source":633,"Ġto":634,"Configuration":635,"str":636,"OException":637,"Field":638,"Cache":639,"Int":640,"all":641,"Ġh":642,"Log":643,"artition":644,"col":645,"Ġ:":646,"pt":647,"utput":648,"ith":649,"us":650,"ĠG":651,"rite":652,"Ġclass":653,"Manager":654,"cord":655,"ext":656,"log":657,"ity":658,"actory":659,"pl":660,"En":661,"stance":662,"\\\"":663,"Path":664,"ntry":665,"em":666,"arg":667,"ndpoint":668,"loc":669,"dex":670,"Size":671,"ann":672,"TI":673,"scri":674,"ĠException":675,"name":676,"ializ":677,"ĠRe":678,"ME":679,"Ġlong":680,"aram":681,"Inte":682,"tainer":683,"ll":684,"Column":685,"OG":686,"change":687,"Stat":688,"mo":689,"Integer":690,"Ġ*":691,"Factory":692,"ĠObject":693,"urrent":694,"plic":695,"camel":696,"fa":697,"lse":698,"pert":699,"Proto":700,"ĠM":701,"AL":702,"ire":703,"pr":704,"Ġfalse":705,"Input":706,"Request":707,"ran":708,"ĠassertEquals":709,"heck":710,"Ġelse":711,"base":712,"rom":713,"im":714,"ty":715,"Ġde":716,"pec":717,"du":718,"spon":719,"ĠList":720,"io":721,"Buffer":722,"LE":723,"Un":724,"ĠB":725,"Ġtest":726,"Se":727,"sponse":728,"press":729,"ection":730,"out":731,"Ġ-":732,"ash":733,"Count":734,"Ġ&":735,"ind":736,"ute":737,"gth":738,"yst":739,"Ch":740,"sta":741,"Bytes":742,"Ad":743,"Ġkey":744,"Ġset":745,"Ġis":746,"roup":747,"cessor":748,"cted":749,"val":750,"ĠD":751,"Service":752,"ies":753,"ystem":754,"ĠR":755,"ĠIOException":756,"ector":757,"ric":758,"vent":759,"link":760,"lust":761,"TE":762,"let":763,"fs":764,"Ġtrue":765,"luster":766,"ated":767,"0000":768,"ken":769,">>":770,"nds":771,"proto":772,"arn":773,"ax":774,"ĠF":775,"ĠLOG":776,"yn":777,"hbase":778,"Region":779,"tt":780,"Ġexte":781,"nection":782,"Store":783,"hod":784,"size":785,"tected":786,"Th":787,"Ġse":788,"table":789,"Ġbu":790,"create":791,"Ġvalue":792,"ilter":793,"Ġprotected":794,"Job":795,"Utils":796,"len":797,"Exec":798,"if":799,"Po":800,"plication":801,"fault":802,"comp":803,"Ġtry":804,"are":805,"Task":806,"Client":807,"Ġarg":808,"Colle":809,"pression":810,"Ġ&&":811,"\")":812,"ĠĠĠĠĠĠĠĠ":813,"ror":814,"ner":815,"ery":816,"Propert":817,"Output":818,"Ġextends":819,"Qu":820,"Array":821,"Oper":822,"Ġcreate":823,"ssion":824,"Inter":825,"Endpoint":826,"rans":827,"Null":828,"Loc":829,"ĠV":830,"value":831,"Ġresult":832,"ag":833,"her":834,"this":835,"onent":836,"ail":837,"om":838,"lement":839,"sum":840,"ptor":841,"DE":842,"nal":843,"Ap":844,"Ġcatch":845,"es":846,"ormat":847,"Server":848,"\";":849,"ft":850,"Of":851,"ener":852,"OR":853,"Ġbyte":854,"rap":855,"Container":856,"length":857,"Row":858,"flink":859,"Descri":860,"ĠGrid":861,"port":862,"ip":863,"comm":864,"gist":865,"With":866,"ork":867,"AR":868,"Partition":869,"Event":870,"ssert":871,"mpl":872,"02":873,"pected":874,"Resource":875,"Response":876,"uper":877,"He":878,"uple":879,"ackage":880,"Ġ2":881,"For":882,"current":883,"ost":884,"Ġu":885,"Entry":886,"Ġg":887,"Wri":888,"ĠMap":889,"ay":890,"Index":891,"Record":892,"pend":893,"Group":894,"Result":895,"Sche":896,"Expression":897,"Ġa":898,"ql":899,"Not":900,"ber":901,"Hand":902,"Collection":903,"unction":904,"ĠU":905,"NA":906,"write":907,"buf":908,"Be":909,"Ġ(!":910,"rics":911,"Ġname":912,"ig":913,"ary":914,"Que":915,"Ġthe":916,"Pre":917,"Ġtable":918,"Block":919,"<>":920,"Long":921,"Queue":922,"ĠFile":923,"op":924,"SE":925,"Add":926,"Ġmet":927,"Ġpackage":928,"Ġ?":929,"ma":930,"Connection":931,"action":932,"Ġser":933,"ĠArray":934,"Ġcol":935,"ler":936,"son":937,"ializer":938,"Dir":939,"Ġconf":940,"ĠO":941,"unit":942,"Num":943,"Ġme":944,"lose":945,"AC":946,"ign":947,"date":948,"type":949,"Status":950,"Param":951,"Method":952,"Descriptor":953,"irect":954,"file":955,"sumer":956,"And":957,"met":958,"cache":959,"Meta":960,"Conf":961,"untime":962,"True":963,"toString":964,"Mem":965,"ifi":966,"Ar":967,"ource":968,"append":969,"Ġfile":970,"af":971,"pre":972,"own":973,"terator":974,"stant":975,"start":976,"ker":977,"uture":978,"annel":979,"<?":980,"Ġ_":981,"FI":982,"ution":983,"Ġcomp":984,"++":985,"Instance":986,"Ġlog":987,"TA":988,"Ġ|":989,"Ġsuper":990,"ke":991,"Ġconfig":992,"cer":993,"On":994,"ignite":995,"Exchange":996,"Ac":997,"Token":998,"of":999,"mpty":1000,"Ver":1001,"Check":1002,"ttp":1003,"Ġcache":1004,"Ġtype":1005,"KE":1006,"move":1007,"line":1008,"Query":1009,"common":1010,"Comm":1011,"amil":1012,"RI":1013,"lan":1014,"ou":1015,"pic":1016,"TION":1017,"equals":1018,"protobuf":1019,"ly":1020,"junit":1021,"ersion":1022,"Ġout":1023,"Sup":1024,"Base":1025,"Ġcase":1026,"form":1027,"ument":1028,"Format":1029,"inter":1030,"ĠAssert":1031,"ateg":1032,"FA":1033,"null":1034,"lect":1035,"RO":1036,"ool":1037,"bug":1038,"Hel":1039,"Ġnot":1040,"Ġ>":1041,"Ġnode":1042,"nap":1043,"stract":1044,"ody":1045,"info":1046,"Up":1047,"SI":1048,"Ġdo":1049,"ffset":1050,"Version":1051,"Ġinstance":1052,"Sh":1053,"Ġadd":1054,"ep":1055,"eter":1056,"Filter":1057,"NAME":1058,"gener":1059,"conf":1060,"min":1061,"UL":1062,"temp":1063,"tr":1064,"ĠJ":1065,"hive":1066,"ync":1067,"ĠIgnite":1068,"iter":1069,"ill":1070,"ĠN":1071,"space":1072,"Logger":1073,"api":1074,"adata":1075,"shot":1076,"abled":1077,"amily":1078,"napshot":1079,"ink":1080,"uble":1081,"uct":1082,"tx":1083,"Ġdata":1084,"Ġinput":1085,"Arg":1086,"Constant":1087,"Al":1088,"Ġnum":1089,"UT":1090,"Ġch":1091,"Er":1092,"Cluster":1093,"rift":1094,"vo":1095,"Or":1096,"ducer":1097,"\"));":1098,"Le":1099,"aster":1100,"LI":1101,"Handler":1102,"Processor":1103,"getName":1104,"ĠW":1105,"System":1106,"Property":1107,"Ġcheck":1108,"000":1109,"NT":1110,"Ġbe":1111,"From":1112,"par":1113,"Option":1114,"((":1115,"final":1116,"dul":1117,"ĠInteger":1118,"utor":1119,"true":1120,"local":1121,"Function":1122,"code":1123,"CON":1124,"mple":1125,"Protos":1126,"Code":1127,"Default":1128,"tex":1129,"Local":1130,"ĠArrayList":1131,"Grid":1132,"Ġver":1133,"Call":1134,"Ġcom":1135,"server":1136,"MA":1137,"load":1138,"ashMap":1139,"All":1140,"Ġrow":1141,"Execution":1142,"--":1143,"oin":1144,"print":1145,"LO":1146,"Ġen":1147,"CO":1148,"Address":1149,"Error":1150,"Per":1151,"be":1152,"Ġtime":1153,"stamp":1154,"Sc":1155,"Ġ||":1156,"oute":1157,"ribu":1158,"ify":1159,"ized":1160,"ml":1161,"node":1162,"lements":1163,"Ġfrom":1164,"arget":1165,"mock":1166,"Thread":1167,"raph":1168,"ĠClass":1169,"sion":1170,"Helper":1171,"TY":1172,"ĠSystem":1173,"Ġsh":1174,"ine":1175,"ht":1176,"CE":1177,"ree":1178,"sg":1179,"Future":1180,"app":1181,"Operator":1182,"UE":1183,"As":1184,"result":1185,"Ġstart":1186,"KEY":1187,"ĠTh":1188,"roker":1189,"ĠassertTrue":1190,"ĠTest":1191,"User":1192,"iled":1193,"Constants":1194,"Operation":1195,"Ġinstanceof":1196,"Ġ3":1197,"plit":1198,"Ġval":1199,"error":1200,"stream":1201,"Reader":1202,"use":1203,"thrift":1204,"byte":1205,"Mode":1206,"ategy":1207,"Regist":1208,"Ġexchange":1209,"next":1210,"config":1211,"Iterator":1212,"Ġjob":1213,"At":1214,"Metrics":1215,"Camel":1216,"Ġpre":1217,"lot":1218,"HE":1219,"Ġ((":1220,"here":1221,"gle":1222,"cket":1223,"AD":1224,"Ġ{}":1225,"ound":1226,"ak":1227,"ĠPath":1228,"ĠE":1229,"leg":1230,"Memory":1231,"SS":1232,"Serializer":1233,"ByteBuffer":1234,"10":1235,"Lock":1236,"orage":1237,"ĠLong":1238,"Sub":1239,"Enabled":1240,"PE":1241,"work":1242,"AT":1243,"low":1244,"Properties":1245,"Ġon":1246,"Tr":1247,"Ġ'":1248,"Header":1249,"ING":1250,"licy":1251,"pen":1252,"oogle":1253,"Len":1254,"air":1255,"ĠK":1256,"end":1257,"ka":1258,"back":1259,"indow":1260,"fin":1261,"ifier":1262,"\").":1263,"AN":1264,"tempt":1265,"12":1266,"queue":1267,"Ġcontext":1268,"Read":1269,"Trans":1270,"data":1271,"Ġof":1272,"Component":1273,"Source":1274,"Mock":1275,"Ġmessage":1276,"gre":1277,"ait":1278,"IOException":1279,"valid":1280,"Consumer":1281,"Dis":1282,"ĠCollection":1283,"duler":1284,"++)":1285,"debug":1286,"Par":1287,"dent":1288,"Ġcolumn":1289,"InputStream":1290,"Empty":1291,"BLE":1292,"ust":1293,"uri":1294,"google":1295,"old":1296,"Ġclient":1297,"Tuple":1298,"uld":1299,"ULT":1300,"orted":1301,"pc":1302,"Ġstate":1303,"Run":1304,"hen":1305,"tains":1306,"Keys":1307,"Writer":1308,"arent":1309,"Ġwh":1310,"list":1311,"Fields":1312,"bstract":1313,"Ġk":1314,"led":1315,"store":1316,"MP":1317,"eters":1318,"=\"":1319,"Get":1320,"has":1321,"delet":1322,"processor":1323,"db":1324,"greg":1325,"reak":1326,"ailed":1327,"Strategy":1328,"map":1329,"By":1330,"ĠSer":1331,"py":1332,"Body":1333,"Ġtask":1334,"check":1335,"os":1336,"false":1337,"()));":1338,"Env":1339,"uth":1340,"fer":1341,"Ġfield":1342,"Family":1343,"ations":1344,"Start":1345,"Ġimplements":1346,"Channel":1347,"Executor":1348,"Protocol":1349,"ov":1350,"Ġan":1351,"FAULT":1352,"ard":1353,"active":1354,"protocol":1355,"assertEquals":1356,"Number":1357,"ato":1358,"sphere":1359,"Port":1360,"\"),":1361,"client":1362,"Ġbreak":1363,"atosphere":1364,"Ġexpected":1365,"Ġid":1366,"Ġal":1367,"Ġmap":1368,"stratosphere":1369,"duce":1370,"ĠTime":1371,"SER":1372,"ouble":1373,"Ġstr":1374,"lete":1375,"Ġeu":1376,"Ġregion":1377,"Ġread":1378,"ider":1379,"prot":1380,"Ġmax":1381,"zone":1382,"ron":1383,"ib":1384,"mit":1385,"Application":1386,"close":1387,"arator":1388,"Uri":1389,"Vertex":1390,"generated":1391,"fg":1392,"Bean":1393,"other":1394,"roov":1395,"roovy":1396,"ms":1397,"ccess":1398,"Ġexec":1399,"gr":1400,"03":1401,"UID":1402,"afka":1403,"iron":1404,"time":1405,"cover":1406,"gment":1407,"ironment":1408,"Gener":1409,"rc":1410,"runtime":1411,"GE":1412,"fix":1413,".*":1414,"query":1415,"rig":1416,"ded":1417,"];":1418,"01":1419,"FS":1420,"ication":1421,"update":1422,"exec":1423,"vel":1424,"Unit":1425,"ATE":1426,"task":1427,"mi":1428,"sol":1429,"Val":1430,"contains":1431,"Metadata":1432,"ence":1433,"nce":1434,"Registry":1435,"Ġwhile":1436,"Types":1437,"Timeout":1438,"face":1439,"abel":1440,"//":1441,"iver":1442,"Ġrequest":1443,"MI":1444,"lob":1445,"Route":1446,"Policy":1447,"input":1448,"der":1449,"Ignite":1450,"component":1451,"Ġro":1452,"ln":1453,"Storage":1454,"stin":1455,"Ġsc":1456,"vider":1457,"Ġentry":1458,"ĠInt":1459,"<>(":1460,"ĠData":1461,".\");":1462,"Sec":1463,"Impl":1464,"expected":1465,"Writable":1466,"yarn":1467,"Ġlist":1468,"Ġ\",":1469,"internal":1470,"App":1471,"ZE":1472,"andra":1473,"ĠComp":1474,"assandra":1475,"Argument":1476,"ĠIn":1477,"annot":1478,"Ġinter":1479,"Ġpath":1480,"getValue":1481,"Ġoutput":1482,"println":1483,"ings":1484,"ould":1485,"KeyValue":1486,"tern":1487,"ribute":1488,"Schema":1489,"Out":1490,"Master":1491,"net":1492,"icate":1493,"path":1494,"andom":1495,"Next":1496,"UM":1497,"Command":1498,">();":1499,"Snapshot":1500,"build":1501,"Ġwrite":1502,"mplate":1503,"Write":1504,"ari":1505,"delete":1506,"Ġuser":1507,"Pool":1508,"Desc":1509,"rup":1510,"column":1511,"az":1512,"sub":1513,"()).":1514,".*;":1515,"OutputStream":1516,">(":1517,"ynch":1518,"<>();":1519,"Attempt":1520,"Names":1521,"stination":1522,"Ent":1523,"Sp":1524,"\\\":":1525,"NO":1526,"ynchron":1527,"su":1528,"iew":1529,"oot":1530,"Boolean":1531,"Ġparam":1532,"cy":1533,"Ġ%":1534,"Ġ4":1535,"tro":1536,"Ġcurrent":1537,"Su":1538,"job":1539,"Vector":1540,"inary":1541,"attern":1542,"Session":1543,"LA":1544,"ĠJob":1545,"Length":1546,"eld":1547,"VAL":1548,"://":1549,"count":1550,"field":1551,"mote":1552,"ialize":1553,"Ġrun":1554,"urity":1555,"Ġindex":1556,"imple":1557,"Environment":1558,"TER":1559,"grid":1560,"Ġbuilder":1561,"Ġdefault":1562,"river":1563,"Ġsche":1564,"aw":1565,"legal":1566,"direct":1567,"ocket":1568,"\\\\":1569,"ctx":1570,"ell":1571,"llegal":1572,"atcher":1573,"11":1574,"<?>":1575,"Ġpartition":1576,"ĠSet":1577,"Listener":1578,"tom":1579,"Ġ5":1580,"CT":1581,"ark":1582,"ds":1583,"irst":1584,"Spec":1585,"clu":1586,"lang":1587,"Provider":1588,"Topic":1589,"Dec":1590,"anner":1591,"ply":1592,"spector":1593,"finition":1594,"context":1595,"sed":1596,"ent":1597,"cassandra":1598,"No":1599,"java":1600,"Options":1601,"remove":1602,"022":1603,"Ġsize":1604,"UR":1605,"fore":1606,"OP":1607,"arsh":1608,"ĠType":1609,"Ġun":1610,"Max":1611,"ĠHashMap":1612,"ĠMock":1613,"Ġhe":1614,"user":1615,"Split":1616,"ĠStream":1617,"ported":1618,"ee":1619,"Ġcount":1620,"SIZE":1621,"Ġsub":1622,"lume":1623,"Offset":1624,"Ġinit":1625,"Location":1626,"ps":1627,"SC":1628,"dition":1629,"Support":1630,"Update":1631,"ave":1632,"NotNull":1633,"Conver":1634,"mission":1635,"record":1636,"Slot":1637,"Ġfs":1638,"rame":1639,"Producer":1640,"ĠThread":1641,"Ġret":1642,"ĠConfiguration":1643,"Range":1644,"ĠCache":1645,"long":1646,"anage":1647,"host":1648,"tomic":1649,"Ġserver":1650,"riter":1651,"Pos":1652,"formation":1653,"Graph":1654,"isEmpty":1655,"Direct":1656,"cre":1657,"ause":1658,"Att":1659,"Ġbuffer":1660,"index":1661,"format":1662,"Conn":1663,"DI":1664,"partition":1665,"Loader":1666,"wer":1667,"Ġcall":1668,"Ġwith":1669,"ĠTable":1670,"Ġat":1671,"bl":1672,"quire":1673,"sure":1674,"sl":1675,"ped":1676,"param":1677,"ics":1678,"ĠHive":1679,"Ġendpoint":1680,"for":1681,"Access":1682,"Del":1683,"ctor":1684,"ret":1685,"entry":1686,"VE":1687,"dfs":1688,"Host":1689,"Ġargs":1690,"concurrent":1691,"Ġmock":1692,"Ġpar":1693,"Ġctx":1694,"dicate":1695,"ule":1696,"Ġcontainer":1697,"state":1698,"Ass":1699,"getKey":1700,"mq":1701,"Ġjavax":1702,"Stats":1703,"gister":1704,"Ġcluster":1705,"ceive":1706,"ook":1707,"gin":1708,"Ġ->":1709,"Ġblock":1710,"Is":1711,"Ġle":1712,"Ġpart":1713,"xy":1714,"..":1715,"region":1716,"Definition":1717,"Files":1718,"Batch":1719,"Ġ)":1720,"Ġlast":1721,"Dat":1722,"Failed":1723,"ggreg":1724,"getC":1725,"Work":1726,"location":1727,"cl":1728,"Tx":1729,"preter":1730,"Nodes":1731,"Ġte":1732,"getClass":1733,"Ġstream":1734,"ynchronized":1735,"isit":1736,"ries":1737,"covery":1738,"ialized":1739,"Ret":1740,"Ġab":1741,"message":1742,"tent":1743,"Text":1744,"DEFAULT":1745,"ared":1746,"run":1747,"sent":1748,"Te":1749,"ctive":1750,"Timestamp":1751,"Ġrecord":1752,"erge":1753,"ransp":1754,"Ġsb":1755,"==":1756,"QL":1757,"Ġresponse":1758,"ĠInter":1759,"lush":1760,"VER":1761,"sche":1762,"ĠĠĠĠĠĠ":1763,"num":1764,"Inspector":1765,"args":1766,"TYPE":1767,"},":1768,"Json":1769,"ĠTuple":1770,"Ġtrans":1771,"ATION":1772,")));":1773,"Load":1774,"Ġstore":1775,"ransport":1776,"ĠResource":1777,"Join":1778,"ĠIllegal":1779,"scription":1780,"parse":1781,"Ġapp":1782,"rowable":1783,"ced":1784,"lear":1785,"my":1786,"lis":1787,"OL":1788,"Return":1789,"imit":1790,"CamelContext":1791,"fter":1792,"Ġsynchronized":1793,"ference":1794,"getMessage":1795,"ĠUn":1796,"ĠMessage":1797,"rupted":1798,"Fail":1799,"Ġrm":1800,"UN":1801,"pos":1802,"ility":1803,"TH":1804,"Part":1805,"Level":1806,"ud":1807,"Element":1808,"http":1809,"upported":1810,"Ġqueue":1811,"Parameters":1812,"MetaData":1813,"Process":1814,"Gate":1815,"Ġres":1816,"Ġac":1817,"service":1818,"Page":1819,"olume":1820,"Internal":1821,"Ġ\\":1822,"Socket":1823,"valueOf":1824,"Pri":1825,"with":1826,"ito":1827,"Ġ};":1828,"Hive":1829,"RM":1830,"atal":1831,"ol":1832,"conn":1833,"abase":1834,"Assign":1835,"ĠBytes":1836,"Ġ});":1837,"Back":1838,"ĠByteBuffer":1839,"down":1840,"Ġconnection":1841,"MS":1842,"View":1843,"Ġcomm":1844,"quence":1845,"not":1846,"Mo":1847,"Mill":1848,"otal":1849,"\"))":1850,"Assert":1851,"Metric":1852,"STR":1853,"TIME":1854,"polog":1855,"Init":1856,"com":1857,"gfs":1858,"request":1859,"max":1860,"Window":1861,"Ġprocess":1862,"ĠtableName":1863,"Attribute":1864,"activemq":1865,"send":1866,"aders":1867,"Ġmethod":1868,"Async":1869,"ĠAbstract":1870,"Ġconn":1871,"ipe":1872,"Nullable":1873,"pology":1874,"Comparator":1875,"Statement":1876,"utable":1877,"Op":1878,"eb":1879,"Cell":1880,"ĠĠĠĠĠ":1881,"FF":1882,"Yarn":1883,"xml":1884,"Checkpoint":1885,"Ġfail":1886,"arch":1887,"tract":1888,"dir":1889,"Ġfilter":1890,"init":1891,"Converter":1892,"Counter":1893,"HashMap":1894,"swer":1895,"ject":1896,"cedure":1897,"Ġtarget":1898,"Ġconfiguration":1899,"Ġap":1900,"ONE":1901,"loat":1902,"Plan":1903,"anode":1904,"],":1905,"Action":1906,"Ġfinally":1907,"Mult":1908,"Ġhas":1909,"UP":1910,"()))":1911,"ten":1912,"Ġshould":1913,"sec":1914,"ual":1915,"qual":1916,"Create":1917,"og":1918,"ĠGridCache":1919,"Interface":1920,"DB":1921,"ller":1922,"resource":1923,"32":1924,"ceiver":1925,"Ġnext":1926,"lector":1927,"ĠLog":1928,"utdown":1929,"Directory":1930,"Ġcl":1931,"apac":1932,"ample":1933,"sing":1934,"Delete":1935,"001":1936,"LOG":1937,"MQ":1938,"Ġor":1939,"ater":1940,"PAR":1941,"getIn":1942,"Case":1943,"Ġmsg":1944,"ByteArray":1945,"ĠCon":1946,"Hash":1947,"losure":1948,"Collector":1949,"Ġmem":1950,"mem":1951,"Information":1952,"].":1953,"Ġ+=":1954,"CH":1955,"ha":1956,"OUT":1957,"VALUE":1958,"dis":1959,"ĠColumn":1960,"End":1961,"LOC":1962,"Aggreg":1963,"kip":1964,"TypeInfo":1965,"AP":1966,"ities":1967,"troller":1968,"ification":1969,"FileSystem":1970,"ustom":1971,"Pair":1972,"Report":1973,"Scheduler":1974,"Ġsource":1975,"idate":1976,"ring":1977,"024":1978,"cluster":1979,"ĠĠĠĠĠĠĠĠĠĠĠĠĠĠĠĠ":1980,"stat":1981,"Bucket":1982,"ging":1983,"Before":1984,"ach":1985,"Min":1986,"ĠBoolean":1987,"Warn":1988,"Ġ10":1989,"Var":1990,"MAX":1991,"Ġupdate":1992,"Http":1993,"Millis":1994,"ists":1995,"ramework":1996,"Aut":1997,"foo":1998,"Ġinfo":1999,"SH":2000,"alle":2001,"Replication":2002,"acker":2003,"nown":2004,"voke":2005,"Ġverify":2006,"Char":2007,"ĠCamel":2008,"kafka":2009,"ning":2010,"False":2011,"md":2012,"apacity":2013,"Ġand":2014,"Ġsu":2015,"shad":2016,"RegionInfo":2017,"trans":2018,"from":2019,"assign":2020,"cp":2021,"configuration":2022,"warn":2023,"Expr":2024,"TableName":2025,"shaded":2026,"container":2027,"Struct":2028,"TABLE":2029,"Ġcf":2030,"ialization":2031,"ote":2032,"inked":2033,"atalog":2034,"ative":2035,"sTo":2036,"ority":2037,"ping":2038,"spring":2039,"eer":2040,"unk":2041,"Ġtx":2042,"apter":2043,"Ġas":2044,"Ġresource":2045,"Ġoper":2046,"ArgumentException":2047,"Broker":2048,"Destination":2049,"sist":2050,"Ed":2051,"Ġ6":2052,"ĠTask":2053,"[]{":2054,"older":2055,"Ġother":2056,"Ref":2057,"URI":2058,"Ġthat":2059,"valu":2060,"string":2061,"Ġ[":2062,"Child":2063,"PER":2064,"Ġz":2065,"ĠCollections":2066,"word":2067,"Order":2068,"ptions":2069,"]);":2070,"Ġstruct":2071,"Ġdel":2072,"Suppress":2073,"wit":2074,"Ġdb":2075,"lem":2076,"Ġexception":2077,"----":2078,"Ġold":2079,"Ġdis":2080,"Parser":2081,"ĠLogger":2082,"crement":2083,"Line":2084,"ature":2085,"Ġq":2086,".\",":2087,"Down":2088,"Ġpropert":2089,"Segment":2090,"boolean":2091,"Ġ\"/":2092,"instance":2093,"Ġenv":2094,"Ġsession":2095,"leep":2096,")).":2097,"Label":2098,"Procedure":2099,"ceived":2100,"Ġlocal":2101,"Ġoffset":2102,"etch":2103,"Ġabstract":2104,"DS":2105,"Ident":2106,"exchange":2107,"mary":2108,"cur":2109,"Abstract":2110,"part":2111,"Ġerror":2112,"Ġtemplate":2113,"ĠZ":2114,"Predicate":2115,"Rpc":2116,"Sink":2117,"TR":2118,"ĠDE":2119,"Ġ);":2120,"framework":2121,"Invalid":2122,"istics":2123,"Prefix":2124,"ruptedException":2125,"clude":2126,"Tag":2127,"Warnings":2128,"group":2129,"Ġdouble":2130,"atche":2131,"ipeline":2132,"oc":2133,"manager":2134,"NE":2135,"Parameter":2136,"Ġtoken":2137,"utation":2138,"Transaction":2139,"TO":2140,"ArrayList":2141,"getA":2142,"Entity":2143,"Wrap":2144,"filter":2145,"Xml":2146,"serv":2147,"iterator":2148,"array":2149,"MockEndpoint":2150,"ObjectInspector":2151,"SuppressWarnings":2152,"tin":2153,"commons":2154,"getS":2155,"ression":2156,"Change":2157,"lection":2158,"()),":2159,"Binary":2160,"Ġput":2161,"Ġwriter":2162,"Ġreader":2163,"compare":2164,"Ġmeta":2165,"99":2166,"ake":2167,"Ġio":2168,"assertTrue":2169,"leted":2170,"QU":2171,"struct":2172,"Pattern":2173,"topic":2174,"last":2175,"HBase":2176,"Admin":2177,"solve":2178,"STable":2179,"14":2180,"Values":2181,"Root":2182,"itSet":2183,"ending":2184,"Ctx":2185,"buffer":2186,"Handle":2187,"ĠKey":2188,"Cnt":2189,"eg":2190,"UUID":2191,"default":2192,"PRE":2193,"Scanner":2194,"20":2195,"FILE":2196,"IO":2197,"Adapter":2198,"Ġ>=":2199,"getType":2200,"Proxy":2201,"Tree":2202,"If":2203,"Ġevent":2204,">()":2205,"16":2206,"asList":2207,"untimeException":2208,"Reference":2209,"tableName":2210,"builder":2211,"Stop":2212,"processors":2213,"Ġmin":2214,"ear":2215,"tainers":2216,"groovy":2217,"Trace":2218,"Valid":2219,"Ġconsumer":2220,"Ġbatch":2221,"Ġent":2222,"eeper":2223,"token":2224,"izer":2225,"Ġend":2226,"imal":2227,"edException":2228,"tem":2229,"Iter":2230,"Non":2231,"getBytes":2232,"lobal":2233,"url":2234,"Ġanswer":2235,"ding":2236,"ACHE":2237,"ical":2238,"EL":2239,"Namespace":2240,"Ġsend":2241,"Ġquery":2242,"ĠSche":2243,"Double":2244,"iv":2245,"ĠSe":2246,"iss":2247,"Ġhand":2248,"Ġ{}\",":2249,"ĠCh":2250,"sor":2251,"After":2252,"elem":2253,"oper":2254,"Ġremove":2255,"rigger":2256,"ĠAp":2257,"Ġit":2258,"DA":2259,"main":2260,"Mod":2261,"ĠContainer":2262,"ier":2263,"serializer":2264,"prec":2265,"PRO":2266,"ren":2267,"Found":2268,"Fs":2269,"hent":2270,"rint":2271,"Ġgroup":2272,"istribu":2273,"success":2274,"ored":2275,"cell":2276,"way":2277,"ĠKeyValue":2278,"place":2279,"ĠExecution":2280,"15":2281,"ĠĠĠ":2282,"An":2283,"execute":2284,"vert":2285,"ctiveMQ":2286,"ization":2287,"toBytes":2288,"values":2289,"Permission":2290,"getP":2291,"anagement":2292,"lease":2293,"Ġbytes":2294,"DFS":2295,"AGE":2296,"mb":2297,"AM":2298,"Position":2299,"Ġiter":2300,"localhost":2301,"00000000":2302,"ĠDefault":2303,"hed":2304,"13":2305,"call":2306,"Commit":2307,"CheckedException":2308,"security":2309,"Ġad":2310,"metrics":2311,"ĠAtomic":2312,"Ġhash":2313,"inis":2314,"Auth":2315,"red":2316,"med":2317,"ffin":2318,"ffinity":2319,"process":2320,"Ġbuf":2321,"\\\",":2322,"030":2323,"ified":2324,"New":2325,"Ġ\\\"":2326,"(_":2327,">,":2328,"Statistics":2329,"output":2330,"AST":2331,"serialize":2332,"wait":2333,"Callback":2334,"Ġop":2335,"Debug":2336,"Testing":2337,"mitive":2338,"ĠIllegalArgumentException":2339,"err":2340,"ability":2341,"Ġpage":2342,"EX":2343,"Tasks":2344,"ingle":2345,"locate":2346,"itField":2347,"Ġ/":2348,"Ġsplit":2349,"Av":2350,"Close":2351,"known":2352,"assword":2353,"lit":2354,"EN":2355,"Ġfirst":2356,"imum":2357,"ible":2358,"Ġconfigure":2359,"\".":2360,"resh":2361,"Wrapper":2362,"Ġversion":2363,"cc":2364,"inc":2365,"rl":2366,"Identifier":2367,"LOW":2368,"Ġclose":2369,"rou":2370,"Interval":2371,"right":2372,"MIL":2373,"Tracker":2374,"SP":2375,"bo":2376,"ota":2377,"ĠRoute":2378,"hasNext":2379,"Ġwhen":2380,"Sequence":2381,"READ":2382,"Args":2383,"Ġper":2384,"sWith":2385,"atis":2386,"register":2387,"adoop":2388,"supported":2389,"astore":2390,"dat":2391,"TestSupport":2392,"Ġservice":2393,"ĠBuilder":2394,"ting":2395,"block":2396,"Last":2397,"solver":2398,"actor":2399,"slf":2400,"Ġ{@":2401,"empty":2402,"EST":2403,"imer":2404,"Ids":2405,"witch":2406,"Description":2407,"Sql":2408,"ant":2409,"Cl":2410,"clear":2411,"streaming":2412,"Date":2413,"ĠPact":2414,":\"":2415,"Regions":2416,"ight":2417,"getConfiguration":2418,"gnore":2419,"split":2420,"Spi":2421,"letion":2422,"Keeper":2423,"Ġiprot":2424,"Volume":2425,"</":2426,"SION":2427,"First":2428,"Ġall":2429,"endpoint":2430,"ĠHash":2431,"Connector":2432,"allelis":2433,"TIL":2434,"_.":2435,"allelism":2436,"Rows":2437,"open":2438,"Ġparent":2439,"cf":2440,"target":2441,"dbc":2442,"Ġnumber":2443,"annotation":2444,"Url":2445,"Ġ\".":2446,"URL":2447,"Partitions":2448,"stable":2449,"haus":2450,"Ġx":2451,"ializable":2452,"pact":2453,"});":2454,"codehaus":2455,"Ġ++":2456,"Ġlock":2457,"copy":2458,"Ġcfg":2459,"Ġtopic":2460,"Ġcur":2461,"currentTime":2462,"ia":2463,"ĠArrays":2464,"Limit":2465,"Ġvalues":2466,"Ġexp":2467,"Ġup":2468,"stop":2469,"aggreg":2470,"Ġobject":2471,"CACHE":2472,"(\\":2473,"34":2474,"ide":2475,"Pact":2476,"ariable":2477,"Ġmetrics":2478,"Invo":2479,"ĠPre":2480,"gram":2481,"utils":2482,"Columns":2483,"Failure":2484,"Arrays":2485,"jo":2486,"Compaction":2487,"Ġlogger":2488,"afe":2489,"IT":2490,"SECON":2491,"Scan":2492,"Ġchild":2493,"++;":2494,"ĠSQL":2495,"Ġtotal":2496,"Ġparse":2497,"ED":2498,"hdfs":2499,"ix":2500,"arshall":2501,"cope":2502,"rop":2503,"ĠTo":2504,"sql":2505,"Ġport":2506,"WAL":2507,"Ġcamel":2508,"Ġpo":2509,"ĠBitSet":2510,"Cre":2511,"Enum":2512,"ĠTEST":2513,"FIX":2514,"arshal":2515,"ORT":2516,"Ġdelete":2517,"then":2518,"Exp":2519,"Ġexecute":2520,"BU":2521,"Ġbroker":2522,"Match":2523,"gress":2524,"Reduce":2525,"Ġtmp":2526,"Ġuse":2527,"Ġlength":2528,"Ġcomponent":2529,"gain":2530,"sleep":2531,"quired":2532,"Ġ8":2533,"uid":2534,"present":2535,"leton":2536,"17":2537,"condition":2538,"Ġtimeout":2539,"LIC":2540,"Interpreter":2541,"Point":2542,"ĠNode":2543,"ĠDEFAULT":2544,"ĠExchange":2545,"Driver":2546,"Ġhost":2547,"ating":2548,"collect":2549,"64":2550,"Ġfind":2551,"mt":2552,"Rule":2553,"18":2554,"cast":2555,"',":2556,"pare":2557,"DIR":2558,"bean":2559,"Ġstop":2560,"Put":2561,"ColumnFamily":2562,"ĠassertNotNull":2563,"getRe":2564,"SK":2565,"Mapper":2566,"Ġoprot":2567,"Send":2568,"19":2569,"Stack":2570,"ĠGener":2571,"object":2572,"Stand":2573,"Ġthread":2574,"fir":2575,"ĠStringBuilder":2576,"etwork":2577,"bytes":2578,"COL":2579,"The":2580,"wrap":2581,"Deleg":2582,"iction":2583,"ozone":2584,"TestUtils":2585,"parent":2586,"CRE":2587,"ĠassertFalse":2588,"impl":2589,"Target":2590,"precated":2591,"Quota":2592,"TableDescriptor":2593,"coding":2594,"rs":2595,"Ġ\"\\":2596,"DebugEnabled":2597,"Ġload":2598,"located":2599,"cept":2600,"Ġtbl":2601,"newInstance":2602,"PO":2603,"etty":2604,"core":2605,"lugin":2606,"){":2607,"ĠDouble":2608,"gridgain":2609,"mark":2610,"Acl":2611,"ency":2612,"Ġ1000":2613,"ĠText":2614,"Containers":2615,"ess":2616,"sage":2617,"Ġchar":2618,"Ġ100":2619,"currentTimeMillis":2620,"ĠRuntimeException":2621,"isDebugEnabled":2622,"hand":2623,"QUE":2624,"Ġ<=":2625,"hash":2626,"Ġpos":2627,"entrySet":2628,"GridCache":2629,"Replic":2630,"56":2631,"STRING":2632,"Msg":2633,"wner":2634,"ĠProcessor":2635,"Pl":2636,"Collections":2637,"lap":2638,"(\"/":2639,"nable":2640,"isSet":2641,"Only":2642,"ĠĠĠĠĠĠĠĠĠ":2643,"event":2644,"IC":2645,"Ġprev":2646,"Det":2647,"Remove":2648,"ĠIterator":2649,"fail":2650,"ĠLinked":2651,"Generator":2652,"loy":2653,"ĠThrowable":2654,"records":2655,"Ġfailed":2656,"FO":2657,"NotFound":2658,"alc":2659,"model":2660,"TEST":2661,"lag":2662,"Records":2663,"22":2664,"Vis":2665,"RouteBuilder":2666,"Ġtimestamp":2667,"Services":2668,"Messages":2669,"maining":2670,">)":2671,"sync":2672,"Db":2673,"Latch":2674,"Ġuri":2675,"etAddress":2676,"sistency":2677,"Ġpri":2678,"50":2679,"000000":2680,"Atomic":2681,"Transport":2682,"Topology":2683,"ancel":2684,"servation":2685,"ĠBlock":2686,"Template":2687,"ooKeeper":2688,"100":2689,"OT":2690,"Ms":2691,"src":2692,"Ġproducer":2693,"method":2694,"Ġroot":2695,"plier":2696,"rie":2697,"YTE":2698,"Ġ1024":2699,"connect":2700,"Heap":2701,"ĠRE":2702,"ummy":2703,"SECONDS":2704,"Open":2705,"park":2706,"Ġby":2707,"command":2708,"logging":2709,"lice":2710,"Ġreq":2711,"Obj":2712,"meta":2713,"any":2714,"InputFormat":2715,"pring":2716,"ĠRouteBuilder":2717,"ENT":2718,"Peer":2719,"Ġsrc":2720,"Secon":2721,"{}":2722,"Ġswitch":2723,"MO":2724,"Avail":2725,"Usage":2726,"ĠIN":2727,"Ġbody":2728,"Ġobj":2729,"INT":2730,"ABLE":2731,"propert":2732,"Hadoop":2733,"Ġbucket":2734,"Controller":2735,"Rest":2736,"Resolver":2737,"patcher":2738,"ĠTimeUnit":2739,"ĠMeta":2740,"ĠUser":2741,"ynam":2742,"Headers":2743,"spi":2744,"Ġparameters":2745,"version":2746,"thenReturn":2747,"Cfg":2748,"Ġignite":2749,"ploy":2750,"tinue":2751,"anaged":2752,"Ġoptions":2753,"NotFoundException":2754,"order":2755,"inding":2756,"ĠIgniteCheckedException":2757,"Ġtr":2758,"0000000":2759,"ĠHashSet":2760,"eper":2761,"msg":2762,"Edge":2763,"Aud":2764,"actual":2765,"Ozone":2766,"DO":2767,"ĠRow":2768,"ĠInterruptedException":2769,"Item":2770,"ref":2771,"ELD":2772,"FIG":2773,"trace":2774,"Model":2775,"sert":2776,"ncy":2777,"join":2778,"Ġbuild":2779,"env":2780,"ĠRM":2781,"ExecutorService":2782,"**":2783,"Condition":2784,"30":2785,"Content":2786,"RA":2787,"ĠRecord":2788,"Ġ},":2789,"short":2790,"ilege":2791,"rivilege":2792,"pelin":2793,"keeper":2794,"eppelin":2795,"solu":2796,"getId":2797,"TT":2798,"first":2799,"arshaller":2800,"Ġss":2801,"hentication":2802,"Flush":2803,"Resources":2804,"Exten":2805,"Ġprocessor":2806,"Opt":2807,"lf":2808,"ns":2809,"jms":2810,"Ġbase":2811,"Ġsnapshot":2812,"Ġroute":2813,"vector":2814,"getPath":2815,"Ġloc":2816,"Copy":2817,"NUM":2818,"ephe":2819,"Gateway":2820,"Idx":2821,"Random":2822,"function":2823,"UTIL":2824,"getTable":2825,"Decimal":2826,"atches":2827,"MBean":2828,"timeout":2829,"COMP":2830,"conditions":2831,"ĠResult":2832,"iteral":2833,"Delay":2834,"artbe":2835,"ulator":2836,"ableFuture":2837,"ANCE":2838,"ersist":2839,"itor":2840,"Assignment":2841,"Ġscheduler":2842,"Ġchannel":2843,"au":2844,"Suite":2845,"That":2846,"\\\",\\\"":2847,"LU":2848,"OperationException":2849,"Rel":2850,"NODE":2851,"visit":2852,"its":2853,"ript":2854,"getProperty":2855,"play":2856,"NodeId":2857,"Use":2858,"Discovery":2859,"ephele":2860,"Ġback":2861,"artbeat":2862,"DATA":2863,"incip":2864,"lat":2865,"getRegion":2866,"Serde":2867,"Ġinterface":2868,"Params":2869,"Ack":2870,"types":2871,"Throwable":2872,"istributed":2873,"Received":2874,"ĠSimple":2875,"Java":2876,"ookeeper":2877,"Database":2878,"MIN":2879,"ĠHBase":2880,"auth":2881,"ĠClient":2882,".<":2883,"Ġ[]":2884,"ĠQuery":2885,"ayload":2886,"Ġkeys":2887,"Ġcommand":2888,"Capacity":2889,"DF":2890,"Blocks":2891,"now":2892,"arison":2893,"Ġwork":2894,"FIELD":2895,"Mapping":2896,"ices":2897,"ND":2898,"CONFIG":2899,"Ġwait":2900,"Running":2901,"Ġstatus":2902,"vlet":2903,"Multi":2904,"('":2905,"ĠHttp":2906,"RES":2907,"Ġdriver":2908,"SSTable":2909,"OLLOW":2910,"Ġmetadata":2911,"pb":2912,"lected":2913,"\\\":\\\"":2914,"Ro":2915,"page":2916,"Short":2917,"Ignore":2918,"ĠField":2919,"ĠYarn":2920,"pair":2921,"Ġexpression":2922,"ĠSQLException":2923,"checked":2924,"Ġfound":2925,"LOCK":2926,"ected":2927,"ES":2928,"Ġcontinue":2929,"PREFIX":2930,"exp":2931,"sn":2932,",\\\"":2933,"trol":2934,"eature":2935,"ĠUnsupported":2936,"ffers":2937,"igh":2938,"Ġjoin":2939,"GI":2940,"Def":2941,"broker":2942,"Datanode":2943,"duled":2944,"letableFuture":2945,"23":2946,"Scheme":2947,"ORY":2948,"springframework":2949,"ware":2950,"Tests":2951,"SET":2952,"NumberOf":2953,"Runner":2954,"ĠBuffer":2955,"cry":2956,"TED":2957,"ceptor":2958,"ired":2959,"Remote":2960,"mmutable":2961,"ĠServer":2962,"Ġapplication":2963,"Vars":2964,"Ġgener":2965,"Ġidx":2966,"structor":2967,"ails":2968,"Off":2969,"ĠService":2970,"ClassLoader":2971,"LECT":2972,"ta":2973,"ĠFileSystem":2974,"root":2975,"ĠConnection":2976,"dds":2977,"bar":2978,"coded":2979,"metadata":2980,"avail":2981,"leanup":2982,"UNT":2983,"ĠPartition":2984,"ormal":2985,"ĠNo":2986,"incipal":2987,"ĠSh":2988,"ek":2989,"expression":2990,"Ġresults":2991,"ategory":2992,"azz":2993,"Ġ\"-":2994,"MPTY":2995,"orld":2996,"Ġdir":2997,"unchecked":2998,"Ab":2999,"Ġcctx":3000,"VI":3001,"ColumnVector":3002,"emon":3003,"ynamic":3004,"ĠJson":3005,"ration":3006,"json":3007,"def":3008,"kable":3009,"ĠDe":3010,"SU":3011,"arted":3012,"Space":3013,"UTF":3014,">>>":3015,"Satis":3016,"do":3017,"ias":3018,"ĠToken":3019,"Ġparams":3020,"...":3021,"ĠOzone":3022,"jection":3023,"Standard":3024,"Ġcell":3025,"Closure":3026,"singleton":3027,"solute":3028,"elf":3029,"Doc":3030,"Expected":3031,"Const":3032,"aemon":3033,"consumer":3034,"BYTE":3035,"Ġproperties":3036,"Mutation":3037,"Unknown":3038,"getDefault":3039,"Ġdest":3040,"Ġam":3041,"Ġleft":3042,"ALI":3043,"ome":3044,"ience":3045,"Full":3046,"Begin":3047,"ĠApplication":3048,"MB":3049,"gistry":3050,"Ġregister":3051,"Selector":3052,"ASE":3053,"Current":3054,"channel":3055,")),":3056,"getLogger":3057,"One":3058,"raint":3059,"Ġlen":3060,"ĠSql":3061,"SON":3062,"Ġschema":3063,"ĠtoString":3064,"Ġkv":3065,"ulti":3066,"spark":3067,"cond":3068,"Generic":3069,"Ġcheckpoint":3070,"002":3071,"arness":3072,"orre":3073,"ĠCluster":3074,"operator":3075,"iler":3076,"compareTo":3077,"loom":3078,"ĠUnsupportedOperationException":3079,"Contract":3080,"Ġdat":3081,"nephele":3082,"PAT":3083,"Ġspec":3084,"ĠExpression":3085,"ious":3086,"ials":3087,"rows":3088,"Ġscan":3089,"AS":3090,"Simple":3091,"AttemptId":3092,"andidate":3093,"Ġright":3094,"Methods":3095,"Self":3096,"bitField":3097,"ĠGeneric":3098,"Ġdesc":3099,"Ġgrid":3100,"metastore":3101,"mat":3102,"ĠX":3103,"Ġassign":3104,"Temp":3105,"Runtime":3106,"ĠDat":3107,"writer":3108,"Ġwas":3109,"ĠUUID":3110,"ordin":3111,"FileStatus":3112,"rain":3113,"PC":3114,"ĠcamelContext":3115,"UMN":3116,"ĠURI":3117,"containsKey":3118,"Api":3119,"ĠOption":3120,"asic":3121,"AX":3122,"GER":3123,"sendBody":3124,"33":3125,"Deprecated":3126,"apt":3127,"offset":3128,"Ġfiles":3129,"scriptor":3130,"META":3131,")\",":3132,"Ġexecutor":3133,"Hello":3134,"eed":3135,"reduce":3136,"Hist":3137,"Parallelism":3138,"no":3139,"Success":3140,"uff":3141,"Ġadmin":3142,"Parent":3143,"ConfVars":3144,"hel":3145,"Buf":3146,"Accessor":3147,"ĠSc":3148,"child":3149,"ACE":3150,"MILY":3151,"Finis":3152,"OB":3153,"Static":3154,"dentials":3155,"connection":3156,")\");":3157,"shutdown":3158,"Ġargument":3159,"bind":3160,"Ġany":3161,"find":3162,"PUT":3163,"=\\\"":3164,"dd":3165,"marshal":3166,"alan":3167,"80":3168,"cent":3169,"ĠVector":3170,"HI":3171,"Ġdirect":3172,"CREATE":3173,"Coprocessor":3174,"ROM":3175,"available":3176,"Ġproto":3177,"Ġsp":3178,"Ġactual":3179,"Done":3180,"Comparison":3181,"ĠRegion":3182,"ys":3183,"Ġare":3184,"STO":3185,"::":3186,"mod":3187,"Auto":3188,"ous":3189,"Wait":3190,"};":3191,"Ġrs":3192,"char":3193,"LED":3194,"Entries":3195,"tribute":3196,"bserver":3197,"Retry":3198,"Ġhave":3199,"24":3200,"header":3201,"serve":3202,"memory":3203,"UriParam":3204,"Di":3205,"Streams":3206,"ĠValue":3207,"Allocation":3208,"Ġserial":3209,"Priority":3210,"Qual":3211,"duling":3212,"iginal":3213,"[]>":3214,"IL":3215,"ang":3216,"over":3217,"Aggregation":3218,"Common":3219,"cfg":3220,"Portable":3221,"Ġslot":3222,"Leader":3223,"Ġmemory":3224,"Security":3225,"wo":3226,"TaskManager":3227,"ick":3228,"States":3229,"gest":3230,"egate":3231,"ĠMethod":3232,"SSL":3233,"Ġhttp":3234,"Ġzk":3235,"emp":3236,"Groups":3237,"Labels":3238,"ALL":3239,"return":3240,"session":3241,"ĠActiveMQ":3242,"'t":3243,"lation":3244,"ĠCheck":3245,"Total":3246,"exists":3247,"ĠRandom":3248,"Primitive":3249,"ts":3250,"SELECT":3251,"batch":3252,"Super":3253,"Ġy":3254,"ServerName":3255,"StateException":3256,"sionRegistry":3257,"gine":3258,"Supplier":3259,"Audience":3260,"Satisfi":3261,"');":3262,"ULL":3263,"Ġvalidate":3264,"VersionUID":3265,"Ev":3266,"ĠgetMockEndpoint":3267,"InterfaceAudience":3268,"Ġfut":3269,"upport":3270,"newBuilder":3271,"Ġrange":3272,"Ġ7":3273,"Ġheader":3274,"iate":3275,"response":3276,"Sum":3277,"SelfTest":3278,"ĠTimeline":3279,"ulk":3280,"ĠserialVersionUID":3281,"double":3282,"Ġformat":3283,"Ġproperty":3284,"nio":3285,"rincipal":3286,"Progress":3287,"exception":3288,"Ġsuite":3289,"Ġcopy":3290,"unc":3291,"getInstance":3292,"DESC":3293,"ĠInvalid":3294,"Harness":3295,"bucket":3296,"ines":3297,"Ġwindow":3298,"Ġsupported":3299,"Groovy":3300,"book":3301,"nder":3302,"STANCE":3303,"Ġapply":3304,"onitor":3305,"allocate":3306,"MEM":3307,"notation":3308,"25":3309,"DataFormat":3310,"Ġcan":3311,"azy":3312,"sive":3313,"position":3314,"Ġlo":3315,"TAIN":3316,"ConfigKeys":3317,"COUNT":3318,"PLIC":3319,"former":3320,"netty":3321,"CESS":3322,"Utilities":3323,"Sign":3324,"Ġtop":3325,"pri":3326,"xf":3327,"Ġmo":3328,"mockito":3329,"Ġnon":3330,"Single":3331,"getHeader":3332,"LASS":3333,"ump":3334,"erson":3335,"iod":3336,"ĠStorage":3337,"ĠGet":3338,"serde":3339,"ivery":3340,"rupt":3341,"TITION":3342,"Ġtuple":3343,"rm":3344,"select":3345,"Custom":3346,"StoreFile":3347,"Ġfuture":3348,"tmp":3349,"keyspace":3350,"Merge":3351,"Ġjj":3352,"ĠState":3353,"Ġaggreg":3354,"gh":3355,"StackTrace":3356,"ACL":3357,"zookeeper":3358,"ĠMy":3359,"ynt":3360,"RS":3361,"Results":3362,"getInt":3363,"Ġinvoke":3364,"ĠSession":3365,"ACK":3366,"Ġreceiver":3367,"schema":3368,"getLog":3369,"ROUP":3370,"Ġfactory":3371,"1000":3372,"90":3373,"ĠĠĠĠĠĠĠ":3374,"Spring":3375,"getRow":3376,"dest":3377,"Secret":3378,"cum":3379,"cation":3380,"Ġvisit":3381,"_;":3382,"TRI":3383,"match":3384,"ĠassertThat":3385,"\\\\/":3386,"CK":3387,"Ġcompare":3388,"Available":3389,"aring":3390,"Ġfamily":3391,"Cols":3392,"ibility":3393,"TIMEOUT":3394,"Paths":3395,"Ġnow":3396,"ĠBinary":3397,"Details":3398,"ĠOperator":3399,"ĠTrans":3400,"vcc":3401,"ROW":3402,"Ġ(\"":3403,"Scope":3404,")))":3405,"Ġdoes":3406,"Ġed":3407,"Ġremote":3408,"Ġ{\"":3409,"force":3410,"tings":3411,"ĠCompletableFuture":3412,"Encoding":3413,"Ġtag":3414,"Ġstring":3415,"Ġmerge":3416,"Ġdestination":3417,"Addr":3418,"addAll":3419,"ĠFS":3420,"Ġiterator":3421,"getContainer":3422,"getField":3423,"resolve":3424,"Ġoperation":3425,"Ġnodes":3426,"random":3427,"Ġref":3428,"OutputFormat":3429,"snapshot":3430,"Servlet":3431,"setProperty":3432,"aging":3433,"rant":3434,"Raw":3435,"ise":3436,"Ġmatch":3437,"Ġqry":3438,"TType":3439,"Ġmust":3440,"Satisfied":3441,"ML":3442,"IP":3443,"ĠConcurrent":3444,"Ġvertex":3445,"left":3446,"IG":3447,"CLI":3448,"Ġtemp":3449,"Ġinternal":3450,"SocketAddress":3451,"ERR":3452,"Ġentity":3453,"INTER":3454,"PORT":3455,"aws":3456,"Requests":3457,"asl":3458,"label":3459,"Ġtext":3460,"valuate":3461,"lowed":3462,"ĠLoggerFactory":3463,"ĠIO":3464,"family":3465,"__":3466,"MessageCount":3467,"Stub":3468,"ks":3469,"web":3470,"Profile":3471,"Mini":3472,"Props":3473,"HER":3474,"setHeader":3475,"Ġfields":3476,"Ġexist":3477,"Multip":3478,"application":3479,"gor":3480,"getData":3481,"ORD":3482,"STORE":3483,"when":3484,"INFO":3485,"Ggfs":3486,"Ġno":3487,"Ġrpc":3488,"Control":3489,"ĠMockito":3490,"ublis":3491,"Owner":3492,"ĠFROM":3493,"Ġproc":3494,"--------":3495,"CF":3496,"ĠEvent":3497,"ĠAl":3498,"Ġext":3499,"gen":3500,"40":3501,"by":3502,"tl":3503,"route":3504,"Exists":3505,"ationToken":3506,"ok":3507,"Second":3508,"ART":3509,"Ġhandle":3510,"off":3511,"addTest":3512,"Servers":3513,"ready":3514,"ĠMin":3515,"ĠKEY":3516,"increment":3517,"startsWith":3518,"services":3519,"Ġoff":3520,"scheduler":3521,"rest":3522,"IS":3523,"Disk":3524,"Catalog":3525,"ressed":3526,"USER":3527,"getCurrent":3528,"uage":3529,"Ġcode":3530,"Ġ\"'":3531,"PATH":3532,"ĠMath":3533,"submit":3534,"FAMILY":3535,"BER":3536,"Blocking":3537,"graph":3538,"hashCode":3539,"getString":3540,"Ġ\"(":3541,"Ġrows":3542,"FOR":3543,"substring":3544,"HashSet":3545,"GroupInformation":3546,"Compact":3547,"example":3548,"SQL":3549,"cs":3550,"streams":3551,"Chunk":3552,"finis":3553,"merge":3554,"isor":3555,"flush":3556,"Binding":3557,"Ġoperator":3558,"CLASS":3559,"reshold":3560,"Ġvalid":3561,"Ġauth":3562,"STA":3563,"ATOR":3564,"master":3565,"ĠPreconditions":3566,"Ġfunction":3567,"commit":3568,"body":3569,"Ġexten":3570,"rpc":3571,"convert":3572,"Attributes":3573,"ision":3574,"ĠLocal":3575,"dated":3576,"Ġheaders":3577,"getResource":3578,"<?>>":3579,"ited":3580,"OFF":3581,"Ġvolume":3582,"ocker":3583,"aun":3584,"(\",":3585,"Move":3586,"BASE":3587,"gorith":3588,"LIN":3589,"getJob":3590,"Blob":3591,"omic":3592,"hell":3593,"Processing":3594,"obj":3595,"Sync":3596,"ict":3597,"Timeline":3598,"Ġ\");":3599,"ĠTree":3600,"Ġev":3601,"Ġafter":3602,"issing":3603,"Web":3604,"37":3605,"Variable":3606,"Ġprops":3607,"Events":3608,"Ġexecution":3609,"resourcemanager":3610,"Ġprint":3611,"Float":3612,"ConnectionFactory":3613,"ĠProperties":3614,"management":3615,"Trigger":3616,"Persist":3617,"ĠMemory":3618,"Ġwill":3619,"classification":3620,"EMPTY":3621,"box":3622,"ĠTABLE":3623,"ĠdbName":3624,"='":3625,"scribe":3626,"avepoint":3627,"apply":3628,"getLocal":3629,"US":3630,"ale":3631,"Aware":3632,"LoggerFactory":3633,"INSTANCE":3634,"ĠCount":3635,"fl":3636,"tp":3637,"Ġ12":3638,"HERE":3639,"Global":3640,"keys":3641,"ĠByteArray":3642,"ordinator":3643,"MAP":3644,"Ġpending":3645,"Ġvol":3646,"Ġreport":3647,"conds":3648,"ĠTableName":3649,"Cannot":3650,"Ġcommit":3651,"Buffers":3652,"Invokable":3653,"replace":3654,"HO":3655,"Pipeline":3656,"ĠColumnFamily":3657,"55":3658,"Ġnote":3659,"Ġline":3660,"td":3661,"Ġjson":3662,"Ġus":3663,"Equal":3664,"ĉĉ":3665,"ExprNode":3666,"ployment":3667,"Duration":3668,"ĠWorld":3669,"Complete":3670,"ĠRun":3671,"yntax":3672,"Ġhive":3673,"Backend":3674,"lus":3675,"InetAddress":3676,"Ġmetric":3677,"li":3678,"gorithm":3679,"res":3680,"safe":3681,"cle":3682,"timestamp":3683,"Ġself":3684,"etSocketAddress":3685,"(\"\\":3686,"plan":3687,"96":3688,"PB":3689,"ĠCamelContext":3690,"ĠByte":3691,"verify":3692,"Active":3693,"Delim":3694,"alance":3695,"Keyspace":3696,"Ph":3697,"ĠIllegalStateException":3698,"alancer":3699,"REGI":3700,"getEndpoint":3701,"mx":3702,"ERROR":3703,"Such":3704,"nowled":3705,"getAb":3706,"Ġsetup":3707,"ĠassertNull":3708,"ForTesting":3709,"Ġpool":3710,"ADER":3711,"Tags":3712,"Affinity":3713,"Ġqu":3714,"ActiveMQ":3715,"Pending":3716,"Ġurl":3717,"78":3718,"ĠKafka":3719,"Partitioner":3720,"Marshaller":3721,"Find":3722,"CS":3723,"ĠCell":3724,"Factor":3725,"Category":3726,"ĠCON":3727,"StateHandle":3728,"ĠWHERE":3729,"coder":3730,"Threads":3731,"OF":3732,"Ġsegment":3733,"InputSplit":3734,"Ġmaster":3735,"FE":3736,"sume":3737,"ObjectField":3738,"DelegationToken":3739,"ĠGroovy":3740,"Feature":3741,"Mockito":3742,"Cur":3743,"Generated":3744,"Serializable":3745,"ThreadPool":3746,"Private":3747,"RITE":3748,"ĠJava":3749,"aset":3750,"uto":3751,"Ġmod":3752,"26":3753,"<?,":3754,"atermark":3755,"getAbsolute":3756,"ally":3757,"020":3758,"MasterProtos":3759,"Ġskip":3760,"ĠConfig":3761,"Timer":3762,"Ġsstable":3763,"TAINER":3764,"====":3765,"invoke":3766,"Ġcolumns":3767,"plica":3768,"level":3769,"COLUMN":3770,"Ġfloat":3771,"window":3772,"sopre":3773,"sopremo":3774,"CTION":3775,"Void":3776,"Used":3777,"VERSION":3778,"Retrie":3779,"TS":3780,"Ġlabel":3781,"UDF":3782,"getBody":3783,"Ġshort":3784,"acter":3785,"Concurrent":3786,"aunch":3787,"failed":3788,"omain":3789,"Bound":3790,"[],":3791,"fetch":3792,"ripe":3793,"keySet":3794,"zeppelin":3795,"ĠCall":3796,"make":3797,"ĠClassNode":3798,"Ġopen":3799,"nowledge":3800,"boot":3801,"88":3802,"Sort":3803,"Ġ\"+":3804,"ich":3805,"mk":3806,"MENT":3807,"Kafka":3808,"OM":3809,"Exist":3810,"atency":3811,"transport":3812,"(@":3813,"Ġorder":3814,"ĠSerializable":3815,"posit":3816,"MX":3817,"skip":3818,"idx":3819,"RED":3820,"azon":3821,"req":3822,"Ġnamespace":3823,"status":3824,"GROUP":3825,"ternal":3826,"SERVER":3827,"ws":3828,"getNum":3829,"Alloc":3830,"Ġtransaction":3831,"DownLatch":3832,"Linked":3833,"atched":3834,"External":3835,"ĠReplication":3836,"ĠAsync":3837,"ĠVAL":3838,"Ġcomparator":3839,"Ġcallback":3840,"names":3841,"WN":3842,"27":3843,"Kind":3844,"Bi":3845,"Ġerr":3846,"df":3847,"Place":3848,"Projection":3849,"ADD":3850,"SY":3851,"SA":3852,"getChild":3853,"StateStore":3854,"Serialization":3855,"Tcp":3856,"BLOCK":3857,"Network":3858,"ĠIndex":3859,"Should":3860,"mage":3861,"NABLE":3862,"003":3863,"wap":3864,"PA":3865,"Extract":3866,"StringUtils":3867,"InterruptedException":3868,"reader":3869,"Ġscanner":3870,"Flag":3871,"ACTION":3872,"TopicPartition":3873,"44":3874,"PARTITION":3875,"dr":3876,"gi":3877,"Dht":3878,"uffle":3879,"Deserializer":3880,"PLICATION":3881,"36":3882,"transform":3883,"orization":3884,"Backup":3885,"ade":3886,"ĠCo":3887,"urable":3888,"Cached":3889,"Txn":3890,"range":3891,"pository":3892,"validate":3893,"Dispatcher":3894,"Ġsec":3895,"Ter":3896,"ndle":3897,"Completed":3898,"Ġdelegate":3899,"ward":3900,"osite":3901,"Errors":3902,"ndi":3903,"getUser":3904,"Dirs":3905,"ĠHiveConf":3906,"032":3907,"Ġrest":3908,"Holder":3909,"Initialized":3910,"AndGet":3911,"ĠChannel":3912,"rott":3913,"Elements":3914,"OUR":3915,"properties":3916,"Managed":3917,"HiveConf":3918,"Visible":3919,"Tables":3920,">\");":3921,"parator":3922,"Interceptor":3923,"arr":3924,"Ġcause":3925,"ther":3926,"getApplication":3927,"Ġ20":3928,"Core":3929,"DD":3930,"Changed":3931,"RequestException":3932,"cumulator":3933,"Worker":3934,"Folder":3935,"ByteString":3936,"ested":3937,"HA":3938,"tot":3939,"Classes":3940,"getAll":3941,"Callable":3942,"ied":3943,"expectedMessageCount":3944,"tbl":3945,"ARY":3946,"Ġregistry":3947,"ĠIgniteCache":3948,"48":3949,"Ġmy":3950,"Ġcnt":3951,"Observer":3952,"Public":3953,"reset":3954,"Constraint":3955,"OrBuilder":3956,"ĠQueue":3957,"Ġconvert":3958,"we":3959,"ling":3960,"Ġreduce":3961,"sv":3962,"Ġattempt":3963,"ĠSub":3964,"Script":3965,"Ġserializer":3966,"ĠNull":3967,"MEMORY":3968,"Ġ9":3969,"ĠBig":3970,"00000":3971,"FFER":3972,"ĠInputStream":3973,"(((":3974,"Decl":3975,"EC":3976,"ĠEndpoint":3977,"FileName":3978,"files":3979,"Ġstats":3980,"Ġinitial":3981,"getMax":3982,"Ġelement":3983,"ĠStreamRecord":3984,"38":3985,"CONTAINER":3986,"SCHE":3987,"REGION":3988,"getLong":3989,"tasks":3990,"Ġresolve":3991,"ixed":3992,"valuation":3993,"waitFor":3994,"kv":3995,"Ġplan":3996,"super":3997,"ĠINT":3998,"execution":3999,"Shutdown":4000,"ĠCheckpoint":4001,"ProtocolProtos":4002,"strap":4003,"Ġ(!(":4004,"42":4005,"ract":4006,"Ġhandler":4007,"Pointer":4008,"35":4009,"AUT":4010,"Ġsuccess":4011,"ĠPAR":4012,"Skip":4013,"TOP":4014,"transaction":4015,"agg":4016,"60":4017,"\")));":4018,"printStackTrace":4019,"tuple":4020,"CLIENT":4021,"Shared":4022,"amazon":4023,"Near":4024,"tri":4025,"Register":4026,"NONE":4027,"desc":4028,"ptim":4029,"getHost":4030,"Ġmode":4031,"Queues":4032,"serialization":4033,"amilies":4034,"Ġdone":4035,"ĠMockEndpoint":4036,"OURCE":4037,"DATE":4038,"Proc":4039,"Ġaddress":4040,"ĠDis":4041,"ĠLinkedList":4042,"Ġfinis":4043,"Password":4044,"ENABLE":4045,"hdds":4046,"static":4047,"Finished":4048,"Ġsql":4049,"Ġsecond":4050,"checkpoint":4051,"RL":4052,"NC":4053,"ĠSchema":4054,"Imp":4055,"WRITE":4056,"Ġkeyspace":4057,"Privilege":4058,"Ġarray":4059,"VisibleForTesting":4060,"Plugin":4061,"ments":4062,"Ġpartitions":4063,"ACT":4064,"${":4065,"ĠOptional":4066,"ĠMetrics":4067,"AND":4068,"getM":4069,"isNull":4070,"amp":4071,"ĠstartTime":4072,"iprot":4073,"Annotation":4074,"ĠThe":4075,"ĠsObjectField":4076,"ATCH":4077,"66":4078,"Ġbefore":4079,"Ġ'\"":4080,"velo":4081,"handle":4082,"Ġ\")":4083,"ank":4084,"Ġdirectory":4085,"Ġlocation":4086,"ĠTypeSerializer":4087,"Big":4088,"Versions":4089,"ĠextensionRegistry":4090,"Visit":4091,"TimeUnit":4092,"Compression":4093,"Ġpeer":4094,"ĠLogFactory":4095,"Ġ?>":4096,"Operations":4097,"LIST":4098,"road":4099,"emant":4100,"ĠlastComparison":4101,"ĠMini":4102,"eration":4103,"RequestProto":4104,"tten":4105,"Arch":4106,"descriptor":4107,"Authentication":4108,"Seq":4109,"])":4110,"Heartbeat":4111,"ful":4112,"LETE":4113,"annotations":4114,"Ġoriginal":4115,"ĠPattern":4116,"ĠConsumer":4117,"Ġdi":4118,"Fetch":4119,"txt":4120,"acted":4121,"ĠnodeId":4122,"ounds":4123,"total":4124,"ApplicationContext":4125,"Ġvector":4126,"Ġ\"]":4127,"ĠnumberOf":4128,"Daemon":4129,"getColumn":4130,"producer":4131,"Note":4132,"ulate":4133,"Ġempty":4134,"UCT":4135,"ĠHConstants":4136,"Ġraw":4137,"ĠbitField":4138,"ush":4139,"NM":4140,"Constructor":4141,"Ġsum":4142,"llback":4143,"Illegal":4144,"ĠHRegion":4145,"Connect":4146,"AsString":4147,"Ġts":4148,"heap":4149,"Ġtransient":4150,"ĠVALUE":4151,"Literal":4152,"Locations":4153,"istic":4154,"orum":4155,"MILLI":4156,"mapred":4157,"Could":4158,"emantic":4159,"HIVE":4160,"ĠFuture":4161,"atile":4162,"tcp":4163,"kernal":4164,"SPACE":4165,"tab":4166,"Subscription":4167,"MIT":4168,"agraph":4169,"Vert":4170,"Ġdescription":4171,"release":4172,"ular":4173,"Ġclear":4174,"JSON":4175,"TTP":4176,"ĠVisor":4177,"ZK":4178,"ssaging":4179,"ĠPri":4180,"Encoded":4181,"77":4182,"toArray":4183,"dule":4184,"compute":4185,"Ġone":4186,"ollow":4187,"Link":4188,"Ġretval":4189,"expr":4190,"ĠDate":4191,"roadcast":4192,"Ġbean":4193,"ĠjobId":4194,"ZONE":4195,"ĠgetDescriptor":4196,"search":4197,"Ġcmd":4198,"||":4199,"TException":4200,"Ġarguments":4201,"Left":4202,"emptyList":4203,"rough":4204,"ZooKeeper":4205,"Uuid":4206,"Engine":4207,"Ġprefix":4208,"ĠsetUp":4209,"orary":4210,"ĠLe":4211,"omp":4212,"ĠSt":4213,"ĠIter":4214,"Ġqual":4215,"Ġcfs":4216,"BO":4217,"gex":4218,"Completion":4219,"sort":4220,"21":4221,"ere":4222,"writeString":4223,"TASK":4224,"Ġvolatile":4225,"Ġregions":4226,"ridge":4227,"Ġactive":4228,"ClassName":4229,"Ġexpr":4230,"Codec":4231,",\"":4232,"[][]":4233,"await":4234,"stim":4235,"ĠContext":4236,"ĠtestHarness":4237,"00000001":4238,"camelContext":4239,"scap":4240,"that":4241,"ExecutionEnvironment":4242,"ĠPut":4243,"sumers":4244,"getTableName":4245,"Ġcs":4246,"VertexID":4247,"loomFilter":4248,"Finder":4249,"Ġstorage":4250,"VICE":4251,"This":4252,"Tokens":4253,"ĠURL":4254,"##":4255,"CONNE":4256,"Ġcontent":4257,"patch":4258,"atomic":4259,"getState":4260,"Ġoption":4261,"Replica":4262,"ĠWindow":4263,"functions":4264,"Ġused":4265,"Encry":4266,"cmd":4267,"Ġclazz":4268,"getAbsolutePath":4269,"ĠScan":4270,"Scheduling":4271,"uber":4272,"Aggregate":4273,"configure":4274,"Slots":4275,"auge":4276,"FIN":4277,"full":4278,"JE":4279,"Ġreplication":4280,"aptor":4281,"alar":4282,"FAI":4283,"Pojo":4284,"support":4285,"[])":4286,"bound":4287,"Other":4288,"LogFactory":4289,"getNode":4290,"Ġmay":4291,"NOT":4292,"Preemp":4293,"Validator":4294,"thread":4295,"mapreduce":4296,"ĠRunnable":4297,"DataSet":4298,"nodeId":4299,"ycle":4300,"acket":4301,"ssl":4302,"Upload":4303,"Ġnames":4304,"Algorithm":4305,"ĠTesting":4306,"Checker":4307,"netes":4308,"served":4309,"ubernetes":4310,"Ġenum":4311,"Ġgenerate":4312,"Llap":4313,"ories":4314,"checkNotNull":4315,"BUFFER":4316,"vals":4317,"ĠFilter":4318,"ExecutionException":4319,"Ġtypes":4320,"Extractor":4321,"Ġrc":4322,"Ġparameter":4323,"Side":4324,"Mgr":4325,"STAMP":4326,"Ġappend":4327,"getF":4328,"Ġmake":4329,"raw":4330,"Ġlistener":4331,"uthentication":4332,"MockEndpoints":4333,"rix":4334,"RAY":4335,"70":4336,"ĠAggreg":4337,"Ġ<<":4338,"Utility":4339,"Ġaccess":4340,"getDefaultInstance":4341,"Checksum":4342,"hello":4343,"Ġstmt":4344,"Ġcontroller":4345,"HConstants":4346,"Ġ']":4347,"flow":4348,"ĠDFS":4349,"Configs":4350,"deserialize":4351,"Started":4352,"Balancer":4353,"remote":4354,"Ġacl":4355,"Ġflush":4356,"Ġom":4357,"200":4358,"INTERVAL":4359,"28":4360,"ĠAtomicInteger":4361,"Ġproxy":4362,"FOLLOW":4363,"Jar":4364,"sign":4365,"property":4366,"readString":4367,"aching":4368,"ific":4369,"istribution":4370,"metric":4371,"Build":4372,"ĠFOLLOW":4373,"ObjectHelper":4374,"(-":4375,".\"":4376,"1024":4377,"getBlock":4378,"ĠFunction":4379,"poll":4380,"ĠcolumnFamily":4381,"TList":4382,"LEN":4383,"ĠHRegionInfo":4384,"ITE":4385,"ĠWritable":4386,"note":4387,"anguage":4388,"ving":4389,"Vertices":4390,"cctx":4391,"Ġ++_":4392,"getConnection":4393,"Ġwrap":4394,"getInput":4395,"ensor":4396,"pared":4397,"Ġover":4398,"39":4399,"ĠNUM":4400,"Settings":4401,"HBaseProtos":4402,"127":4403,"Ġssl":4404,"Require":4405,"ĠĠĠĠĠĠĠĠĠĠĠĠĠ":4406,"GET":4407,"calc":4408,"ClassNode":4409,"bers":4410,"ErrorHandler":4411,"ĠPar":4412,"HRegionInfo":4413,"We":4414,"Ġaction":4415,"STER":4416,"ĠPer":4417,"mall":4418,"admin":4419,"card":4420,"PU":4421,"Extension":4422,"Ġrandom":4423,"Ġpattern":4424,"Deployment":4425,"scan":4426,"ox":4427,"00000002":4428,"Descriptors":4429,"getOut":4430,"tree":4431,"tag":4432,"CLU":4433,"getOutput":4434,"initialize":4435,"Ġlimit":4436,"ĠassertMockEndpoints":4437,"Objects":4438,"RESS":4439,"prev":4440,"Leaf":4441,"Partial":4442,"uplic":4443,"Ġsync":4444,"Arguments":4445,"ĠRequest":4446,"delivery":4447,"Qualifier":4448,"Spark":4449,"Ġcollector":4450,"setName":4451,"cd":4452,"014":4453,"number":4454,"volume":4455,"ĠInterpreter":4456,"ĠDec":4457,"remo":4458,"ARRAY":4459,"Ġign":4460,"ogram":4461,"ross":4462,"Ġbut":4463,"!=":4464,"ĠUserGroupInformation":4465,"+\"":4466,"Ġequals":4467,"MESS":4468,"EventType":4469,"clone":4470,"TOPIC":4471,"Ġentries":4472,"ĠBase":4473,"CHE":4474,"NUMBER":4475,"Ġedge":4476,"socket":4477,"getTask":4478,"54":4479,"COM":4480,"RUN":4481,"JsonNode":4482,"ique":4483,"cluded":4484,"ĠTimestamp":4485,"Bulk":4486,"BE":4487,"ault":4488,"JMS":4489,"setBody":4490,"Recovery":4491,"(!":4492,"MESSAGE":4493,"TIVE":4494,"QUEUE":4495,"Ker":4496,"ĠBuffered":4497,"ctiv":4498,"Submit":4499,"regionserver":4500,"Role":4501,"arker":4502,"Protobuf":4503,"ERATION":4504,"RPC":4505,"ragment":4506,"Ġ\"<":4507,"acking":4508,"Module":4509,"Ġcre":4510,"Cursor":4511,"destination":4512,"Threshold":4513,"Frame":4514,"options":4515,"Ġ|=":4516,"ĠCountDownLatch":4517,"Hook":4518,"Monitor":4519,"ose":4520,"ĠHiveException":4521,"Ġprepare":4522,"velope":4523,"network":4524,"ĠMAX":4525,"ĠDataSet":4526,"ĠHTableDescriptor":4527,"ĠUSER":4528,"llap":4529,"ĠCF":4530,"29":4531,"Optim":4532,"Live":4533,"{\\\"":4534,"Ġshutdown":4535,"clusive":4536,"Visitor":4537,"Ġposition":4538,"Ġ#":4539,"Transformer":4540,"Ġprevious":4541,"Ġmain":4542,"ĠImmutable":4543,"nextInt":4544,"BYTES":4545,"Ġreset":4546,"ĠFlink":4547,"ĠPage":4548,"START":4549,"keep":4550,"Ssl":4551,"ĠPro":4552,"receiver":4553,"getConf":4554,"amazonaws":4555,"counter":4556,"PactRecord":4557,"Ġcounter":4558,"DEX":4559,"eeded":4560,"PROPER":4561,"ClusterNode":4562,"tinu":4563,"mediate":4564,"ĠEnum":4565,"TestingUtility":4566,"Ġ\":":4567,"Ġsystem":4568,"Period":4569,"RunWith":4570,"Runnable":4571,"setInt":4572,"ĠProducer":4573,"setString":4574,"Post":4575,"Reducer":4576,"XT":4577,"Routes":4578,"ĠSec":4579,"ĠassertMockEndpointsSatisfied":4580,"Iteration":4581,"DataInput":4582,"ĠZooKeeper":4583,"Append":4584,"Clean":4585,"ĠWAL":4586,"Principal":4587,"proc":4588,"ToString":4589,"TField":4590,")\\":4591,"Shard":4592,"****":4593,"da":4594,"cacheName":4595,"Ġrecords":4596,"Ġinclude":4597,"()[":4598,"Mutable":4599,"rouped":4600,"InternalFuture":4601,"Lower":4602,"opremo":4603,"Ġclosure":4604,"Alias":4605,"Ġpost":4606,"Ġpair":4607,"Restart":4608,"Req":4609,"ĠSSTable":4610,"History":4611,"pa":4612,"ackson":4613,"irt":4614,"Cmd":4615,"HEADER":4616,"element":4617,"Immutable":4618,"PRI":4619,"Ġcustom":4620,"Ġfull":4621,"Channels":4622,"HRegion":4623,"\")).":4624,"tributes":4625,"BufferSize":4626,"thon":4627,"0132":4628,"sstable":4629,"Ġconnector":4630,"ĠHe":4631,"Ġconnect":4632,"ootstrap":4633,"YarnConfiguration":4634,"JECT":4635,"getQueue":4636,"Fut":4637,"Ġavailable":4638,"isRe":4639,"complete":4640,"Reservation":4641,"ĠSE":4642,"Dist":4643,"TestUtil":4644,"irtual":4645,"ĠInvalidRequestException":4646,"rp":4647,"Ġack":4648,"FIER":4649,"Cert":4650,"BUtilities":4651,"bit":4652,"Share":4653,"aringGroup":4654,"rong":4655,"Ġbeen":4656,"getCause":4657,"ressor":4658,"ĠJoin":4659,"dc":4660,"ĠEntry":4661,"Document":4662,">(_":4663,"ĠMutable":4664,"ĠtopVer":4665,"getV":4666,"getSimple":4667,"QUEST":4668,"Nulls":4669,"arable":4670,"Search":4671,"Res":4672,"Ġ(((":4673,"OK":4674,"alled":4675,"arri":4676,"lling":4677,"MemStore":4678,"okup":4679,"ĠcreateRouteBuilder":4680,"getB":4681,"Ġretry":4682,"ĠJobID":4683,"Invocation":4684,"zk":4685,"wal":4686,"should":4687,"ificate":4688,"ĠappId":4689,"Archive":4690,"Ġdelet":4691,"Ġcached":4692,"Primary":4693,"ĠTypeInformation":4694,"fields":4695,"Ġcls":4696,"57":4697,"CCESS":4698,"Same":4699,"throws":4700,"Ġgraph":4701,"men":4702,"acy":4703,"alend":4704,"SL":4705,"partitions":4706,"urnal":4707,"late":4708,"ĠRMApp":4709,"Allocated":4710,"gg":4711,"nodes":4712,"Collectors":4713,"ĠAccess":4714,"alendar":4715,"affinity":4716,"Stamp":4717,"ĠRead":4718,"Repository":4719,"123":4720,"ARN":4721,"ferred":4722,"custom":4723,"assertFalse":4724,"ĠcontainerId":4725,"getFile":4726,"ColumnDescriptor":4727,"dbName":4728,"ResponseProto":4729,"METRI":4730,"eek":4731,"Ġowner":4732,"ĠRemote":4733,"Delegate":4734,"Creation":4735,"47":4736,"Repair":4737,"Dynamic":4738,"ĠMetric":4739,"Serialized":4740,"readInt":4741,"operation":4742,"inesis":4743,"asure":4744,"orrect":4745,"view":4746,"ĠCO":4747,"ONG":4748,"Ġselect":4749,"Delta":4750,"ĠDatabase":4751,"arDown":4752,"factory":4753,"toByteArray":4754,"Ġignored":4755,"Cap":4756,"singletonList":4757,"selected":4758,"HTTP":4759,"Print":4760,"ipStrategy":4761,"Distributed":4762,"atio":4763,"Ġwri":4764,"currentThread":4765,"ĠStringUtils":4766,"Ġpolicy":4767,"Ġparts":4768,"Ġprotocol":4769,"NS":4770,"STRUCT":4771,"Parse":4772,"ĠIterable":4773,"Ġstatement":4774,"Chain":4775,"Ġ\"\",":4776,"vc":4777,"1234":4778,"ContainerId":4779,"59":4780,"isset":4781,"getNext":4782,"generate":4783,"ĠGridGgfs":4784,"Ġ__":4785,"connector":4786,"description":4787,"getSimpleName":4788,"vertex":4789,"Multiple":4790,"Ġnm":4791,"DataType":4792,"ĠInetSocketAddress":4793,"Ops":4794,"LOCAL":4795,"Ġdst":4796,"ĠChar":4797,"Ġcannot":4798,"SERVICE":4799,"Stage":4800,"AME":4801,"Ġinitialize":4802,"Slice":4803,"Ġremaining":4804,"004":4805,"activ":4806,"balance":4807,"Increment":4808,"dirs":4809,"ĠRpc":4810,"MILLISECONDS":4811,"Ġonly":4812,"vState":4813,"Ġchunk":4814,"Ġalready":4815,"WS":4816,"Ġwal":4817,"jor":4818,"ĠParam":4819,"remaining":4820,"alth":4821,"Ġchange":4822,"Ġprimary":4823,"ĠBroker":4824,"Signature":4825,"TProtocol":4826,"Metastore":4827,"poch":4828,"Aggregator":4829,"iry":4830,"Closed":4831,"Matchers":4832,"password":4833,"Registration":4834,"jobId":4835,"Jobs":4836,"ĠĠĉ":4837,"MetaClass":4838,"scape":4839,"ifiers":4840,"Ġ\"_":4841,"Ġreceived":4842,"Missing":4843,"Ġms":4844,"ĠPo":4845,"ireFormat":4846,"010":4847,"Ġitem":4848,"Segments":4849,"=(":4850,"getNumberOf":4851,"evaluate":4852,"ipher":4853,"uplicate":4854,"31":4855,"Ġselected":4856,"ĠTransaction":4857,"Ġcancel":4858,"Ġhtd":4859,"azel":4860,"Memstore":4861,"Restore":4862,"azelcast":4863,"writeInt":4864,"ĠOUT":4865,"Ġsubscription":4866,"ĠJobGraph":4867,"verage":4868,"topology":4869,"zon":4870,"ĠVoid":4871,"dataformat":4872,"Ġpipeline":4873,"Windows":4874,"insert":4875,"Payload":4876,"Ġ;":4877,"Throw":4878,"Ġinto":4879,"vm":4880,"MANA":4881,"CODE":4882,"Ġfailure":4883,"Ġtimes":4884,"parameters":4885,"BeforeClass":4886,"ĠYarnConfiguration":4887,"address":4888,"pred":4889,"catalog":4890,"matches":4891,"ero":4892,"STATE":4893,"SERT":4894,"ByName":4895,"Watcher":4896,"getMethod":4897,"Select":4898,"parseInt":4899,"Ġsink":4900,"cing":4901,"iseconds":4902,"STAT":4903,"ĠInetAddress":4904,"58":4905,"RAN":4906,"ĠFileStatus":4907,"Ġworker":4908,"ENABLED":4909,"})":4910,"yz":4911,"Ġ\"\";":4912,"asy":4913,"verter":4914,"ColVector":4915,"Offsets":4916,"literal":4917,"Edit":4918,"Calc":4919,"Orig":4920,"Latency":4921,"Stability":4922,"round":4923,"getContext":4924,"cat":4925,"Ġleader":4926,"({":4927,"replication":4928,"ocks":4929,"prepare":4930,"allel":4931,"Ġrunning":4932,"ĠID":4933,"scm":4934,"Filters":4935,"Wh":4936,"unlock":4937,"attempt":4938,"Thrift":4939,"Ġrequired":4940,"ĠClosure":4941,"getPort":4942,"Messaging":4943,"FT":4944,"Charset":4945,"ĠScheduled":4946,"CacheConfiguration":4947,"TypeSerializer":4948,"mazon":4949,"cli":4950,"Inputs":4951,"PL":4952,"head":4953,"comparator":4954,"Vals":4955,"RegionServer":4956,"argument":4957,"Ġinner":4958,"persist":4959,"ĠPactRecord":4960,"beros":4961,"rottle":4962,"Ġpriority":4963,"database":4964,"AndHeader":4965,"ĠSingle":4966,"Ġensure":4967,"ITH":4968,"outer":4969,"Exit":4970,"QUAL":4971,"(){":4972,"odies":4973,"Compat":4974,"PTION":4975,"(\"<":4976,"ITY":4977,"ĠRest":4978,"Home":4979,"Ġstrategy":4980,"ĠUp":4981,"sistencyLevel":4982,"<>(\"":4983,"IgnoreCase":4984,"Retries":4985,"REQUEST":4986,"Required":4987,"Verifier":4988,"Mut":4989,"Envelope":4990,"Safe":4991,"Drop":4992,"More":4993,"Counters":4994,"Partitioned":4995,"Ġsocket":4996,"profile":4997,"entity":4998,"ĠtblName":4999,"Deletion":5000,"pende":5001,"Ġallow":5002,"assertNotNull":5003,"namespace":5004,"OPERATION":5005,"Scheduled":5006,"limit":5007,"Setting":5008,"Matcher":5009,"Ġscheme":5010,"system":5011,"expressions":5012,"trim":5013,"ne":5014,"arrier":5015,"SCM":5016,"NITE":5017,"Ġgroovy":5018,"ĠResponse":5019,"report":5020,"lib":5021,"ContextParameters":5022,"executor":5023,"ĠnewBuilder":5024,"expect":5025,"storage":5026,"ĠPrint":5027,"ĠdefaultValue":5028,"Ġchildren":5029,"cxf":5030,"Phase":5031,"Tbl":5032,"ultip":5033,"Created":5034,"Ġpl":5035,"pu":5036,"Two":5037,"Ġ\"\\\"":5038,"(\"%":5039,"ifact":5040,"Hint":5041,"ĠcacheName":5042,"ĠtaskManager":5043,"ROOT":5044,"Transition":5045,"atedKey":5046,"Ġfetch":5047,"operators":5048,"Digest":5049,"go":5050,"addColumn":5051,"Ġnear":5052,"Present":5053,"Enable":5054,"Ġbackup":5055,"ĠGridException":5056,"Ġinterpreter":5057,"yy":5058,"sumed":5059,"jdbc":5060,"mented":5061,"vance":5062,"LL":5063,"Compare":5064,"ĠNoSuch":5065,"ĠDummy":5066,"Persistence":5067,"Ġ16":5068,"Summary":5069,"Ġusing":5070,"Reset":5071,"getFileSystem":5072,"Bundle":5073,"Ġgen":5074,"segment":5075,"DataSource":5076,"ĠInternal":5077,"\"},":5078,"Alive":5079,"ĠAss":5080,"ObjectName":5081,"drop":5082,">>();":5083,"Keyed":5084,"losing":5085,"valuationExpression":5086,"ĠIgfs":5087,"avro":5088,"cql":5089,"typeutils":5090,"AdminProtos":5091,"Cost":5092,"Ġinputs":5093,"Watermark":5094,"ĠHFile":5095,"columns":5096,"ĠRel":5097,"InterfaceStability":5098,"itle":5099,"getRegionName":5100,"handler":5101,"iagn":5102,"Ġioe":5103,"Ġ()":5104,"ĠhashCode":5105,"ĠEV":5106,"Requirement":5107,"ĠName":5108,"Ġccfg":5109,"ĠStreams":5110,"Seconds":5111,"OPTION":5112,"XML":5113,"ĠAND":5114,"Lif":5115,"jackson":5116,"CM":5117,"Reg":5118,"Supported":5119,"49":5120,"Receiver":5121,"ĠInput":5122,"duct":5123,"Iterable":5124,"Insn":5125,"45":5126,"OZONE":5127,"Dump":5128,"Bodies":5129,"ffix":5130,"Ġaggregate":5131,"RuntimeException":5132,"Parts":5133,"Inject":5134,"ĠGroup":5135,"Startup":5136,"Ġjunit":5137,"Look":5138,"Now":5139,"gree":5140,"Added":5141,"ĠHTable":5142,"LT":5143,"ĠDelete":5144,"driver":5145,"Topics":5146,"ederation":5147,"ĠStruct":5148,"newArrayList":5149,"Normal":5150,"Old":5151,"equalsIgnoreCase":5152,"ĠSlot":5153,"Acknowledge":5154,"ĠCacheConfiguration":5155,"Tool":5156,"Executors":5157,"SSTableReader":5158,"Coordinator":5159,"Ġlatch":5160,"Ġdeserialize":5161,"ĠTField":5162,"ĠTop":5163,"PI":5164,"GTH":5165,"StateBackend":5166,"item":5167,"DU":5168,"GeneratedMessage":5169,"ADDRESS":5170,"und":5171,"Unexpected":5172,"ĠConcurrentHashMap":5173,"discovery":5174,"getParent":5175,"Percent":5176,"AccessorTable":5177,"unication":5178,"Ġstreams":5179,"Infos":5180,"ĠCreate":5181,"writeField":5182,"ReplicationPeer":5183,"ĠObjectInspector":5184,"Buffered":5185,"Ġdatanode":5186,"Indexes":5187,"ĠOutput":5188,"ĠJsonNode":5189,"]));":5190,"KER":5191,"68":5192,"ĠZK":5193,"Apps":5194,"PageId":5195,"iagnost":5196,"Rate":5197,"Ġresp":5198,"async":5199,"Comb":5200,"ĠTException":5201,"Image":5202,"Jdbc":5203,"grade":5204,"Ġwe":5205,"getStatus":5206,"SequenceId":5207,"tool":5208,"the":5209,"getMemory":5210,"Ġspecified":5211,"ProcessingTime":5212,"LowerCase":5213,"Ġmanager":5214,"JobGraph":5215,"INSERT":5216,"defaultValue":5217,"Validation":5218,"')":5219,"accept":5220,"calcite":5221,"!\");":5222,"Without":5223,"Package":5224,"slot":5225,"Site":5226,"ĠObjectHelper":5227,"DataInputStream":5228,"UPDATE":5229,"ĠAtomicBoolean":5230,"var":5231,"Ġglobal":5232,"DataOutputStream":5233,"ĠTr":5234,"Ġtxn":5235,"ev":5236,"Endpoints":5237,"Ġwhere":5238,"xn":5239,"Ġ,":5240,"ĠMetaException":5241,"Ġtrigger":5242,"self":5243,"LENGTH":5244,"SM":5245,"ĠAr":5246,"ConfigConstants":5247,"Unable":5248,"Ġalloc":5249,"dentity":5250,"Bounds":5251,"Ġinvo":5252,"Outputs":5253,"Quorum":5254,"So":5255,"des":5256,"Ġgate":5257,"Encoder":5258,"ason":5259,"witter":5260,"Actor":5261,"ZNode":5262,"NING":5263,"getTime":5264,")}":5265,"Ġneed":5266,"Character":5267,"roy":5268,"QUER":5269,"BodiesReceived":5270,"ĠRange":5271,"ĠGridPortable":5272,"500":5273,"dl":5274,"Ġrec":5275,"Ġdfs":5276,"ĠgetClass":5277,"Ġdoc":5278,"compile":5279,"ĠEX":5280,"NULL":5281,"Ġasync":5282,"ĠFs":5283,"ĠjobGraph":5284,"addTestSuite":5285,"REAM":5286,"ven":5287,"Ġcatalog":5288,"Program":5289,"ĠNot":5290,"Launch":5291,"JobID":5292,"yntaxException":5293,"Sorted":5294,"top":5295,"Ġparser":5296,"Ġprop":5297,"simple":5298,"pted":5299,"JOB":5300,"Lists":5301,"Ġ\";":5302,"Selection":5303,"Rank":5304,"ĠMaster":5305,"expectedBodiesReceived":5306,"Ġmodel":5307,":\");":5308,"Cleanup":5309,"ĠRuntime":5310,"Actions":5311,"Sizes":5312,"ĠAC":5313,"ĠparseFrom":5314,"Ġcompleted":5315,"ĠCollector":5316,"ResultSet":5317,"aterialized":5318,"ĠServerName":5319,"ured":5320,"Ġcandidate":5321,"TIMESTAMP":5322,"Eviction":5323,"Io":5324,"Removed":5325,"Ġshared":5326,"ĠUN":5327,"fined":5328,"reflect":5329,"Age":5330,"Ġmessages":5331,"Needed":5332,"setMax":5333,"Ts":5334,"Ġxml":5335,"JobManager":5336,"prefix":5337,"Bl":5338,"future":5339,"APPLICATION":5340,"Ptr":5341,"ournal":5342,"MiniCluster":5343,"Management":5344,"Ġsign":5345,"ĠSource":5346,"Ip":5347,"ĠAn":5348,"results":5349,"TRAN":5350,"getClient":5351,"Ġrel":5352,"ĠVer":5353,"ĠWeb":5354,"013":5355,"getPartition":5356,"KET":5357,"ĠLists":5358,"ux":5359,"ĠGridDht":5360,"params":5361,"ĠGridHadoop":5362,"ases":5363,"igration":5364,"jetty":5365,"Streaming":5366,"Encryption":5367,"Initial":5368,"AttemptID":5369,"016":5370,"Com":5371,"FilePath":5372,"float":5373,"exceptions":5374,"ano":5375,"_);":5376,"EndPoint":5377,"Cls":5378,"POINT":5379,"Transfer":5380,"ners":5381,"LINE":5382,"MAT":5383,"98":5384,"latMap":5385,"INDEX":5386,"Ġrelease":5387,"Ste":5388,"Ġsort":5389,"Ġflag":5390,"di":5391,"xid":5392,"Children":5393,"QUERY":5394,"StreamRecord":5395,"ph":5396,"Ġcreated":5397,"idth":5398,"KEN":5399,"mail":5400,"ĠOr":5401,"ĠisSet":5402,"ors":5403,"ATED":5404,"oratedKey":5405,"\"+":5406,"Wal":5407,"ertion":5408,"getText":5409,"Ġcontains":5410,"Ġ\"[":5411,"Unsafe":5412,"SAFE":5413,"MetaInfo":5414,"Ġignore":5415,"ĠIf":5416,"inspector":5417,"MetaStore":5418,"DataOutput":5419,"Reply":5420,"cols":5421,"LTER":5422,"Allocator":5423,"ipc":5424,"REC":5425,"Ġ\"\");":5426,"Ġ--":5427,"Domain":5428,"DC":5429,"lip":5430,"ĠBasic":5431,"Clear":5432,"tinuous":5433,".\")":5434,"ĠParameter":5435,"Cancel":5436,"toLowerCase":5437,"46":5438,"ĠSTR":5439,"Hdfs":5440,"ĠStore":5441,"Mvcc":5442,"53":5443,"oss":5444,"ĠNumber":5445,"ĠassertRows":5446,"Credentials":5447,"TIC":5448,"itive":5449,"ĠgetDefault":5450,"ght":5451,"randomUUID":5452,"Follow":5453,"ĠgetConfiguration":5454,"Instances":5455,"ĠJMS":5456,"binary":5457,"rv":5458,"Reporter":5459,"CONF":5460,"slice":5461,"CacheEntry":5462,"(\\\"":5463,"typedef":5464,"DbName":5465,"ajor":5466,"kka":5467,"ĠonChanged":5468,"EQUAL":5469,"image":5470,"bin":5471,"ĠFA":5472,"Ġdrop":5473,"Activ":5474,"Ġpr":5475,"vol":5476,"Optional":5477,"ĠTopic":5478,"dater":5479,"HFile":5480,"Ġdown":5481,"scheme":5482,"Ġhri":5483,"atrix":5484,"Ġmv":5485,"Ġthan":5486,"Acls":5487,"ĠLinkedHashMap":5488,"latform":5489,"getTest":5490,"Ġopt":5491,"Ġarr":5492,"CHAR":5493,"Lay":5494,"Accumulator":5495,"005":5496,"enable":5497,"ĠFloat":5498,"Lazy":5499,"ĠDatanode":5500,"getBoolean":5501,"ĠByteArrayOutputStream":5502,"Ġincrement":5503,"stone":5504,"apping":5505,"Ġunit":5506,"ĠAtomicLong":5507,"ĠCommand":5508,"IM":5509,"CoprocessorEnvironment":5510,"Unt":5511,"Each":5512,"Ġpassword":5513,"getMaster":5514,"ops":5515,"Word":5516,"DELETE":5517,"ĠKStream":5518,"Dummy":5519,"Ġcleanup":5520,"Dead":5521,"IST":5522,"Basic":5523,"ĠwaitFor":5524,"Final":5525,"pending":5526,"ĠClassLoader":5527,"RowBatch":5528,"ĠgetName":5529,"OBJECT":5530,"getLength":5531,"ĠCallable":5532,"Ġpayload":5533,"Ġmaximum":5534,"QUALI":5535,"emanticException":5536,"cfs":5537,"OI":5538,"CONTE":5539,"ublisher":5540,"Fixed":5541,"eq":5542,"ĠVALUES":5543,"Prop":5544,"ĠPair":5545,"Mark":5546,"ĠfileName":5547,"Ġview":5548,"ĠCompaction":5549,"\\\">":5550,"Bind":5551,"Member":5552,"Ġsubmit":5553,"Ġserialize":5554,"TestCase":5555,"ResourceManager":5556,"Based":5557,"ĠTreeMap":5558,"EM":5559,"ĠSSL":5560,"Ġclean":5561,"ĠCOL":5562,"requestBody":5563,"Chore":5564,"mill":5565,"ĠOrc":5566,"Sender":5567,"TestBase":5568,"ĠJdbc":5569,"Ġreplace":5570,"orrelation":5571,"When":5572,"getFirst":5573,"aming":5574,"jected":5575,"Ġunset":5576,"icsearch":5577,"ublish":5578,"CHECK":5579,"My":5580,"Failover":5581,"Ġds":5582,"Ġenable":5583,"getDecl":5584,"ĠTcp":5585,"}}":5586,"Ġ\"/\"":5587,"Flink":5588,"Ġmapper":5589,"ifiable":5590,"HOST":5591,"Marker":5592,"Deleted":5593,"ĠclassName":5594,"ĠDataStream":5595,"ĠObjectName":5596,"ExecutionState":5597,"uring":5598,"Replicas":5599,"orrupt":5600,"etter":5601,"Ġtables":5602,"getStart":5603,"ĠPactInteger":5604,"IsSet":5605,"Authorization":5606,"Ġexisting":5607,"mkdirs":5608,"serialized":5609,"Submission":5610,"Ġso":5611,"setBoolean":5612,"Ġdec":5613,"ales":5614,"Ranges":5615,"verse":5616,"ordinal":5617,"XX":5618,"ĠComponent":5619,"Preemption":5620,"FAILED":5621,"ynchronous":5622,"Clause":5623,"intValue":5624,"Account":5625,"Splits":5626,"getRegionInfo":5627,"RENT":5628,"used":5629,"option":5630,"LAB":5631,"ĠINTO":5632,"=%":5633,"SSION":5634,"ocksDB":5635,"Ttl":5636,"our":5637,"Cf":5638,"PROPERTY":5639,"Candidate":5640,"Logging":5641,"OLD":5642,"Ġtransport":5643,"Compute":5644,"ĠCompression":5645,"initial":5646,"plugin":5647,"Ġcompaction":5648,"Unsupported":5649,"Watch":5650,"compressed":5651,"spec":5652,"Orc":5653,"Consumers":5654,"ĠResources":5655,"Permissions":5656,"Replace":5657,"RY":5658,"ĠRO":5659,"Delimiter":5660,"AB":5661,"isTrace":5662,"atory":5663,"post":5664,"ĠExecutorService":5665,"Ġ']');":5666,"Through":5667,"QUALIFIER":5668,"Ġnetwork":5669,"ĠjobManager":5670,"datanode":5671,"sendBodyAndHeader":5672,"Ġks":5673,"Ġforce":5674,"(\"-":5675,"messages":5676,"Ġexpect":5677,"Ġmark":5678,"Ġdescriptor":5679,"Ġaddr":5680,"hentic":5681,"rainer":5682,"setValue":5683,"Ġdead":5684,"plain":5685,"acl":5686,"indexOf":5687,"compaction":5688,"CacheObject":5689,"ĠAd":5690,"GG":5691,"ython":5692,"Example":5693,"andatory":5694,"SerDe":5695,"STREAM":5696,"ĠProcedure":5697,"eries":5698,"ARR":5699,"Shell":5700,"Ġserialized":5701,"Preconditions":5702,"Entities":5703,"Lookup":5704,"uter":5705,"Logs":5706,"asyMock":5707,"JobVertex":5708,"access":5709,"Snapshots":5710,"Ġpermission":5711,"';":5712,"97":5713,"cursive":5714,"Loop":5715,"Tail":5716,"rency":5717,"JsonObject":5718,"Ġcols":5719,"EP":5720,"ExprNodeDesc":5721,"DataStream":5722,"Ġcompute":5723,"Dispatch":5724,"tems":5725,"Ġ?,":5726,"VAR":5727,"can":5728,"OFFSET":5729,"enter":5730,"Ġfinish":5731,"SecretManager":5732,"Sensor":5733,"Ġmulti":5734,"rary":5735,"formed":5736,"WOR":5737,"stats":5738,"Agg":5739,"Ġextract":5740,"Ġinvalid":5741,"Include":5742,"jar":5743,"Ġbind":5744,"qualTo":5745,"RESOURCE":5746,"čĠ":5747,"Jms":5748,"TOKEN":5749,"MANAGER":5750,"ĠSpark":5751,"peer":5752,"Cells":5753,"RequirementType":5754,"ium":5755,"END":5756,">>()":5757,"Ġtasks":5758,"cancel":5759,"ĠNO":5760,"Absent":5761,"Parameterized":5762,"ARD":5763,"Tri":5764,"normal":5765,"Ġ15":5766,"Histogram":5767,"ĠtearDown":5768,"Families":5769,"receive":5770,"MARY":5771,"timeline":5772,"PBImpl":5773,"seda":5774,">());":5775,"striction":5776,"Caller":5777,"IGNITE":5778,"Using":5779,"Disabled":5780,"Setup":5781,"Sample":5782,"ĠĠĠĠĠĠĠĠĠĠ":5783,"crease":5784,"ĠObjects":5785,"METRICS":5786,"Ġtopology":5787,"Person":5788,"ince":5789,"imiter":5790,"PEN":5791,"seek":5792,"Prepare":5793,"ĠĠĠĠĠĠĠĠĠĠĠ":5794,"AppAttempt":5795,"generic":5796,"content":5797,"Epoch":5798,"Dest":5799,"ĠLlap":5800,"IALI":5801,"multi":5802,"vi":5803,"Cores":5804,"Ġqualifier":5805,"after":5806,"ĠKTable":5807,"43":5808,"Subtask":5809,"Ġcurr":5810,"getIndex":5811,"abs":5812,"Ġkeep":5813,"scriber":5814,"hs":5815,"FACT":5816,"Allowed":5817,"oprot":5818,"YARN":5819,"|\\":5820,"Ġenabled":5821,"icted":5822,"ĠHdfs":5823,"ĠgetEndpoint":5824,"tools":5825,"Ġwhich":5826,"ĠLO":5827,"Verb":5828,"AfterClass":5829,"Func":5830,"Updated":5831,"Availability":5832,"OS":5833,"ian":5834,"Ġparallelism":5835,"getClassLoader":5836,"TypeName":5837,"LEAN":5838,"ĠHColumnDescriptor":5839,"ĠBlob":5840,"Ratio":5841,"arge":5842,"Transformation":5843,"cers":5844,"Ġ\"--":5845,"lers":5846,"Ġggfs":5847,"https":5848,"Ġast":5849,"ĠScheduler":5850,"rel":5851,"loud":5852,"Main":5853,"Pr":5854,"Ġbec":5855,"Ġ[\"":5856,"Cleaner":5857,"Ġblob":5858,"DELI":5859,"done":5860,"termin":5861,"delay":5862,"Ġevaluate":5863,"ĠcreateTable":5864,"Ġdatabase":5865,")(":5866,"math":5867,"IfAbsent":5868,"ĠSnapshot":5869,"Ġstarted":5870,"some":5871,"FieldMetaData":5872,"Multipart":5873,"Caching":5874,"ClusterId":5875,"FILTER":5876,"void":5877,"ĠstartGrid":5878,"peating":5879,"BufferException":5880,"Ġunknown":5881,"Maps":5882,"Ġdate":5883,"moized":5884,"ityMode":5885,"ention":5886,"Termin":5887,"Gauge":5888,"Ġthrown":5889,"isTraceEnabled":5890,"ryo":5891,"getComponent":5892,"onical":5893,"ArrayEquals":5894,"Ġttl":5895,"snr":5896,"ResourceRequest":5897,"ĠIgniteBi":5898,"WA":5899,"67":5900,"Right":5901,"coming":5902,"ench":5903,"qp":5904,"avg":5905,"edded":5906,"Prev":5907,"pto":5908,"Cli":5909,"ortable":5910,"Ġdn":5911,"lution":5912,"\\\"\\":5913,"capacity":5914,"controller":5915,"ĠPerson":5916,"Sets":5917,"Ġnonce":5918,"Ġreplica":5919,"Ġreturned":5920,"Ġudf":5921,"ndiRegistry":5922,"aught":5923,"ProtocolBufferException":5924,"Insert":5925,"columnFamily":5926,"vis":5927,"covered":5928,"ApplicationId":5929,"lex":5930,"mpo":5931,"rieve":5932,"Extended":5933,"ends":5934,"Ġexists":5935,"Ġtimer":5936,"peek":5937,"://\"":5938,"Sasl":5939,"Ġpredicate":5940,"MemorySegment":5941,"ĠuserName":5942,"forName":5943,"509":5944,"CKET":5945,"Ġseq":5946,"Can":5947,"Coded":5948,"UNK":5949,"protocolrecords":5950,"ĠIgniteInternalFuture":5951,"Listen":5952,"VENT":5953,"InputGate":5954,"getTimestamp":5955,"Finish":5956,"cr":5957,"Written":5958,"auto":5959,"getEnvironment":5960,"AndSet":5961,"ĠDatabaseDescriptor":5962,"MODE":5963,"Kernal":5964,"MXBean":5965,"PointerException":5966,"proxy":5967,"Ġmore":5968,"ĠInvo":5969,"OKE":5970,"interpreter":5971,"SCHEMA":5972,"199":5973,"EqualTo":5974,"getShort":5975,"Ġ})":5976,"pool":5977,"Ġscript":5978,"alesforce":5979,"Ġevents":5980,"Packet":5981,"ĠPrimitive":5982,"Ġpred":5983,"InvalidProtocolBufferException":5984,"IME":5985,">>(":5986,"trigger":5987,"appId":5988,"getColumnFamily":5989,"ules":5990,"Stopped":5991,"Ġrepl":5992,"ĠDataOutput":5993,"Ġrestore":5994,"Ġcomplete":5995,"Letter":5996,"ĠReservation":5997,"Connected":5998,"Ġ\":\"":5999,"archive":6000,"member":6001,"ĠJSON":6002,"ĠSemanticException":6003,"udit":6004,"non":6005,"ĠGraph":6006,"ĠReduce":6007,"Zone":6008,"Ġblocks":6009,"daemon":6010,"Ġprocessing":6011,"Ġutil":6012,"ĠMockRM":6013,"loader":6014,"Ġcompression":6015,"policy":6016,"Any":6017,"Ġmove":6018,"anoTime":6019,"Ġ11":6020,"ĠHadoop":6021,"Ġpresent":6022,"ĠByteBufferUtil":6023,"Decod":6024,"MetricGroup":6025,"Ġdef":6026,"InProgress":6027,"Conversion":6028,"clazz":6029,"Ns":6030,"Exchanges":6031,"LAY":6032,"CallExpression":6033,"aggregate":6034,"Ġallocated":6035,"ĠTaskManager":6036,"FieldsQuery":6037,"UND":6038,"MR":6039,"Ġmaybe":6040,"Savepoint":6041,"ĠAST":6042,"BulkLoad":6043,"Dataset":6044,"endsWith":6045,"second":6046,"amb":6047,"Bridge":6048,"tokenSet":6049,"required":6050,"Ġsd":6051,"ĠUTIL":6052,"Verify":6053,"izedRowBatch":6054,"Ġfoo":6055,"Ġmbean":6056,"ecycle":6057,"zip":6058,"Ġbs":6059,"ĠPRI":6060,"Do":6061,"incrementAndGet":6062,"mpotent":6063,"qry":6064,"ĠFI":6065,"Ġnotify":6066,"near":6067,"ggfs":6068,"Ġconfigured":6069,"LONG":6070,"ume":6071,"ingleton":6072,"atest":6073,"Delimited":6074,"Closeable":6075,"Comment":6076,"006":6077,"ĠYarnException":6078,"SUB":6079,"THREAD":6080,"Ġses":6081,"ĠSocket":6082,"ĠRef":6083,"VALID":6084,"Ġpartitioner":6085,"KV":6086,"ListBegin":6087,"DFSCluster":6088,"examples":6089,"ala":6090,"Clock":6091,"urge":6092,"Head":6093,">\\":6094,"BL":6095,"codec":6096,"Ġreply":6097,"matcher":6098,"ĠUpdate":6099,"Ġreplic":6100,"BlockingQueue":6101,"doc":6102,"original":6103,"IllegalArgumentException":6104,"pax":6105,"65":6106,"ĠtestGet":6107,"objectinspector":6108,"Release":6109,"createTable":6110,"Ġ50":6111,"parts":6112,"odb":6113,"dOther":6114,"resources":6115,"Ġcp":6116,"Ġtrace":6117,"aa":6118,"ForType":6119,"Ġ60":6120,"gular":6121,"Ġter":6122,"ĠBigInteger":6123,"Registered":6124,"anos":6125,"Jmx":6126,"ĠfieldName":6127,"SyntaxException":6128,"ĠAction":6129,"iling":6130,"TokenIdentifier":6131,"NOWN":6132,"Anal":6133,"Ġugi":6134,"InstanceOf":6135,"Alter":6136,"Listing":6137,"ĠStringBuffer":6138,"currency":6139,"Ġrequire":6140,"Ġtokens":6141,"stru":6142,"RegionName":6143,"Durable":6144,"modifiable":6145,"Until":6146,"08":6147,"ĠmethodName":6148,"HBASE":6149,"Notification":6150,"ĠregionInfo":6151,"schedule":6152,"========":6153,"Ġspark":6154,"setField":6155,"sw":6156,"LOAD":6157,"Nonnull":6158,"WORD":6159,"Ġaff":6160,"Strings":6161,"(()":6162,"Free":6163,"xNode":6164,"ĠPlan":6165,"UnknownFields":6166,"ĠbatchSize":6167,"iven":6168,"Composite":6169,"avig":6170,"sole":6171,"Calculator":6172,"ĠBatch":6173,"Has":6174,"cv":6175,"ftp":6176,"sequence":6177,"cacheId":6178,"IVE":6179,"Ġgrp":6180,"CommitLog":6181,"Pages":6182,"getCache":6183,"Ġsplits":6184,"udf":6185,"TRANS":6186,"finish":6187,"Lib":6188,"optim":6189,"getTotal":6190,"mergeFrom":6191,"Ġinsert":6192,"hip":6193,"ift":6194,"Trust":6195,"Project":6196,"ĠSecurity":6197,"anners":6198,"ru":6199,"Ġallocation":6200,"95":6201,"ĠInstance":6202,"ĠMulti":6203,"Plus":6204,"ObjectException":6205,"Communication":6206,"Certificate":6207,"ways":6208,"ĠCFMetaData":6209,"Barrier":6210,"arity":6211,"Ġmemoized":6212,"Nested":6213,"dentifier":6214,"RUNNING":6215,"Ġsender":6216,"Ġassignment":6217,"41":6218,"Ġallocate":6219,"Ġregistered":6220,"Ġpass":6221,"FailedException":6222,"Cause":6223,"Placement":6224,"script":6225,"RpcController":6226,"TcpDiscovery":6227,"ĠLOGGER":6228,"Ġupdated":6229,"ĠpageId":6230,"75":6231,"HBaseCluster":6232,"Expressions":6233,"straint":6234,"Connections":6235,"Diff":6236,"ĠLock":6237,"Top":6238,"Ġlevel":6239,"._":6240,"Trac":6241,"NodeLabels":6242,"Ġtree":6243,"][":6244,"----------------":6245,"dht":6246,"hri":6247,"())));":6248,"ĠPrivilege":6249,"USE":6250,"consistency":6251,"ĠserverName":6252,"oring":6253,"TEMP":6254,"SUCCESS":6255,"licies":6256,"Ġtransform":6257,"allow":6258,"istory":6259,"OutOf":6260,"pattern":6261,"Ġsl":6262,"mbstone":6263,"see":6264,"TIAL":6265,"ShipStrategy":6266,"ĠresourceManager":6267,"RecordReader":6268,"bb":6269,"quet":6270,"ĠgetType":6271,"ĠQ":6272,"Assignable":6273,"getLast":6274,"Scalar":6275,"Tra":6276,"Ġsame":6277,"Bit":6278,"Buckets":6279,"ĠPlatform":6280,"mix":6281,"ĠClassNotFoundException":6282,"Weight":6283,"MessagingService":6284,"Gu":6285,"getRM":6286,"cend":6287,"ĠPARSER":6288,"Ġbecause":6289,"Estim":6290,"Ġsupport":6291,"ĠEnvironment":6292,"Execute":6293,"Evalu":6294,"pan":6295,"Dr":6296,"128":6297,"SIST":6298,"ZER":6299,"olders":6300,"Ġreference":6301,"xx":6302,"ĠGB":6303,"Distribution":6304,"{{":6305,"Ġhdfs":6306,"Generics":6307,"ĠComparator":6308,"Ġagg":6309,"Specs":6310,"Ġclosed":6311,"Ġdispatcher":6312,"resolved":6313,"ĠtmpMap":6314,"Qry":6315,"getCamelContext":6316,"mpp":6317,"OrCreate":6318,"ĠVal":6319,"rename":6320,"IgniteCache":6321,"TF":6322,"=#":6323,"NoSuch":6324,"eigh":6325,"jid":6326,"global":6327,"UserName":6328,"LlapDaemon":6329,"\")),":6330,"Ġclone":6331,"Ġcompact":6332,"constant":6333,"XmlApplicationContext":6334,"ĠCatalog":6335,"PoolSize":6336,"Transform":6337,"APP":6338,"separator":6339,"Ġ\").":6340,"ĠMo":6341,"201":6342,"ĠVariable":6343,"mbedded":6344,"Peek":6345,"CLO":6346,"Formatter":6347,"ĠExecutionEnvironment":6348,"HEAP":6349,"Ġhel":6350,"arguments":6351,"iolation":6352,"ĠĠĠĠĠĠĠĠĠĠĠĠ":6353,"Ġflink":6354,"Pred":6355,"Structure":6356,"-\"":6357,"Ġexit":6358,"sgi":6359,"ducers":6360,"Ġsequence":6361,"eep":6362,"ached":6363,"ynpred":6364,"getEncoded":6365,"Language":6366,"gration":6367,"Ġbb":6368,"Ġalter":6369,"sink":6370,"events":6371,"Math":6372,"))));":6373,"Login":6374,"Components":6375,"dec":6376,"Ġexclude":6377,"Attempts":6378,"ĠgetKey":6379,"HT":6380,"dk":6381,"YY":6382,"AV":6383,"Ġbl":6384,"cls":6385,"notify":6386,"ilation":6387,"ĠSpring":6388,"Placeh":6389,"ExtensionRegistry":6390,"Gen":6391,"include":6392,"runner":6393,"TopologyVersion":6394,"Ġ~":6395,"Caches":6396,"EXEC":6397,"toUri":6398,"ĠError":6399,"iases":6400,"Stripe":6401,"Man":6402,"Updater":6403,"ĠBATCH":6404,"Sl":6405,"coprocessor":6406,"MER":6407,"CNT":6408,"Ġcv":6409,"Ġkafka":6410,"fromString":6411,"ĠblockSize":6412,"();)":6413,"parser":6414,"longValue":6415,"Ġdelay":6416,"ĠOrder":6417,"Ġprobe":6418,"KvState":6419,"OVER":6420,"ĠgetMax":6421,".\";":6422,"ĠNetwork":6423,"Starting":6424,"StateData":6425,"ĠNote":6426,"Ġld":6427,"Ġos":6428,"allback":6429,"Refresh":6430,"ĠTIME":6431,"DED":6432,"Tez":6433,"notNull":6434,"ĠNULL":6435,"Ġ\"&":6436,"ĠSopremo":6437,"ĠEd":6438,"PlanNode":6439,"Ġ10000":6440,"ĠThis":6441,"ĠPredicate":6442,"OOP":6443,"Remaining":6444,"ĠTType":6445,"numberOf":6446,"Ind":6447,"Bootstrap":6448,"ĠST":6449,"Ġrmt":6450,"ĠWrite":6451,"Counts":6452,"wd":6453,"Invoke":6454,"ĠgetValue":6455,"Native":6456,"ĠSU":6457,"logger":6458,"ExecutionGraph":6459,"author":6460,"ĠGridTestUtils":6461,"IgniteCheckedException":6462,"assertIs":6463,"Ġpaths":6464,"Ġallowed":6465,"disable":6466,"ĠBigDecimal":6467,"ĠNetty":6468,"wri":6469,"Union":6470,"Bye":6471,"directory":6472,"'s":6473,"Repl":6474,"Ġweb":6475,"CONNECT":6476,"CamelException":6477,"pendency":6478,"ĠOperation":6479,"Shim":6480,"Ġupload":6481,"inct":6482,"ADOOP":6483,"Ġhead":6484,"BloomFilter":6485,"Lite":6486,"(\"\\\"":6487,"ĠbrokerService":6488,"Netty":6489,"RDD":6490,"InUse":6491,"Ġprogress":6492,"milliseconds":6493,"JO":6494,"TypeConverter":6495,"Ġdescribe":6496,"Ġyou":6497,"pipe":6498,"forEach":6499,"isRepeating":6500,"Subtasks":6501,"Ġtags":6502,"putAll":6503,"Ġ32":6504,"UTE":6505,"StoreKey":6506,"deliver":6507,"achine":6508,"gt":6509,"Ġob":6510,"023":6511,"ĠEMPTY":6512,"StateDescriptor":6513,">\",":6514,"ongo":6515,"INPUT":6516,"marshaller":6517,"FieldType":6518,"TOK":6519,"Original":6520,"ĠJms":6521,"ĠApp":6522,"ched":6523,"QUI":6524,"fully":6525,"Ja":6526,"Pass":6527,"Ġjar":6528,"LoadBalancer":6529,"[]{\"":6530,"87":6531,"Functions":6532,"ProtobufUtil":6533,"Cast":6534,"Evol":6535,"ĠOM":6536,"ned":6537,"owner":6538,"Secure":6539,"Decoder":6540,"getRoot":6541,"PR":6542,"sFor":6543,"CacheSize":6544,"getProperties":6545,"63":6546,"enabled":6547,"sy":6548,"IgniteTx":6549,"Idle":6550,"worker":6551,"Ġdump":6552,"checkAnd":6553,"Evolving":6554,"tail":6555,"Ġunder":6556,"ĠAS":6557,"Audit":6558,"pass":6559,"registry":6560,"Secondary":6561,"Marshal":6562,"shared":6563,"Ġmethods":6564,"OUTPUT":6565,"interval":6566,"Grouped":6567,"answer":6568,"ĠbufferSize":6569,"ĠJobConf":6570,"ĠDriver":6571,"containerId":6572,"ĠFieldMetaData":6573,"Step":6574,"LABEL":6575,"scanner":6576,"Ġservers":6577,"isEqualTo":6578,"acklist":6579,"readListBegin":6580,"ĠIgnitePredicate":6581,"ysical":6582,"Ġns":6583,"Ġorig":6584,"parameter":6585,"Ġsecret":6586,"ĠTcpDiscovery":6587,"aos":6588,"leader":6589,"Upper":6590,"Swap":6591,"Ġ30":6592,"Ġlow":6593,"itional":6594,"Ġoutputs":6595,"Ġ40":6596,"Ġevt":6597,"]).":6598,"><":6599,"EVENT":6600,"BytesWritable":6601,"Ġcondition":6602,"TERN":6603,"Ġduration":6604,"uses":6605,"Box":6606,"servlet":6607,"NotEmpty":6608,"unmodifiable":6609,"RESH":6610,"Ġencoding":6611,"sul":6612,"FORMAT":6613,"Inner":6614,"ĠEvaluationExpression":6615,"Produce":6616,"Ġ13":6617,"Shuffle":6618,"Fault":6619,"ictionary":6620,"convertTo":6621,"Scm":6622,"ceiverClient":6623,"/\"":6624,"ci":6625,"ĠgetTable":6626,"Ġleaf":6627,"ĠDestination":6628,"precation":6629,"getToken":6630,"Rack":6631,"Sent":6632,"getCluster":6633,"ĠMetadata":6634,"fieldName":6635,"illed":6636,"Poll":6637,"ĠVertex":6638,"before":6639,"ĠNullPointerException":6640,"DBC":6641,"Operators":6642,"HttpClient":6643,"Ġeq":6644,"jector":6645,"Matrix":6646,">\"":6647,"Ġflow":6648,"Rec":6649,"Hex":6650,"dn":6651,"isAssignable":6652,"unknown":6653,"ĠFBUtilities":6654,"ĠĠĠĠĠĠĠĠĠĠĠĠĠĠĠĠĠ":6655,"025":6656,"ĠCOMP":6657,"environment":6658,"ww":6659,"2000":6660,"Ġmutation":6661,"Located":6662,"Retrieve":6663,"encode":6664,"ĠThreadLocal":6665,"xff":6666,"eric":6667,"assertIsSatisfied":6668,"Ġcontain":6669,"ĠTestSuite":6670,"getFamily":6671,"setUp":6672,"getDeclared":6673,"Kill":6674,"ĠOp":6675,"distributed":6676,"ĠcheckNotNull":6677,"SuperColumn":6678,"pipeline":6679,"Logical":6680,"Ġenvironment":6681,"tracking":6682,"ilt":6683,"Ġdue":6684,"Forward":6685,"Ġfinished":6686,"getParameters":6687,"arraycopy":6688,"Visor":6689,"ĠDataInput":6690,"egative":6691,"Ġrand":6692,"ChannelID":6693,"KS":6694,"Ġdoesn":6695,"ueprint":6696,"uting":6697,"())).":6698,"primary":6699,"getStore":6700,"++]":6701,"cached":6702,"Nonce":6703,"Ġ'\\":6704,"SQLException":6705,"ĠRPC":6706,"Qualified":6707,"Ġconsistency":6708,"Ready":6709,"Degree":6710,"ĠPAGE":6711,"Minimum":6712,"Ġcontainers":6713,"ĠPermission":6714,"AUTO":6715,"atform":6716,"Replay":6717,"getJobID":6718,"ĠArg":6719,"ONSE":6720,"Ġ200":6721,"Ġauto":6722,"ho":6723,"GR":6724,"Ġpush":6725,"Ġtail":6726,"Expired":6727,"Ġ{},":6728,"Ġvariable":6729,"readLock":6730,"RuntimeContext":6731,"ALLOC":6732,"HDFS":6733,"StartTime":6734,"Router":6735,"Ġdefinition":6736,"ROP":6737,"ĠHBaseTestingUtility":6738,"vided":6739,"MetaMethod":6740,"OPEN":6741,"Ġ^":6742,"Ġsleep":6743,"mode":6744,"RESP":6745,"stand":6746,"(\".":6747,"ĠAdd":6748,"ground":6749,"Tmp":6750,"Ġprovider":6751,"ĠmetaData":6752,"WORK":6753,"BitSet":6754,"JobStatus":6755,"stanti":6756,"Edges":6757,"eclip":6758,"Than":6759,"eclipse":6760,"URE":6761,"ynchronization":6762,"ĠAuth":6763,"setLong":6764,"llp":6765,"Analyz":6766,"ĠShort":6767,"Ġmut":6768,"Rollback":6769,"ExtensionRegistryLite":6770,"WITH":6771,"filtered":6772,"ĠexpectedOutput":6773,"<?>)":6774,"try":6775,"GroupInfo":6776,"nxn":6777,"sPer":6778,"exam":6779,"imp":6780,"ORAGE":6781,"CamelTestSupport":6782,"Ġalias":6783,"OD":6784,"getSource":6785,"getServerName":6786,"quent":6787,"ĠbucketName":6788,"MemstoreSize":6789,"Cat":6790,"PT":6791,"lt":6792,"LATE":6793,"SIG":6794,"Paragraph":6795,"ĠAuthentication":6796,"ĠCU":6797,"cision":6798,"inted":6799,"Ġinst":6800,"ĠassertIs":6801,"plicit":6802,"AUTH":6803,"It":6804,"Ġelements":6805,"completed":6806,"TRUE":6807,"etwe":6808,"getAttribute":6809,"High":6810,"VM":6811,"Parsed":6812,"Getter":6813,"Health":6814,"ĠBe":6815,"getCount":6816,"69":6817,"Import":6818,"ĠNOT":6819,"Ġaccept":6820,"volumeName":6821,"orc":6822,"lushed":6823,"ĠTypes":6824,"Ġinterval":6825,"cending":6826,"Separator":6827,"JobConf":6828,"Visibility":6829,"Keep":6830,"etween":6831,"Csv":6832,"TimeoutException":6833,"HASH":6834,"Temporary":6835,"BufferPool":6836,"Layout":6837,"Ġimpl":6838,"stmt":6839,"Mob":6840,"]\",":6841,"ifest":6842,"versed":6843,"Ġhbase":6844,"Ġwrong":6845,"readLong":6846,"Mon":6847,"Ġattributes":6848,"ializers":6849,"ET":6850,"Positions":6851,"Ġdos":6852,"unmarshal":6853,"ĠOutputStream":6854,"isAssignableFrom":6855,"ĠCOLUMN":6856,"()];":6857,"SERIALI":6858,"ĠAccessControl":6859,"1111":6860,"Compatibility":6861,"52":6862,"62":6863,"Ġdelta":6864,"HashCode":6865,"Conditional":6866,"getGroup":6867,"getFileStatus":6868,"AMETER":6869,"getEncodedName":6870,"BACK":6871,"KeyInfo":6872,"Locks":6873,"ĠJobManager":6874,"Med":6875,"TERAL":6876,"79":6877,"ense":6878,"Ġiteration":6879,"SYNC":6880,"Ġscm":6881,"Ġcapacity":6882,"Mail":6883,"Ġyarn":6884,"ĠTestUtils":6885,"AF":6886,"JUnit":6887,"exit":6888,"ConstantExpression":6889,"CommandLine":6890,"Annot":6891,"ĠexecutorService":6892,"ĠEnumSet":6893,"timer":6894,"Ġspace":6895,"dle":6896,"Ġdist":6897,"EndpointInject":6898,"Trainer":6899,"\",\"":6900,"jobgraph":6901,"ĠByteArrayInputStream":6902,"pipeInput":6903,"Ġtracker":6904,"dential":6905,"Ġremoved":6906,"registered":6907,"Ġproject":6908,"Ġsingle":6909,"ĠElement":6910,"ĠUtils":6911,"ĠAv":6912,"Ġheartbeat":6913,"ĠRowMutation":6914,"MIC":6915,"getConfig":6916,"ĠReader":6917,"StandardScheme":6918,"rok":6919,"ĠinputStream":6920,"Flow":6921,"lator":6922,"helper":6923,"ĠCounter":6924,"spection":6925,"ĠStorageService":6926,"51":6927,"icro":6928,"SEC":6929,"74":6930,"Assigned":6931,"OffHeap":6932,"SSTables":6933,"ĠBufferedReader":6934,"Ġcfm":6935,"ipient":6936,"STATUS":6937,"5000":6938,"sistent":6939,"iddle":6940,"readI":6941,"ColumnStatistics":6942,"Ġchecksum":6943,"localNode":6944,"ĠhiveConf":6945,"setKey":6946,"login":6947,"ambda":6948,"ASTNode":6949,"Ġscope":6950,"AutoConfiguration":6951,"LlapDaemonProtocolProtos":6952,"tn":6953,"ĠGlobal":6954,"Ġranges":6955,"PersistenceAdapter":6956,"ĠDecimal":6957,"Identity":6958,"CAL":6959,"nc":6960,"itch":6961,"Ġcc":6962,"Filename":6963,"ĠReturn":6964,"89":6965,"stub":6966,"compression":6967,"PEC":6968,"dempotent":6969,"arded":6970,"RecordWriter":6971,"ouse":6972,"retry":6973,":\\":6974,"Delivery":6975,"Acid":6976,"Grant":6977,"LY":6978,"abc":6979,"Ġfilename":6980,"ĠtypeInfo":6981,"Author":6982,"ĠSplit":6983,"ĠclientId":6984,"mqp":6985,"Term":6986,"ĠBrokerService":6987,"RC":6988,"ĠContextTestSupport":6989,"getService":6990,"Ġsn":6991,"ĠGridClient":6992,"cnt":6993,"inner":6994,"createConnection":6995,"InputChannel":6996,"CAT":6997,"contract":6998,"interrupt":6999,"alias":7000,"ans":7001,"ResultPartition":7002,"Agent":7003,"Ġ@@":7004,"secret":7005,"DFSConfigKeys":7006,"Foo":7007,"Mer":7008,"decode":7009,"estim":7010,"Consts":7011,"Ġspi":7012,"lookup":7013,"TestHelper":7014,"ĠActiveMQConnectionFactory":7015,"ĠValid":7016,"rospection":7017,"ĠSorted":7018,"UserGroupInformation":7019,"Readable":7020,"oun":7021,"Cipher":7022,"regex":7023,"urer":7024,"Users":7025,"04":7026,"Ġ\"?":7027,"ĠAmazon":7028,"Notifier":7029,"ĠVV":7030,"JsonProperty":7031,"PARAMETER":7032,"ĠProperty":7033,"ained":7034,"inality":7035,"ĠCapacity":7036,"ĠEasyMock":7037,"Ġedges":7038,"Zero":7039,"Charsets":7040,"fut":7041,"Ġwaiting":7042,"MSG":7043,"ham":7044,"props":7045,"lementation":7046,"STEM":7047,"regionName":7048,"finispan":7049,"Receive":7050,"Ġcap":7051,"Publisher":7052,"ConfigurationProperties":7053,"Ġalt":7054,"Allow":7055,"solation":7056,"ĠCamelTestSupport":7057,"METH":7058,"RECT":7059,"AbstractTest":7060,"Exclude":7061,"):":7062,"Ġ>>>":7063,"Ġmini":7064,"InetSocketAddress":7065,"isDirectory":7066,"Ġvia":7067,"setType":7068,"Retention":7069,"nanoTime":7070,"Ġfree":7071,"fferent":7072,"storm":7073,"Ġ}).":7074,"dead":7075,"ĠsharingGroup":7076,"sBy":7077,"ĠTopology":7078,"regionInfo":7079,"getDestination":7080,"intern":7081,"GridGgfs":7082,"MetadataManager":7083,"countDown":7084,"ĠSTRING":7085,"opt":7086,"ĠClose":7087,"CEPTION":7088,"getResponse":7089,"ĠgetTest":7090,"Ġusage":7091,"getAdmin":7092,"Ġrename":7093,"TextMessage":7094,"ĠSCM":7095,"MOVE":7096,"ContextTestSupport":7097,"RESPONSE":7098,"ĠFail":7099,"primitive":7100,"getServer":7101,"ĠArgument":7102,"Ġreuse":7103,"clusterResource":7104,"NET":7105,"[].":7106,"Compiler":7107,"Initialization":7108,"NEW":7109,"enchmark":7110,"avored":7111,"Ġgot":7112,"persistence":7113,"language":7114,"ĠStoreFile":7115,"FieldSchema":7116,"nse":7117,"Ġvar":7118,"Under":7119,"dOut":7120,"Ġlookup":7121,"Fragment":7122,"RU":7123,"Ġcalc":7124,"backup":7125,"reply":7126,"writeLong":7127,"rokers":7128,"redentials":7129,"ĠMatch":7130,"ranch":7131,"pageId":7132,"LS":7133,"raction":7134,"Ġhb":7135,"LogDir":7136,"Convert":7137,"SUM":7138,"{}\",":7139,"fam":7140,"ĠAc":7141,"className":7142,"selectedInUse":7143,"getException":7144,"Book":7145,"ged":7146,"Ġ31":7147,"pth":7148,"ArrayNode":7149,"Calls":7150,"Ġrnd":7151,"Requested":7152,"ĠWork":7153,"Ġstripe":7154,"Ġgiven":7155,"IpFinder":7156,"CUR":7157,"Nanos":7158,"ĠRet":7159,"Device":7160,"rying":7161,"ĠIgniteException":7162,"running":7163,"Ġattr":7164,"AtomicityMode":7165,"getApplicationId":7166,"ULTI":7167,"BaseHelper":7168,"attributes":7169,"filename":7170,"(\"[":7171,"Unique":7172,"Ġprincipal":7173,"mer":7174,"illing":7175,"ADMIN":7176,"ĠassertIsInstanceOf":7177,"Pe":7178,"Ġaggregation":7179,"Ix":7180,"compress":7181,"predicate":7182,"Parallel":7183,"struction":7184,"'\",":7185,"Ġrestart":7186,"ĠGridCacheVersion":7187,"SpaceQuota":7188,"ObjectIterator":7189,"Ġheap":7190,"addr":7191,"Splitter":7192,"SerializedSize":7193,"synpred":7194,"fe":7195,"Ġrole":7196,"Jaql":7197,"eded":7198,"Ġbound":7199,"Times":7200,"ither":7201,"ĠMutation":7202,"FilterStrategy":7203,"dst":7204,"where":7205,"compact":7206,"ĠCached":7207,"Igfs":7208,"two":7209,"PUB":7210,"STIC":7211,"Small":7212,"ĠRocksDB":7213,"igfs":7214,"ĠTProtocol":7215,"portable":7216,"RowKey":7217,"StateManager":7218,"parseFrom":7219,"Ġhostname":7220,"00000004":7221,"Resolve":7222,"Ġentities":7223,"ĠCassandra":7224,"Day":7225,"Ġconverter":7226,"typeinfo":7227,"ĠComparable":7228,"template":7229,"ĠnewValue":7230,"Stores":7231,"EW":7232,"licit":7233,"Ġ>>":7234,"Ġreal":7235,"strategy":7236,"ĠjobID":7237,"Leg":7238,"Ġconstructor":7239,"Virtual":7240,"Unstable":7241,"Redelivery":7242,".__":7243,"rt":7244,"StringLiteral":7245,"ApplicationState":7246,"Ġserde":7247,"paired":7248,"pings":7249,"Ġduring":7250,"txn":7251,"WriteLock":7252,"Modified":7253,"iaType":7254,"NON":7255,"replaceAll":7256,"Ġstub":7257,"ĠManaged":7258,"MBeanServer":7259,"ĠDB":7260,"LIT":7261,"hing":7262,"Ġlink":7263,"WE":7264,"RESULT":7265,"CONNECTION":7266,"Ġht":7267,"Ġsel":7268,"017":7269,"Specification":7270,"Ġ\".\"":7271,"ints":7272,"Attr":7273,"ĠJMSException":7274,"Election":7275,"Toler":7276,"gate":7277,"toList":7278,"KEYS":7279,"ĠexpectedKeys":7280,"Ġtesting":7281,"ĠinputGate":7282,"Consistency":7283,"Low":7284,"?,":7285,"shake":7286,"Ġ14":7287,"HttpServlet":7288,"Ġreporter":7289,"cleanup":7290,"5678":7291,"StreamsConfig":7292,"ĠTe":7293,"026":7294,"ceeded":7295,"ConnectionInfo":7296,"Continuous":7297,"Ġnested":7298,"ĠContainerId":7299,"Assigner":7300,"Ġauthor":7301,"getOption":7302,"Ġendpoints":7303,"ĠAffinity":7304,"PAGE":7305,"Ġ\"\"":7306,"HED":7307,"07":7308,"ĠOne":7309,"ĠBlocking":7310,"ACLs":7311,"Calendar":7312,"Combin":7313,"ĠConsistencyLevel":7314,"SHA":7315,"getRemote":7316,"ĠDataOutputStream":7317,"Edits":7318,"maximum":7319,"Ġdeleted":7320,"Ġattribute":7321,"Ġnotebook":7322,"ĠCustom":7323,"OperationType":7324,"emptyMap":7325,"ĠPrivileged":7326,"transactions":7327,"chunk":7328,"CompletableFuture":7329,"Product":7330,"ĠTimeout":7331,"Ġretrieve":7332,"Captor":7333,"ĠCACHE":7334,"FieldSet":7335,"Comparable":7336,"Ġloader":7337,"ĠLI":7338,"Force":7339,"Prepared":7340,"reater":7341,"Waiting":7342,"ĠgetCurrent":7343,"Sys":7344,"children":7345,"alter":7346,"ĠTypeInfo":7347,"ĠclassNode":7348,"getVersion":7349,"ExceptionHandler":7350,"ĠPortable":7351,"Streamer":7352,"getObject":7353,"Ġag":7354,"Interrupted":7355,"pended":7356,"Ġusername":7357,"Ġcodec":7358,"Replicated":7359,"Tab":7360,"MemorySize":7361,"ĠAllocation":7362,"IfNeeded":7363,"(\"{}":7364,"Arr":7365,"backtracking":7366,"Docker":7367,"assertNull":7368,"':":7369,"Ġcalled":7370,"FieldValue":7371,"EventListener":7372,"UNCTION":7373,"Ġass":7374,"027":7375,"Ġparsed":7376,"SchedulerConfiguration":7377,"ĠMessagingService":7378,"advance":7379,"getParameter":7380,"FileNotFoundException":7381,"Ġestim":7382,"ĠManagement":7383,"REG":7384,"ĠFileUtils":7385,"Ġvert":7386,"Limits":7387,"LinkedList":7388,"Compressed":7389,"listener":7390,"Tombstone":7391,"getVolume":7392,"Ġozone":7393,"tach":7394,"ĠregionName":7395,"Windowed":7396,"ITCase":7397,"ĠEdge":7398,"AccessControl":7399,"none":7400,"Ġmemstore":7401,"tend":7402,"SharingGroup":7403,"ĠTemp":7404,"compiler":7405,"setInput":7406,"TestHarness":7407,"uffff":7408,"tifact":7409,"araf":7410,"IDs":7411,"TIES":7412,"crest":7413,"failure":7414,"priority":7415,"getMethods":7416,"ĠsetProperty":7417,"06":7418,"CLOSE":7419,"(\"\",":7420,"Coding":7421,"ARATOR":7422,"ONENT":7423,"lasticsearch":7424,"Fast":7425,"PASS":7426,"kernalContext":7427,"Ġmvcc":7428,"UNKNOWN":7429,"Ġconstant":7430,"blob":7431,"edge":7432,"DirPath":7433,"ĠThrift":7434,"grp":7435,"going":7436,"Ca":7437,"iagnostics":7438,"eighb":7439,"ĠVersion":7440,"stack":7441,"TRY":7442,"ĠPriority":7443,"Online":7444,"hiveConf":7445,"Beh":7446,"Ġreceive":7447,"setNum":7448,"METADATA":7449,"Cfs":7450,"getMetrics":7451,"TupleScheme":7452,"NOW":7453,"Existing":7454,"ĠConfigurationException":7455,"prop":7456,"usted":7457,"********":7458,"MAR":7459,"ĠresultEndpoint":7460,"Policies":7461,"getStorage":7462,"unct":7463,"ĠSp":7464,"DIS":7465,"Persistent":7466,"bose":7467,"ĠBean":7468,"Ġmissing":7469,"Ġcursor":7470,"ĠFileInputStream":7471,"stinations":7472,"Previous":7473,"ĠpageSize":7474,"hamcrest":7475,"ĠACC":7476,"Ġpoll":7477,"pose":7478,"<?>[]":7479,"Mappings":7480,"FBUtilities":7481,"Om":7482,"ĠComposite":7483,"Cycle":7484,"Exclusive":7485,"ĠtypedOther":7486,"Ġsorted":7487,"OfParallelism":7488,"ĠCacheEntry":7489,"iet":7490,"ĠgetNext":7491,"MASK":7492,"previous":7493,"Ġnn":7494,"ĠgetPort":7495,"SchedulerEvent":7496,"rw":7497,"boss":7498,"UGI":7499,"Ġapi":7500,"ĠY":7501,"ALOG":7502,"ĠPipeline":7503,"vision":7504,"Backoff":7505,"getRequest":7506,"LEVE":7507,"dump":7508,"SOURCE":7509,"ount":7510,"side":7511,"isNotEmpty":7512,"regions":7513,"REQUI":7514,"ĠAggregation":7515,"abe":7516,"TestData":7517,"ZED":7518,"groupId":7519,"ĠScheduledUnit":7520,"ĠSerdes":7521,"Modify":7522,"filing":7523,"ĠWriter":7524,"MapJoin":7525,"Machine":7526,"Compacted":7527,"Ġdiff":7528,"ĠExprNode":7529,"getAnd":7530,"Ġpersist":7531,"Fully":7532,"LAP":7533,"partitioner":7534,"Ġassigned":7535,"imap":7536,"ĠApplicationId":7537,"exist":7538,"Erasure":7539,"less":7540,"Ġjms":7541,"strument":7542,"ĠKeeper":7543,"Ġexample":7544,"EdgeManager":7545,"scope":7546,"Remo":7547,"Ġthreads":7548,"FilterList":7549,"ĠtaskName":7550,"Card":7551,"TaskId":7552,"Members":7553,"rospectionSupport":7554,"HADOOP":7555,"Ġcb":7556,"getMessageTypes":7557,"METHOD":7558,"CAP":7559,"Width":7560,"ĠMBean":7561,"Ġoffsets":7562,"ZATION":7563,"Ġdecl":7564,"UriEndpoint":7565,"92":7566,"GU":7567,"SYSTEM":7568,"bed":7569,"kind":7570,"Ġinc":7571,"ĠIOUtils":7572,"ĠAssertion":7573,"getAddress":7574,"Disable":7575,"attr":7576,"stantiate":7577,"OzoneManager":7578,"Ġcollect":7579,"deprecated":7580,"####":7581,"avigable":7582,"Ġobjects":7583,"gnition":7584,"FieldAccessorTable":7585,"checkArgument":7586,"Ġ$":7587,"ĠTransport":7588,"76":7589,"Ġcoordinator":7590,"ĠDistributed":7591,"10000":7592,"ALSE":7593,"quential":7594,"oth":7595,"ClassHelper":7596,"Upgrade":7597,"Authentic":7598,"Ġfam":7599,"ĠStreaming":7600,"Expiry":7601,"Iterations":7602,"Violation":7603,"pg":7604,"ĠObserver":7605,"Ġadded":7606,"getRoute":7607,"Ġmapping":7608,"Dfa":7609,"Ġnormal":7610,"oneable":7611,"sm":7612,"ĠvolumeName":7613,"CLUSTER":7614,"cause":7615,"Ġword":7616,"Ġhigh":7617,"XmlElement":7618,"StringLiteralDfa":7619,"007":7620,"flight":7621,"lastComparison":7622,"Singleton":7623,"ĠDoc":7624,"ĠmbeanServer":7625,"NAP":7626,"sun":7627,"getQualifier":7628,"Ġep":7629,"Ġopts":7630,"ĠShared":7631,"Ġhadoop":7632,"ĠDynamic":7633,"house":7634,"uted":7635,"ĠCl":7636,"getSession":7637,"Ġsstables":7638,"Ġvalidator":7639,"_\"":7640,"ceed":7641,"ConfigSnapshot":7642,"runners":7643,"Ġpop":7644,"Ġplugin":7645,"Ġsearch":7646,"Ġencoded":7647,"ĠjobConf":7648,"Ġrecover":7649,"Meter":7650,"ĠLogical":7651,"channels":7652,"abeled":7653,"Ġstep":7654,"Ġarchive":7655,"ĠSerialization":7656,"cfName":7657,"serverName":7658,"ANY":7659,"Transactions":7660,"ĠResultSet":7661,"Ġip":7662,"Retriever":7663,"RESHOLD":7664,"OLEAN":7665,"ĠLA":7666,"TRANSACTION":7667,"stantiation":7668,"LEVEL":7669,"Cross":7670,"delegate":7671,"Delet":7672,"Ġkind":7673,"ĠDocker":7674,"Ġ500":7675,"FileInfo":7676,"kerHelper":7677,"Evaluator":7678,"Hdds":7679,"DateTime":7680,"Appender":7681,"getBucket":7682,"anonical":7683,"MPLE":7684,"ĠSequence":7685,"}.":7686,"getSize":7687,"compat":7688,"Ġresolver":7689,"ĠKeyed":7690,"POLIC":7691,"visory":7692,"jobGraph":7693,"STORAGE":7694,"ĠjjMove":7695,"addOption":7696,"ĠTimer":7697,"converter":7698,"Synchronization":7699,"INDO":7700,"(\"${":7701,"Sleep":7702,"show":7703,"CKER":7704,"nn":7705,"ĠassertInvalid":7706,"BlockSize":7707,"ensure":7708,"ĠAtomicReference":7709,"ORDER":7710,"Ġcm":7711,"iration":7712,"describe":7713,"SequenceNumber":7714,">(),":7715,"Sn":7716,"Recover":7717,"REPL":7718,"AXB":7719,"clean":7720,"require":7721,"Ġtitle":7722,"RST":7723,"ffect":7724,"ower":7725,"ĠMiniDFSCluster":7726,"Ġstand":7727,"ĠZeppelin":7728,"rb":7729,"igit":7730,"(\"\\\\":7731,"Span":7732,"Lines":7733,"invo":7734,"ĠdataFormat":7735,"faster":7736,"namenode":7737,"getCanonical":7738,"emptySet":7739,"fileName":7740,"assigned":7741,"Deque":7742,"ĠDataInputStream":7743,"ĠConnectionFactory":7744,"EXCEPTION":7745,"Ġselector":7746,"021":7747,"Ġsubscriptions":7748,"fasterxml":7749,"BigInteger":7750,"yle":7751,"Ġlocations":7752,":(":7753,"Commands":7754,"Outer":7755,"Ġ${":7756,"PactInteger":7757,"Kinesis":7758,"signed":7759,"project":7760,"nodemanager":7761,"Ġpw":7762,"Ġcollection":7763,"Ġscala":7764,"Futures":7765,"ĠStreamExecutionEnvironment":7766,"Legacy":7767,"Fair":7768,"COMPARATOR":7769,"ĠassertArrayEquals":7770,"ĠTableDescriptor":7771,"DataSink":7772,"ĠJndiRegistry":7773,"archar":7774,"LEDGE":7775,"NOWLEDGE":7776,"getMod":7777,"ĠFileOutputStream":7778,"ignment":7779,"DOM":7780,"ĠKeeperException":7781,"72":7782,"XmlAttribute":7783,"Else":7784,"Ġsave":7785,"testframework":7786,"HTableDescriptor":7787,"kew":7788,"statement":7789,"Rename":7790,"TEXT":7791,"NotSupported":7792,"urability":7793,"Addresses":7794,"ĠdoTest":7795,"ĠGenericFile":7796,"ireTime":7797,"sb":7798,"ncies":7799,"kubernetes":7800,"Termination":7801,"TUR":7802,"ExecutionVertex":7803,"entrant":7804,"pid":7805,"vl":7806,"ISHED":7807,"jboss":7808,"ACKNOWLEDGE":7809,"aringClass":7810,"86":7811,"AA":7812,"site":7813,"Operand":7814,"ĠMessageFieldType":7815,"Nio":7816,"Ġmk":7817,"MessageId":7818,"ĠAbstractType":7819,"getInteger":7820,"Ġsup":7821,"Ġclasses":7822,"ĠXML":7823,"AVA":7824,"ĠmetaClass":7825,"\"};":7826,"ultiple":7827,"UBLE":7828,"procedure":7829,"ĠBYTE":7830,"Locality":7831,"Ġigfs":7832,"TableDesc":7833,"ConfigurationException":7834,"WAIT":7835,"\"})":7836,"Ġtab":7837,"oreign":7838,"\"});":7839,"Major":7840,"Ġgrant":7841,"Ġdisable":7842,"Ġoc":7843,"Ġthen":7844,"PARATOR":7845,"CHAN":7846,"Ġrefresh":7847,"bs":7848,"Creator":7849,"ClusterStatus":7850,"finished":7851,"izable":7852,"Ġdummy":7853,"assignment":7854,"Journal":7855,"zz":7856,"ĠStatus":7857,"ClientProtos":7858,"VID":7859,"ismatch":7860,"Suffix":7861,"Analyzer":7862,"taskManager":7863,"ultipart":7864,"LISM":7865,"BATCH":7866,"candidate":7867,"Switch":7868,"ssue":7869,"tables":7870,"ConnectionContext":7871,"dummy":7872,"THRESHOLD":7873,"stringify":7874,"compareAndSet":7875,"CONTENT":7876,"Ġsavepoint":7877,"TokenSecretManager":7878,"Plc":7879,"TFieldRequirementType":7880,"alarValue":7881,"Sy":7882,"getTarget":7883,"MITER":7884,"ĠjjMoveStringLiteralDfa":7885,"Kubernetes":7886,"PathXmlApplicationContext":7887,"mutation":7888,"userName":7889,"Ġabort":7890,"Bin":7891,"Handlers":7892,"Updates":7893,"Fl":7894,"Net":7895,"Ġseek":7896,"ead":7897,"InBytes":7898,"ĠIgniteConfiguration":7899,"ĠkeyName":7900,"getContainerId":7901,"ĠStatement":7902,"LOB":7903,"Ġintp":7904,"ĠaddTo":7905,"ProcessorDefinition":7906,"Ġoperations":7907,"pret":7908,"ttl":7909,"Ġresources":7910,"ĠOptim":7911,"Ġcredentials":7912,"InMemory":7913,"Prefetch":7914,"Ġprj":7915,"ĠMIN":7916,"DIRECT":7917,"ACCESS":7918,"begin":7919,"NonNull":7920,"ĠUtilities":7921,"ĠTestCase":7922,"noNulls":7923,"Ġperform":7924,"lapsed":7925,"84":7926,"Zeppelin":7927,"ĠCommon":7928,"artifact":7929,"Hosts":7930,"KeyGroup":7931,"ĠROW":7932,"Defs":7933,"listStatus":7934,"Fsck":7935,"Privileged":7936,"extract":7937,"Ġmatcher":7938,"Ġnewline":7939,"Ġ24":7940,"]),":7941,"ColStats":7942,"oolVar":7943,"axb":7944,"Err":7945,"AccessException":7946,"aft":7947,"Ġthrift":7948,"ĠLazy":7949,"SubCluster":7950,"Ġcli":7951,"Cp":7952,"ENTI":7953,"CLUDE":7954,"Mutate":7955,"POLICY":7956,"mut":7957,"Ġsample":7958,"Subscriber":7959,"Stopping":7960,"Matched":7961,"Ġbinding":7962,"Ġrequests":7963,"ĠSubscription":7964,"ssible":7965,"getMap":7966,"Ġreducer":7967,"ĠPactString":7968,"ĠgetAll":7969,"Ġdht":7970,"OrSuperColumn":7971,"Distance":7972,"MemoryManager":7973,"charset":7974,"ĠcolumnName":7975,"Ġcomponents":7976,"SecretKey":7977,"ThreadPoolExecutor":7978,"Ġclock":7979,"abil":7980,"ĠcfName":7981,"ooled":7982,"rontend":7983,"inputs":7984,"ĠExecutionConfig":7985,"zure":7986,"ategories":7987,"refresh":7988,"rec":7989,"ĠOm":7990,"Ġrequested":7991,"GB":7992,"Ġ(_":7993,"Buff":7994,"ĠOffset":7995,"tracker":7996,"ReturnType":7997,"COMMIT":7998,"Broadcast":7999,"BUCKET":8000,"Duplicate":8001,"reque":8002,"KeyValuePair":8003,"QuotaProtos":8004,"ĠcompareTo":8005,"Ġbinary":8006,"Ġcells":8007,"Ġbig":8008,"Processed":8009,"PART":8010,"Ext":8011,"suite":8012,"ĠSlice":8013,">[]":8014,"NER":8015,"ĠSER":8016,"ĠTimelineEntity":8017,"Ġmerged":8018,"getChildren":8019,"Optimized":8020,"nate":8021,"Ġ5000":8022,"HS":8023,"ĠParse":8024,"Cance":8025,"SUP":8026,"Ġlanguage":8027,"Ġ-=":8028,"ĠIgniteTx":8029,"Bad":8030,"rowse":8031,"Ġfeature":8032,"ALLE":8033,"BatchSize":8034,"ĠWindowed":8035,"Ġseed":8036,"abort":8037,"ĠĠĠĠĠĠĠĠĠĠĠĠĠĠĠĠĠĠĠĠĠĠĠĠĠĠĠĠĠĠĠĠ":8038,"NN":8039,"Locked":8040,"NamespaceDescriptor":8041,"internals":8042,"MethodNode":8043,"Artifact":8044,"MD":8045,"Ġ\"%":8046,"writeLock":8047,"ĠmergeFrom":8048,"JOIN":8049,"startTime":8050,"SchedulerApp":8051,"Ġsegments":8052,"ĠSTA":8053,"ĠcheckpointId":8054,"Ġbuffers":8055,"Directories":8056,"connectors":8057,"Reports":8058,"ĠDocument":8059,"Ġ123":8060,"ĠTreeSet":8061,"ĠPRO":8062,"ColumnNames":8063,"Generation":8064,"alancing":8065,"ĠDF":8066,"ĠObserverContext":8067,"mand":8068,"getWrite":8069,"repl":8070,"ALTER":8071,"nm":8072,"Integration":8073,"Subject":8074,"deprecation":8075,"ORTED":8076,"Ugi":8077,"NodeLabel":8078,"federation":8079,"TokenTypes":8080,"getMethodName":8081,"attribute":8082,"Unlock":8083,"Abort":8084,"ĠmetaDataMap":8085,"ĠTopicPartition":8086,"}\",":8087,"))).":8088,"ĠBU":8089,"ĠResultPartition":8090,"headers":8091,"MultipartUpload":8092,"(\"\");":8093,"FactoryBean":8094,"HAND":8095,"dist":8096,"Src":8097,"Ġrecovery":8098,"collection":8099,"hasOption":8100,"ntity":8101,"ĠHLog":8102,"topologyVersion":8103,"BIN":8104,"ByteBufferUtil":8105,"Ġroutes":8106,"Retrieval":8107,"Ġow":8108,"Ġie":8109,"05":8110,"Ġsock":8111,"Initializer":8112,"CU":8113,"monitor":8114,"Allocate":8115,"GridHadoop":8116,"ĠFsPermission":8117,"dulable":8118,"SHOT":8119,"DatabaseDescriptor":8120,"ĠPRIMARY":8121,"ĠPrintWriter":8122,"TX":8123,"getEntity":8124,"Once":8125,"ViewMBean":8126,"ĠwindowSize":8127,"taskmanager":8128,"82":8129,"getScheme":8130,"ĠgetRegion":8131,"ĠkeySerializer":8132,"HeapSize":8133,"Capability":8134,"Ġage":8135,"COD":8136,"Patterns":8137,"NAPSHOT":8138,"MessageType":8139,"ĠBack":8140,"ColumnFamilyStore":8141,"Ġatomic":8142,"Items":8143,"ĠexpectedKey":8144,"Balance":8145,"ccfg":8146,"fieldAccessorTable":8147,"closed":8148,"Ġmodule":8149,"ReplicationProtos":8150,"ĠGridFuture":8151,"CATALOG":8152,"curr":8153,"Boot":8154,"HBaseAdmin":8155,"ĠPARTITION":8156,"ird":8157,"ĠIgniteFs":8158,"Ġrollback":8159,"PUBLIC":8160,"Ġtopics":8161,"subscription":8162,"routeId":8163,"Deserialization":8164,"EntryEx":8165,"username":8166,"getTestVertex":8167,"Svc":8168,"UD":8169,"den":8170,"ĠqueueName":8171,"DUL":8172,"POOL":8173,"ĠPrintStream":8174,"clients":8175,"alloc":8176,"ses":8177,"Ġmill":8178,"AccessFile":8179,"getScanner":8180,"ĠCS":8181,"ierarch":8182,"NDING":8183,"61":8184,"SKIP":8185,"ĠLevel":8186,"StandardCharsets":8187,"getTypeConverter":8188,"TAG":8189,"ĠClusterNode":8190,"TTL":8191,"Features":8192,"Ġreplay":8193,"StreamComponent":8194,"ĠREAD":8195,"Indexed":8196,"isIn":8197,"Ġ!(":8198,"methodName":8199,"Ġmatches":8200,"setInteger":8201,"NAMESPACE":8202,"Ord":8203,"Ġtermin":8204,"Restriction":8205,"Contains":8206,"Ġdr":8207,"orig":8208,"processElement":8209,"GGREG":8210,"DELIMITER":8211,"LIMIT":8212,"EPER":8213,"connected":8214,"Ġouter":8215,"jmx":8216,"need":8217,"sd":8218,"ness":8219,"getExecutionEnvironment":8220,"INode":8221,"lict":8222,"Ġcould":8223,"mount":8224,"LeafQueue":8225,"setParallelism":8226,"ĠReplica":8227,"hi":8228,"ĠProcess":8229,"invalid":8230,"WNER":8231,"BigDecimal":8232,"Ġlogin":8233,"createSession":8234,"CPU":8235,"ĠImp":8236,"getNamespace":8237,"HEAD":8238,"ĠapplicationId":8239,"Ġreservation":8240,"ĠActor":8241,"ĠVectorExpression":8242,"deploy":8243,"Ġeach":8244,"ĠDA":8245,"ĠZKUtil":8246,"GroupId":8247,"Units":8248,"ĠApi":8249,"copyOf":8250,"delta":8251,"Ġruntime":8252,"CONT":8253,"getManagement":8254,"Escape":8255,"lr":8256,"ĠrmContext":8257,"charAt":8258,"Ġmember":8259,"getOperator":8260,"FieldBuilder":8261,"Unmarshal":8262,"Built":8263,"ĠRS":8264,"ĠtaskId":8265,"SJaql":8266,"CacheKey":8267,"irection":8268,"ClientException":8269,"RR":8270,"doubleValue":8271,"addFamily":8272,"ĠTrigger":8273,"ĠJMX":8274,"Definitions":8275,"ReduceFunction":8276,"Ġseg":8277,"Backups":8278,"ampl":8279,"iCa":8280,"RETRI":8281,"!\",":8282,"[]>>":8283,"Ġmd":8284,"abilities":8285,"ĠCompiler":8286,"beans":8287,"Ġconsume":8288,"Ġtransfer":8289,"WordCount":8290,"Ġerrors":8291,"\":":8292,"Maximum":8293,"Ġstack":8294,"Ġavg":8295,"Ġqueues":8296,"Ordered":8297,"ongodb":8298,"Clustering":8299,"0000000000000002":8300,"REDU":8301,"sr":8302,"ATER":8303,"DOCKER":8304,"Managers":8305,"ĠwriteTo":8306,"ACC":8307,"printf":8308,"getCode":8309,"Ġfollow":8310,"maven":8311,"--;":8312,"getVar":8313,"Ġprot":8314,"errors":8315,"recordFactory":8316,"DL":8317,"Migration":8318,"MetastoreConf":8319,"ONLY":8320,"ConnectionManager":8321,"ĠOP":8322,"ACITY":8323,"Mandatory":8324,"()){":8325,"Utf":8326,"AndPort":8327,"></":8328,"ĠUnknown":8329,"LUSH":8330,"Emit":8331,"Ġne":8332,"Ġlb":8333,"agger":8334,"Concurrency":8335,"ComparatorFactory":8336,"RpcService":8337,"Ġnfa":8338,"parseLong":8339,"CP":8340,"shuffle":8341,"bernate":8342,"entries":8343,"getApp":8344,"Repo":8345,"topVer":8346,"getEvent":8347,"ulative":8348,"jobID":8349,"ĠcommState":8350,"SECOND":8351,"Ġcharset":8352,"reen":8353,"iagnostic":8354,"checkAndClear":8355,"uch":8356,"ĠOptions":8357,"ĠMod":8358,"SEPARATOR":8359,"OOKE":8360,"ĠTA":8361,"Ġsubject":8362,"ira":8363,"Checkpoints":8364,"irc":8365,"EV":8366,"clustering":8367,"mbol":8368,"Matching":8369,"TransactionId":8370,"ĠCopy":8371,"ĠtableEnv":8372,"ĠQUALIFIER":8373,"Ġlabels":8374,"Ġinvocation":8375,"94":8376,"ategies":8377,"ĠDFA":8378,"ORI":8379,"unctu":8380,"Numeric":8381,"Ġinterceptor":8382,"Ġec":8383,"85":8384,"ĠCacheObject":8385,"Constraints":8386,"QueueSize":8387,"0001":8388,"InputStreamOperator":8389,"dom":8390,"Answer":8391,"ĠapplicationContext":8392,"RECORD":8393,"STOP":8394,"ĠUTF":8395,"Ġreserved":8396,"ĠCli":8397,"ByteArrayOutputStream":8398,"ets":8399,"tez":8400,"ConfigurationKeys":8401,"BrokerName":8402,"alformed":8403,"uspend":8404,"Track":8405,"apture":8406,"Ġwrapped":8407,"ĠExecutors":8408,"olt":8409,"sample":8410,"filePath":8411,"Regression":8412,"Ġdynamic":8413,"Ġlive":8414,"Blocked":8415,"ProducerTemplate":8416,"ens":8417,"Ġjndi":8418,"ĠHE":8419,"Ġldr":8420,"Ġsecurity":8421,"SocketFactory":8422,"ĠDFLT":8423,"OOKEEPER":8424,"ĠequalTo":8425,"helpers":8426,"ĠServlet":8427,"Ġ\",\"":8428,"83":8429,"ĠExternal":8430,"REPLICATION":8431,"groups":8432,"getExchange":8433,"iment":8434,"ĠGenericUDF":8435,"SCHEDUL":8436,">(\"":8437,"AvailabilityServices":8438,"400":8439,"INI":8440,"OnWrite":8441,"iterative":8442,"ĠVariableExpression":8443,"mbean":8444,"Throttle":8445,"istogram":8446,"DDL":8447,"=\").":8448,"ĠServiceException":8449,"getUn":8450,"ertificate":8451,"WARD":8452,"oose":8453,"artz":8454,"ĠcacheId":8455,"ĠBasicTypeInfo":8456,"newer":8457,"Locale":8458,"ĠNullValue":8459,"eCycle":8460,"Ġsasl":8461,"ObjectInspectorFactory":8462,"Loaded":8463,"ĠExecutionState":8464,"stringifyException":8465,"ĠOn":8466,"Accessible":8467,"Hostname":8468,"identity":8469,"Ġpk":8470,"ĠQuorum":8471,"SystemProperties":8472,"]\");":8473,"ParseException":8474,"rules":8475,"setTime":8476,"fol":8477,"aha":8478,"ĠClassHelper":8479,"uncate":8480,"TIO":8481,"ĠBucket":8482,"Ġdid":8483,"Ġproduce":8484,"ApplicationMaster":8485,"Ġbackend":8486,"Ġgetter":8487,"AMEL":8488,"ĠUNSAFE":8489,"Priv":8490,"rypto":8491,"RequestId":8492,"Ġrack":8493,"000001":8494,"NotExist":8495,"UpperCase":8496,"ServiceCall":8497,"ĠExecutionGraph":8498,"SeqNum":8499,"ĠAggregate":8500,"FACTORY":8501,"ReadLock":8502,"Ġsimple":8503,"getFrom":8504,"Ġlazy":8505,"ĠColumnFamilyStore":8506,"Ġ{{":8507,"ĠprocId":8508,"Called":8509,"DN":8510,"mar":8511,"ExceptionAction":8512,"POST":8513,"DelimitedFrom":8514,"Stmt":8515,"rip":8516,"Ġstored":8517,"Ġscale":8518,"MasterProcedure":8519,"avoredNodes":8520,"nied":8521,"Ġprovided":8522,"webapp":8523,"jj":8524,"ĠfilePath":8525,"Lease":8526,"White":8527,"requency":8528,"periment":8529,"DELE":8530,"ĠselectedIndex":8531,"readObject":8532,"Memtable":8533,"ServiceException":8534,"999":8535,"SPLIT":8536,"ĠQueryPath":8537,"Rebalance":8538,"Consume":8539,"loop":8540,"GridDht":8541,"Ġshow":8542,"PELIN":8543,"users":8544,"PARAM":8545,"ĠIntValue":8546,"73":8547,"Ġtm":8548,"RootDir":8549,"Fetcher":8550,"perimental":8551,"osgi":8552,"REF":8553,";}":8554,"dt":8555,"Recursive":8556,"ErrorCode":8557,"ĠConstantExpression":8558,"azure":8559,"DecoratedKey":8560,"oned":8561,"replic":8562,"ĠTimeWindow":8563,"KeeperException":8564,"Contents":8565,"Ġwritten":8566,"ĠErrors":8567,"Ġtransformer":8568,"MessageListener":8569,".\\":8570,"Ġstage":8571,"Ġsent":8572,"DROP":8573,"duration":8574,"API":8575,"FINISHED":8576,"Ġsubj":8577,"WireFormat":8578,"Ġuuid":8579,"TimeoutMs":8580,"Ġrestored":8581,"peat":8582,"vid":8583,"MessageReference":8584,"MetricRegistry":8585,"Need":8586,"(\">>>":8587,"Joiner":8588,"BrokerService":8589,"cho":8590,"setCurrent":8591,"ather":8592,"ĠDirect":8593,"ROWS":8594,"isDone":8595,"PATTERN":8596,"ReadOnly":8597,"ffective":8598,"wise":8599,"ĠAtt":8600,"SW":8601,"YPE":8602,"PeerConfig":8603,"ĠclassLoader":8604,"EndpointBuilder":8605,"Locator":8606,"PROTO":8607,"fLogger":8608,"Ġcorrect":8609,"LOAT":8610,"etched":8611,"RegionRequest":8612,"Ġfiltered":8613,"FALSE":8614,"Ġannotation":8615,"CacheMode":8616,"clientId":8617,"allocateSlot":8618,"93":8619,"zkw":8620,"ĠStringValue":8621,"MULTI":8622,"found":8623,"81":8624,"CALL":8625,"\\\\/\\\\/":8626,"NETWORK":8627,"unwrap":8628,":\\\\/\\\\/":8629,"ĠSSTableReader":8630,"aff":8631,"Ġidentifier":8632,"Ġaut":8633,"ĠIntWritable":8634,"ĠgetDefaultInstance":8635,"Push":8636,"CoGroup":8637,"uspended":8638,"parallelism":8639,"Ġpc":8640,"ĠIS":8641,"Tracking":8642,"}\");":8643,"ĠEntity":8644,"DateFormat":8645,"Ġframe":8646,"DatanodeDetails":8647,"ĠSink":8648,"BUG":8649,"256":8650,"KMS":8651,"icast":8652,"cepted":8653,"readBoolean":8654,"ĠAdmin":8655,"SISTENT":8656,"ĠON":8657,"ĠXml":8658,"allocation":8659,"setup":8660,"cfm":8661,"ĠgetResult":8662,"StorageType":8663,"DESCRI":8664,"jcache":8665,"Ġeg":8666,"MasterAdminProtos":8667,"writeBoolean":8668,"AccessType":8669,"writeFieldBegin":8670,"ĠASTNode":8671,"ĠSerializer":8672,"ĠdefaultInstance":8673,"lay":8674,"DATANODE":8675,"91":8676,"ĠQu":8677,"ContextFactory":8678,"ApplicationException":8679,"Offline":8680,"ObserverContext":8681,"cks":8682,"...\");":8683,"Ġperiod":8684,"ĠMethodNode":8685,"matched":8686,"ernal":8687,"putInt":8688,"encoding":8689,"ĠPending":8690,"ĠTestData":8691,"Hbase":8692,"mask":8693,"ProcessResult":8694,"getUri":8695,"singletonMap":8696,"CFMetaData":8697,"ĠgetColumn":8698,"Scale":8699,"ContentType":8700,"icense":8701,"getStream":8702,"Ġlisten":8703,"Avg":8704,"IMAL":8705,"MERGE":8706,"JMX":8707,"alone":8708,"Ġjdbc":8709,"Ġperm":8710,"ĠpushFollow":8711,"Ġgc":8712,"Ġcompletion":8713,"ĠSerDe":8714,"pop":8715,"kerberos":8716,"Rules":8717,"MasterCoprocessorEnvironment":8718,"ĠColumnStatistics":8719,"ILD":8720,"ĠSET":8721,"escape":8722,"ked":8723,"exten":8724,"ĠJobVertex":8725,"ĠThreadPool":8726,"Solution":8727,"acing":8728,"getAn":8729,"TempFile":8730,"timelineservice":8731,"etime":8732,"Ġdocker":8733,"Ġ'%":8734,"bucketName":8735,"ĠĠĉĉ":8736,"encoded":8737,"Display":8738,"Cardinality":8739,"Ġspy":8740,"Hit":8741,"Ġgroups":8742,"Ġhosts":8743,"varname":8744,"Listeners":8745,"restore":8746,"provider":8747,"SeqId":8748,"Library":8749,"Bus":8750,"Ġsys":8751,"JobContext":8752,"Already":8753,"ĠMetaMethod":8754,"Redeliver":8755,"Adder":8756,"ĠReflection":8757,"CacheManager":8758,"MISTIC":8759,"Ġdebug":8760,"CommunicationSpi":8761,"ĠStop":8762,"ĠgetClient":8763,"TEGER":8764,"Specific":8765,"Specifier":8766,"WindowFunction":8767,"CommonAbstractTest":8768,"ĠNM":8769,"ProtocolVersion":8770,"GroovyMethods":8771,"person":8772,"RETRIES":8773,"Bloom":8774,"authentication":8775,"ĠastFactory":8776,"ProcId":8777,"IR":8778,"ldest":8779,"Ġsvc":8780,"writeMessage":8781,"ĠExecutionVertex":8782,"METASTORE":8783,"emb":8784,"ĠHiveParser":8785,"Committed":8786,"DELAY":8787,"Ġwatch":8788,"REE":8789,"normalize":8790,"hb":8791,"CodedInputStream":8792,"ĠConfVars":8793,"Ġfilters":8794,"getID":8795,"Ġfamilies":8796,"Ġstatistics":8797,"URITY":8798,"payload":8799,"ĠConnector":8800,"ĠAL":8801,"ActiveMQDestination":8802,"mongodb":8803,"FIRST":8804,"IgniteInternalFuture":8805,"ToRetrieve":8806,"testclassification":8807,"Utilization":8808,"retty":8809,"illMode":8810,"Placeholders":8811,"getOptionValue":8812,"TypeInformation":8813,"ĠINode":8814,"Ġaccount":8815,"Cxf":8816,"NAMENODE":8817,"Ġvertices":8818,"REQUIRED":8819,"<-":8820,"kstream":8821,"times":8822,"izerNode":8823,"inte":8824,"ĠunknownFields":8825,"Ġawait":8826,"Ġsrv":8827,"KEYSPACE":8828,"ĠhasNext":8829,"Got":8830,"Autow":8831,"ĠConcurrentMap":8832,"NAL":8833,"ratch":8834,"ĠLoad":8835,"ĠrowBatch":8836,"HostException":8837,"only":8838,"Ġyet":8839,"OutOfBounds":8840,"pack":8841,"Aliases":8842,"verted":8843,"Writes":8844,"PARTITIONED":8845,"ĠSerde":8846,"CIMAL":8847,"Export":8848,"Ġservices":8849,"Indexing":8850,"Ġhelper":8851,"INC":8852,"Statuses":8853,"setId":8854,"ĠnumBytes":8855,"role":8856,"Exceptionally":8857,"Ġmgr":8858,"Checking":8859,"MY":8860,"ALLOW":8861,"ĠRMContainer":8862,"ASL":8863,"decl":8864,"flt":8865,"PASSWORD":8866,"pk":8867,"getMin":8868,"Gr":8869,"Mask":8870,"KIL":8871,"rate":8872,"ATTEMP":8873,"ALLELISM":8874,"ĠHdds":8875,"RETRY":8876,"listen":8877,"Consumed":8878,"Ġoccur":8879,"ĠgetNum":8880,"ah":8881,"sorted":8882,"Notify":8883,"Transactional":8884,"Kerberos":8885,"Benchmark":8886,"codes":8887,"rack":8888,"visor":8889,"acquire":8890,"ĠVER":8891,"ResponseHandler":8892,"WriteId":8893,"ManagedAttribute":8894,"Gain":8895,"Ġdisco":8896,"bine":8897,"swap":8898,"inite":8899,"OrEvent":8900,"Ġ\"]\";":8901,"CFs":8902,"getNodeId":8903,"Ġhcd":8904,"ĠconvertTo":8905,"flag":8906,":%":8907,"loaded":8908,"Chars":8909,"ĠTestingUtils":8910,"Ġinstead":8911,"putLong":8912,"PROVID":8913,"andReturn":8914,"alyz":8915,"ĠreturnType":8916,"Declar":8917,"OrcProto":8918,"MON":8919,"Ġsettings":8920,"putIfAbsent":8921,"ĠHIVE":8922,"ENC":8923,"xFF":8924,"UDA":8925,"managed":8926,"Ġsyntax":8927,"<?>,":8928,"FOUND":8929,"Help":8930,"SING":8931,"otas":8932,"TimeMs":8933,"Tim":8934,"ĠProtobufUtil":8935,"getLive":8936,"Ġcompile":8937,"CellUtil":8938,"Throughput":8939,"ĠCloneable":8940,"itest":8941,"agic":8942,"ĠinputColumnVector":8943,"tags":8944,"addInput":8945,"lices":8946,"ClassNotFoundException":8947,"TES":8948,"ChannelHandler":8949,"jm":8950,"ĠnumOf":8951,"ĠEnd":8952,"AccessKey":8953,"ĠFILE":8954,"equalTo":8955,"Ġtt":8956,"ContinuousQuery":8957,"ony":8958,"la":8959,"getD":8960,"Ġfake":8961,"Reconnect":8962,"ĠgetUser":8963,"INVALID":8964,"isInitialized":8965,"ĠAM":8966,"interface":8967,"StorageContainer":8968,"ĠHeader":8969,"Ġextra":8970,"Ġcandidates":8971,"OutOfBoundsException":8972,"TopologyBuilder":8973,"Ġwritable":8974,"Ġvals":8975,"removeAll":8976,"={":8977,"cap":8978,"lusters":8979,"gistration":8980,"ĠPAT":8981,"Ġaccumulator":8982,"RexNode":8983,"setOutput":8984,"71":8985,"mon":8986,"INE":8987,"Ġ\"]\");":8988,"ĠAssertionError":8989,"ĠSasl":8990,"HeapMemory":8991,"mas":8992,"Ġmarsh":8993,"MapEntry":8994,"Ġgenerator":8995,"Ġps":8996,"isPresent":8997,"setData":8998,"Bits":8999,"sIn":9000,"tw":9001,"getResult":9002,"ĠUDF":9003,"callback":9004,"FORWARD":9005,"FLUSH":9006,"({\"":9007,"Purge":9008,"TableState":9009,"mina":9010,"SessionState":9011,"ĠKeyspace":9012,"ii":9013,"setDefault":9014,"getConsumer":9015,"Ġforward":9016,"ĠGridNear":9017,"Tracer":9018,"Ow":9019,"ĠActiveMQDestination":9020,"ClientConfig":9021,"ĠWait":9022,"ExecutionConfig":9023,"ĠCloseable":9024,"getSd":9025,"Lifecycle":9026,"CODING":9027,"09":9028,"Configurations":9029,":{{":9030,"ptned":9031,"Ġtra":9032,"ĠTer":9033,"Quote":9034,"ĠMetaClass":9035,"termine":9036,"checkAndClearProcessResult":9037,"ls":9038,"Ġwatcher":9039,"ĠFAMILY":9040,"ĠAffinityTopologyVersion":9041,"Matches":9042,"engine":9043,"ĠDataType":9044,"HostName":9045,"HLog":9046,"issue":9047,"seq":9048,"ĠgetLog":9049,"getHostName":9050,"Ġemit":9051,"prj":9052,"incr":9053,"Platform":9054,"SNAPSHOT":9055,"InstanceName":9056,"HTable":9057,"Ġmr":9058,"Ġsetting":9059,"txStart":9060,"rive":9061,"step":9062,"toUpperCase":9063,"progress":9064,"Ġtrust":9065,"OWNER":9066,"nfl":9067,"REPLIC":9068,"Ġencry":9069,"nflabs":9070,"package":9071,"tails":9072,"ĠgetConf":9073,"Ġadapter":9074,"assertThat":9075,"writeTo":9076,"ĠreadLock":9077,"Ġ[{}":9078,"Destinations":9079,"hostname":9080,"ĠReport":9081,"ĠFor":9082,"Schedulable":9083,"ĠKvState":9084,"SECURITY":9085,"Reflection":9086,"raining":9087,"KTable":9088,"fieldId":9089,"ission":9090,"allocated":9091,"aving":9092,"Sending":9093,"Ġph":9094,"AtomicInteger":9095,"00000008":9096,"Slow":9097,"getPrimitive":9098,"Ġconsumers":9099,"Quiet":9100,"Cnxn":9101,"ĠOpen":9102,"Frontend":9103,"nsor":9104,"ĠCommitLog":9105,"OnDriver":9106,"Mount":9107,"ĠExecutionException":9108,"Flags":9109,"ĠdoSet":9110,"applicationId":9111,"big":9112,"hir":9113,"MapReduce":9114,"xBuilder":9115,"STATS":9116,"toURI":9117,"ĠclusterResource":9118,"destroy":9119,"ConditionalOn":9120,"CAPACITY":9121,"wireFormat":9122,"consume":9123,"Ġ*/":9124,"ĠpeerId":9125,"Corrupt":9126,"ae":9127,"Ġ\"-\"":9128,"UnknownFieldSet":9129,"getSlot":9130,"DataNodes":9131,"Exprs":9132,"noteId":9133,"Activity":9134,"Ordering":9135,"ĠscalarValue":9136,"subscribe":9137,"Ġminimum":9138,"CA":9139,"LongValue":9140,"CoprocessorHost":9141,"CURRENT":9142,"fill":9143,"getQuery":9144,"HEN":9145,"createResource":9146,"ĠHttpServlet":9147,"Amazon":9148,"BRO":9149,"Serializers":9150,"optimizer":9151,"readLine":9152,"LAG":9153,"ĠAlter":9154,"Ġdocument":9155,"heartbeat":9156,"ORITY":9157,"ĠLongWritable":9158,"NodeManager":9159,"ĠkeyValue":9160,"ĠResourceManager":9161,"rand":9162,"InfoEnabled":9163,"TIS":9164,"Clone":9165,"availableException":9166,"Ġakka":9167,"ContainerRequest":9168,"ĠSqlFieldsQuery":9169,"AWS":9170,"ĠinOrder":9171,"\\\":[":9172,"Ġsubtask":9173,"setStatus":9174,"shell":9175,"Ġtri":9176,"ĠConstructor":9177,"Ġencode":9178,"=[":9179,"BY":9180,"Ġman":9181,"Apply":9182,"Ġbegin":9183,"Rs":9184,"Zxid":9185,"Strategies":9186,"permission":9187,"slt":9188,"ĠRecordReader":9189,"Ġlatest":9190,"ĠCharacter":9191,"ĠVectorizedRowBatch":9192,"getUserName":9193,"getMaximum":9194,"/>":9195,"ĠresultPath":9196,"sions":9197,"div":9198,"Ġpartial":9199,"ounded":9200,"ĠfieldId":9201,"icket":9202,"ContainerStatus":9203,"ĠNon":9204,"NotSupportedException":9205,"Ġcn":9206,"posed":9207,"StructField":9208,"Annotations":9209,"Ġcaller":9210,"Reuse":9211,"ĠGenericTestUtils":9212,"Ġactiv":9213,"Ġcategory":9214,"ĠFileNotFoundException":9215,"\\\":{\\\"":9216,"COMPONENT":9217,"AndVerify":9218,"buildParsed":9219,"aml":9220,"enum":9221,"QueryFilter":9222,"035":9223,"MM":9224,"Ġ\")\");":9225,"ĠtypeName":9226,"save":9227,"Ob":9228,"setClient":9229,"ĠCOM":9230,"ĠFiles":9231,"Ġequal":9232,"locks":9233,"fc":9234,"Ġinformation":9235,"TableSource":9236,"Show":9237,"Handles":9238,"ificationTime":9239,"getSecond":9240,"Compressor":9241,"isValid":9242,"Ġdistributed":9243,"olr":9244,"PROP":9245,"executiongraph":9246,"Ign":9247,"Ġ42":9248,"invokeMethod":9249,"docker":9250,"ĠIJsonNode":9251,"Validate":9252,"Attach":9253,"Standby":9254,"GP":9255,"reg":9256,"Ġ(?,":9257,"ĠResourceRequest":9258,"Ġ60000":9259,"ĠINPUT":9260,"oraryFolder":9261,"ĠDuration":9262,"ifecycle":9263,"Creating":9264,"CONTEXT":9265,"Miss":9266,"Ġdeserializer":9267,"031":9268,"dynamic":9269,"sts":9270,"Ġtwo":9271,"Ġcaches":9272,"kin":9273,"compose":9274,"getDbName":9275,"TEN":9276,"Ġcounters":9277,"Absolute":9278,"Idempotent":9279,"Ġ),":9280,"ids":9281,"ĠclusterId":9282,"egation":9283,"Ġexpiry":9284,"TAB":9285,"RpcServer":9286,"ĠPactJsonObject":9287,"Ġamount":9288,"ĠvalCnt":9289,"Transient":9290,"tokens":9291,"henticate":9292,"Hints":9293,"ĠgetRow":9294,"ĠHazelcast":9295,"Assignor":9296,"getAv":9297,"Large":9298,"finite":9299,"dataset":9300,"qs":9301,"Ġclosing":9302,"arehouse":9303,"ForTest":9304,"Latest":9305,"RID":9306,"offer":9307,"URATION":9308,"ĠPojo":9309,"Autowired":9310,"jet":9311,"Ġbridge":9312,"ĠApplicationAttemptId":9313,"EOF":9314,"()+":9315,"jobManager":9316,"ĠconnectionFactory":9317,"ĠGridPortableException":9318,")\";":9319,"inject":9320,"concat":9321,"exclude":9322,"\\\").":9323,"JMSException":9324,"CB":9325,"period":9326,"036":9327,"mise":9328,"GMENT":9329,"getRegionServer":9330,"rawtypes":9331,"getLocation":9332,"ĠRegister":9333,"Avro":9334,"GA":9335,"closure":9336,"ertow":9337,"hasMore":9338,"COMMA":9339,"Ġpopulate":9340,"ĠTYPE":9341,"OutputChannel":9342,"ĠKEYSPACE":9343,"DISABLE":9344,"ĠgetCamelContext":9345,"principal":9346,"ĠcacheCtx":9347,"Regex":9348,"ĠAb":9349,"icsType":9350,"ĠIgniteBiTuple":9351,"ĠassertInvalidMessage":9352,"FFIX":9353,"Ġpermissions":9354,"CountDownLatch":9355,"IsInitialized":9356,"AGGREG":9357,"Ġsignature":9358,"TZ":9359,"cm":9360,"REDUCE":9361,"Ġbootstrap":9362,"StoragePolicy":9363,"eighbors":9364,"Ġ18":9365,"ĠVolume":9366,"Reason":9367,"trust":9368,"wrapped":9369,"Isolation":9370,"recover":9371,"cod":9372,"edValue":9373,"Configured":9374,"OfWork":9375,"Ġanother":9376,"Ġexcluded":9377,"Ġexceptions":9378,"ĠGridUnsafe":9379,"ForValue":9380,"RetrievalService":9381,"ĠOR":9382,"ĠmemoizedIsInitialized":9383,"xF":9384,"Std":9385,"getReplication":9386,"copyFrom":9387,"Ġswap":9388,"ApplicationAttempt":9389,"ĠgetIn":9390,"Ġexpired":9391,"Incremental":9392,"Month":9393,"Semantic":9394,"Decomp":9395,"Ġnative":9396,"Ġsyn":9397,"Ġdecode":9398,"Ġunion":9399,"Ġdataset":9400,"BiTuple":9401,"taskId":9402,"Snitch":9403,"ffic":9404,"pendent":9405,"LinkedHashMap":9406,"Real":9407,"TimelineEntity":9408,"Ġvis":9409,"LongColumnVector":9410,"MASTER":9411,"ĠEmpty":9412,"Ġvisitor":9413,"Into":9414,"Ġshut":9415,"MetricName":9416,"disk":9417,":/":9418,"iper":9419,"getEnd":9420,"DataNode":9421,"ĠwriteLock":9422,"WaitTime":9423,"COMPACTION":9424,"RESSION":9425,"Ġsome":9426,"getNameAsString":9427,"Loading":9428,"Ġchanged":9429,"ByteArrayInputStream":9430,"SCHEDULER":9431,"ike":9432,"existing":9433,"Ġlsnr":9434,"MemStoreSize":9435,"Cassandra":9436,"ĠinputColVector":9437,"Ġclustering":9438,";\");":9439,"Reserved":9440,"asm":9441,"ContainerProtos":9442,"ThreadFactory":9443,"ZOOKEEPER":9444,"Distinct":9445,"Sparse":9446,"tm":9447,"plied":9448,"RemoteException":9449,"ĠMemorySegment":9450,"DeploymentDescriptor":9451,"unknownFields":9452,"Wrong":9453,"restart":9454,"ĠMapFunction":9455,"ColumnName":9456,"9999":9457,"ĠexecutionGraph":9458,"PublicEvolving":9459,"just":9460,"utf":9461,"LURE":9462,"ĠFSUtils":9463,"iddleEvent":9464,"Combine":9465,"orElse":9466,"tablename":9467,"ng":9468,"Redirect":9469,"runc":9470,"Milli":9471,"ĠSessionState":9472,"]:":9473,"tomix":9474,"Ġmdl":9475,"Throws":9476,"currentAST":9477,"Successful":9478,"Ġregex":9479,"Ġids":9480,"Ġoi":9481,"InternalTx":9482,"ĠmemoryManager":9483,"CleanerChore":9484,"Ġjcache":9485,"<>());":9486,"PROCESS":9487,"Ġflags":9488,"Printer":9489,"SERIALIZER":9490,"Timestamps":9491,"Ġsecondary":9492,"Ġconstraint":9493,"ĠGroovyTokenTypes":9494,"Ġsw":9495,"readField":9496,"ĠTaskConfig":9497,"ĠShipStrategy":9498,"Ġkvs":9499,"RuntimeCamelException":9500,"RANGE":9501,"getHeaders":9502,"SESSION":9503,"OLU":9504,"DY":9505,"SinkOperator":9506,"Cntr":9507,"IMUM":9508,"ĠCsv":9509,"ailable":9510,"ComponentVerifier":9511,"aries":9512,"VERY":9513,"STATIC":9514,"Ġitems":9515,"ĠGET":9516,"ĠioManager":9517,"Ratis":9518,"Intermediate":9519,"Ġholder":9520,"Rich":9521,"Ġthrowable":9522,"EncodingException":9523,"setException":9524,"DEN":9525,"Ġrouter":9526,"memstore":9527,"GenericUDF":9528,"DelegationTokenIdentifier":9529,"ante":9530,"Ġsm":9531,"amqp":9532,"ĠisInitialized":9533,"Ġlogs":9534,"Mojo":9535,"Hazelcast":9536,"FILES":9537,"Email":9538,"feature":9539,"ĠgetOutput":9540,"Ġaffinity":9541,"pga":9542,"ATTR":9543,"ĠIntrospectionSupport":9544,"Ġunique":9545,"cores":9546,"pendencies":9547,"ĠInvokerHelper":9548,"ĠdoSetProperty":9549,"ĠSsl":9550,"Ġdep":9551,"ĠGridH":9552,"ĠOut":9553,"interpret":9554,"PERSISTENT":9555,"throw":9556,"ĠInit":9557,"ĠDefaultCamelContext":9558,"getCheckpoint":9559,"LifeCycle":9560,"Ġ?\",":9561,"FormatException":9562,"While":9563,"ton":9564,"lision":9565,"getEndpointUri":9566,"BOOLEAN":9567,"ĠAnnotation":9568,"<_":9569,"Batches":9570,"FULL":9571,"ThreadExecutor":9572,"ĠmetaMethod":9573,"ĠTASK":9574,"PERIO":9575,"Dependency":9576,"scribed":9577,"crypto":9578,"'\");":9579,"domain":9580,"Modifier":9581,"addTo":9582,"Stored":9583,"using":9584,"ĠkeyGroup":9585,"GED":9586,"TP":9587,"cloud":9588,"oving":9589,"formance":9590,"Serdes":9591,"listFiles":9592,"ENCODING":9593,"ThriftId":9594,"ĠWorker":9595,"Points":9596,"SUFFIX":9597,"||||":9598,"Ġplc":9599,"ĠnonceGroup":9600,"XPath":9601,"getAllocated":9602,"solete":9603,"ExchangePattern":9604,"ByThriftId":9605,"getBoolVar":9606,"Ġlower":9607,"ĠresultHandler":9608,"qualifier":9609,"windowing":9610,"getApplicationAttemptId":9611,"ĠEnvironmentEdgeManager":9612,"ĠTez":9613,"acement":9614,"Percentage":9615,"unused":9616,"logical":9617,"ĠAmqp":9618,"testing":9619,"ystrix":9620,"ĠChunk":9621,"uuid":9622,"Ġbundle":9623,"ĠGridCacheContext":9624,"RETUR":9625,"ĠRo":9626,"(\"--":9627,"ĠgetF":9628,"ServerAddress":9629,"Ġaverage":9630,"Applications":9631,"037":9632,"Notebook":9633,"ĠCharset":9634,"Embedded":9635,"ĠHA":9636,"MessageStore":9637,"BlockEncoding":9638,"General":9639,"Ġindexes":9640,"persistent":9641,"getLen":9642,"ĠDo":9643,"(\",\");":9644,"ĠgetTask":9645,"ĠMult":9646,"DEBUG":9647,"CallSite":9648,"THREADS":9649,"PROVIDER":9650,"Ġengine":9651,"ReadCommand":9652,"UST":9653,"OperatorState":9654,"keyCnt":9655,"hfile":9656,"Ġ?>>":9657,"124":9658,"ĠMessageConsumer":9659,"ĠgetInput":9660,"Ġacls":9661,"salesforce":9662,"getPipeline":9663,"Mutations":9664,"ĠRaw":9665,"ĠScheduling":9666,"Translator":9667,"Configure":9668,"NAMES":9669,"Bool":9670,"arante":9671,"KeySelector":9672,"ializing":9673,"Ġ2000":9674,"Grids":9675,"CQL":9676,"ĠFSDataOutputStream":9677,"ignore":9678,"Threaded":9679,"reemp":9680,"Ġstarting":9681,"queueName":9682,"ISSET":9683,"Ġci":9684,"Ġfc":9685,"Ġcompressed":9686,"Ġ64":9687,"Evicted":9688,"Authenticator":9689,"INDOW":9690,"getBean":9691,"ĠDO":9692,"Ġ\\\"\"":9693,"trib":9694,"closing":9695,"groupBy":9696,"Ġdefined":9697,"toStringBinary":9698,"dap":9699,"twitter":9700,"InClosure":9701,"ĠinputFormat":9702,"angling":9703,"ĠIOHelper":9704,"OzoneManagerProtocolProtos":9705,"ĠExpected":9706,"validator":9707,"python":9708,"tok":9709,"ĠTag":9710,"PROPERTIES":9711,"SpringBoot":9712,"CodedOutputStream":9713,"created":9714,"ACTIVE":9715,"YNC":9716,"aced":9717,"ĠObjectMapper":9718,"ĠcreateBuffer":9719,"AffinityFunction":9720,"EvaluationExpression":9721,"ĠCxf":9722,"Ġscanners":9723,"TableSchema":9724,"imited":9725,"getChannel":9726,"(\"*":9727,"Statements":9728,"Ġtrack":9729,"Ġquota":9730,"elast":9731,"transfer":9732,"Ġperson":9733,"UriPath":9734,"Ġconnected":9735,"rub":9736,"ram":9737,"REST":9738,"Capabilities":9739,"ĠTFieldRequirementType":9740,"ĠoutputStream":9741,"Caught":9742,"Probe":9743,"ENV":9744,"EvictionPolicy":9745,"replica":9746,"ClusterClient":9747,".%":9748,"Ġslice":9749,"SlotProvider":9750,"Ġcalculate":9751,"ĠPATH":9752,"ĠnewVal":9753,"ĠSo":9754,"initeDuration":9755,"JDBC":9756,"Ġpe":9757,"Accept":9758,"},{":9759,"Ġsuffix":9760,"LP":9761,"subject":9762,"PageSize":9763,"StructObjectInspector":9764,"latest":9765,"riped":9766,"iform":9767,"htd":9768,"ĠLeader":9769,"12345678":9770,"TestDriver":9771,"Ġedit":9772,"Ġfactor":9773,"ĠPl":9774,"ĠGROUP":9775,"Grouping":9776,"ĠSUB":9777,"Intercept":9778,"ĠChange":9779,"TAL":9780,"Ġupper":9781,"ColumnStats":9782,"HOME":9783,"Ġsmall":9784,"scii":9785,"FieldException":9786,"Jan":9787,"reference":9788,"Namenode":9789,"ClientResponse":9790,"ĠcolumnNames":9791,"Ġmyagg":9792,"^^":9793,"_,":9794,"addRoutes":9795,"FieldName":9796,"ĠUse":9797,"Ġtimeline":9798,"UnitOfWork":9799,"ĠWatermark":9800,"mapper":9801,"requests":9802,"Ġloaded":9803,"ickfix":9804,"Indices":9805,"push":9806,"watcher":9807,"ĠLabel":9808,"ĠAttribute":9809,"issues":9810,"Ġsince":9811,"ĠBLOCK":9812,"createArray":9813,"ĠoutputColVector":9814,"PRIV":9815,";\\":9816,"Writers":9817,"Offheap":9818,"Opts":9819,"Ġdeletion":9820,"sf":9821,"setClass":9822,"ĠClassSize":9823,"SIZEOF":9824,"Defined":9825,"Ġlib":9826,"Named":9827,"ConcurrentHashMap":9828,"eor":9829,"notebook":9830,"Cor":9831,"Setter":9832,"StoreName":9833,"Pairs":9834,"ĠInputStreamReader":9835,"ĠAcid":9836,"RegionSpecifier":9837,"JobId":9838,"ĠBytesWritable":9839,"ĠZoo":9840,"Ġresolved":9841,"wire":9842,"ĠInterpreterResult":9843,"isLocal":9844,"Ġbar":9845,"ĠRemove":9846,"SnapshotDescription":9847,"ĠDATA":9848,"Ġdomain":9849,"loadClass":9850,"elasticsearch":9851,"addSource":9852,"Ġbulk":9853,"KeyCacheObject":9854,"Unsigned":9855,"(\");":9856,"ĠBY":9857,"Ġinitialized":9858,"SCRI":9859,"Namespaces":9860,"SCAN":9861,"solution":9862,"LLAP":9863,"warded":9864,"Ġconfigs":9865,"ĠdataOut":9866,"Center":9867,"isInfoEnabled":9868,"Seen":9869,"QueueName":9870,"LetterChannel":9871,"Year":9872,"sys":9873,"ĠnewSize":9874,"ĠDrop":9875,"SchedulerNode":9876,"Behind":9877,"NCE":9878,"ĠĠĠĠĠĠĠĠĠĠĠĠĠĠ":9879,"appAttemptId":9880,"ExistsException":9881,"Ġactions":9882,"]))":9883,"free":9884,"ĠIdentity":9885,"AsBytes":9886,"CER":9887,"Fraction":9888,"javax":9889,"Denied":9890,"Ġthere":9891,"Variables":9892,"ĠTProtocolUtil":9893,"DataSize":9894,"PRIORITY":9895,"Hi":9896,"getBuffer":9897,"getProxy":9898,"estimated":9899,"Average":9900,"Ġsf":9901,"NameNode":9902,"ĠDataFormat":9903,"UNSAFE":9904,"ĠDeletion":9905,"rd":9906,"Refs":9907,"Queued":9908,"SubTasks":9909,"Ġcommon":9910,"Compacting":9911,"ĠMetricRegistry":9912,"Ġdeadline":9913,"brain":9914,"getRuntime":9915,"newHashSet":9916,"ĠtestCreate":9917,"Compatible":9918,"Manifest":9919,"Ġserialization":9920,"checkState":9921,"Ġdisk":9922,"Cpu":9923,"privilege":9924,"TestSuite":9925,"ĠGoss":9926,"Ġjobs":9927,"ternative":9928,"Assertion":9929,"unregister":9930,"columnName":9931,"received":9932,"thmet":9933,"Ġscheduling":9934,"DOWN":9935,"thmetic":9936,"Ġlines":9937,"Handshake":9938,"ĠcacheCfg":9939,"Ġreplicas":9940,"ssing":9941,"Ġct":9942,"WEB":9943,"LER":9944,"Ġbaos":9945,"Ġreason":9946,"ĠNFA":9947,"ĠKS":9948,"Conditions":9949,"ood":9950,"ĠrunTest":9951,"rity":9952,"VectorizedRowBatch":9953,"okie":9954,"SynchronizationMode":9955,"Ljava":9956,"Injector":9957,"Deploy":9958,"ĠgetConnection":9959,"TaskExecutor":9960,"CodeClassLoader":9961,"typeInfo":9962,"Ġdisabled":9963,"TargetException":9964,"gu":9965,"Ġ{}.\",":9966,"Ġschedule":9967,"VInt":9968,"categories":9969,"arm":9970,"Tokenizer":9971,"ĠgroupId":9972,"FlatMap":9973,"ĠsessionId":9974,"sList":9975,"Ġkill":9976,"Customizer":9977,"ISTS":9978,"jetbrain":9979,"jetbrains":9980,"ese":9981,"Ġbroadcast":9982,"ResourceType":9983,"jobConf":9984,"CC":9985,"reservation":9986,"ĠrowId":9987,"EK":9988,"ĠgetFile":9989,"ĠgetContext":9990,"CRET":9991,"MXBeanDescription":9992,"Peers":9993,"si":9994,"ĠExecutor":9995,"setWrite":9996,"())))":9997,"ĠGridCacheQuery":9998,"033":9999,"Prob":10000,"sos":10001,"apacities":10002,"single":10003,"pout":10004,"ChillMode":10005,"Ġoperand":10006,"jobmanager":10007,"!!":10008,"Explain":10009,"ĠOzoneConfiguration":10010,"ĠCalendar":10011,"Ġ30000":10012,"MILI":10013,"Ġznode":10014,"gc":10015,"jira":10016,"Ġmajor":10017,"METRIC":10018,"Statistic":10019,"ĠMetaStore":10020,"ĠGridDhtPartition":10021,"RMContainer":10022,"PROTOCOL":10023,"LITERAL":10024,"ĠTIMESTAMP":10025,"ĠkeySerde":10026,"aven":10027,"URISyntaxException":10028,"oi":10029,"ont":10030,"Ġ19":10031,"Ġadditional":10032,"ĠignoredTests":10033,"Ġ('":10034,"ColumnValue":10035,"Sequential":10036,"ĠFake":10037,"ardware":10038,"RoutePolicy":10039,"ĠrootDir":10040,"bootstrap":10041,"ĠHel":10042,"ServerSocket":10043,"endpoints":10044,"ĠtmpDir":10045,"Tolerance":10046,"Ġfolder":10047,"ĠFetch":10048,"ProcessorContext":10049,"Python":10050,"VOKE":10051,"lie":10052,"may":10053,"recovery":10054,"bufferSize":10055,"getCanonicalName":10056,"mr":10057,"ulated":10058,"ĠrouteContext":10059,"osition":10060,"karaf":10061,"Exceptions":10062,"inputStream":10063,"augh":10064,"ĠProject":10065,"MILIES":10066,"ĠexpectedResult":10067,"StatementOnDriver":10068,"ongoDb":10069,"Ġrepo":10070,"Ġhistory":10071,"Queries":10072,"ENTRY":10073,"HFiles":10074,"gridName":10075,"Multimap":10076,"ĠHBaseConfiguration":10077,"Ġincludes":10078,"Framework":10079,"Ġclasspath":10080,"ddl":10081,"AggregationStrategy":10082,"TBaseHelper":10083,"getGlobal":10084,"Ġlaunch":10085,"InterpreterResult":10086,"ReplyTo":10087,"XY":10088,"angle":10089,"StateRegistry":10090,"ĠKubernetes":10091,"Ġparagraph":10092,"RMApp":10093,"COLUMNS":10094,"Ġfunc":10095,"MethodCallback":10096,":\",":10097,"man":10098,"ĠAkka":10099,"mini":10100,"ĠtxEntry":10101,"Ping":10102,"Ġcomment":10103,"Jars":10104,"Schedule":10105,"ĠJobVertexID":10106,"control":10107,"CompareOp":10108,"writeFieldEnd":10109,"aughter":10110,"PY":10111,"getOffset":10112,"seconds":10113,"Exha":10114,"Ġlvl":10115,"Ġinterrupted":10116,"ĠpartSpec":10117,"Plans":10118,"Failures":10119,"FACTOR":10120,"EMP":10121,"FROM":10122,"hore":10123,"Readers":10124,"URLConnection":10125,"AtomicLong":10126,"Ġlogical":10127,"ROLL":10128,"endor":10129,"ĠSensor":10130,"img":10131,"Processors":10132,"VIEW":10133,"acer":10134,"Ġstopped":10135,"ĠSequenceFile":10136,"ĠTxn":10137,"Ġmanaged":10138,"ĠresultSet":10139,"ĠPrivilegedExceptionAction":10140,"ĠEndPoint":10141,"mous":10142,"Ġformatter":10143,".\"));":10144,"experimental":10145,"Estimated":10146,"PeekMode":10147,"Construction":10148,"ĠCLI":10149,"splits":10150,"Ġsafe":10151,"ĠĠĠĠĠĠĠĠĠĠĠĠĠĠĠ":10152,"ĠHiveDecimal":10153,"Ġstreaming":10154,"DAY":10155,"ĠEVT":10156,"cceeded":10157,"else":10158,"ApplicationAttemptId":10159,"DataInputView":10160,"Kv":10161,"Ġfill":10162,"aggregation":10163,"ĠGridSql":10164,"ARCH":10165,"take":10166,"Delayed":10167,"Ġ1234":10168,"topics":10169,"www":10170,"StringValue":10171,"keyName":10172,"getValues":10173,"getMessageId":10174,"Ġoptional":10175,"ĠAvro":10176,"tle":10177,"}\")":10178,"ResourceID":10179,"ĠUnsafe":10180,"Ġqf":10181,"Cent":10182,"ORDS":10183,"writeObject":10184,"MethodException":10185,"ĠNavigable":10186,"Leave":10187,"ĠsubjId":10188,"soft":10189,"html":10190,"034":10191,"mvcc":10192,"getOwner":10193,"Ġmodified":10194,"ErasureCoding":10195,"ĠTOP":10196,"ĠoutStream":10197,":///":10198,"QUO":10199,"Ġrunnable":10200,"OzoneConfigKeys":10201,"Fails":10202,"ĠerrorHandler":10203,"ĠTrace":10204,"standing":10205,"getModifiers":10206,"getPriority":10207,"Ġnamed":10208,"ĠhttpClient":10209,"EAR":10210,"OVERHEAD":10211,"*)":10212,"ĠTRAN":10213,"setContext":10214,"Advisory":10215,"ĠcolName":10216,"Ġ'.":10217,"DATABASE":10218,"serial":10219,"NED":10220,"Ġloop":10221,"MediaType":10222,"ĠCRE":10223,"TimeRange":10224,"Precision":10225,"Factories":10226,"LATEST":10227,"Fatal":10228,"bi":10229,"history":10230,"ural":10231,"LocalStrategy":10232,"AsText":10233,"Roles":10234,"customizer":10235,"PrintWriter":10236,"ĠNameNode":10237,"IPC":10238,"INTEGER":10239,"Ġseconds":10240,"KeyValueStore":10241,"sender":10242,"ServerInfo":10243,"actions":10244,"Sem":10245,"Ġbad":10246,"MapFunction":10247,"IndexOf":10248,"='\"":10249,"Ġ\"</":10250,"ĠHStoreKey":10251,"MasterKey":10252,"Ġtransition":10253,"Roll":10254,"PERIOD":10255,"Fake":10256,"Ġiface":10257,"avor":10258,"ĠSelect":10259,"factor":10260,"EventTime":10261,"ĠstartKey":10262,"HashTable":10263,"PactJsonObject":10264,"bindy":10265,"PerInstance":10266,"SessionID":10267,"ĠpageMem":10268,"FAILURE":10269,"istributionPattern":10270,"home":10271,"ĠPO":10272,"ExecutionResult":10273,"ĠMutableObjectIterator":10274,"ARG":10275,"ReadWriteLock":10276,"Ġrmv":10277,"Ġdigest":10278,"ĠBox":10279,"ĠNew":10280,"ĠĠĠĠĠĠĠĠĠĠĠĠĠĠĠĠĠĠĠĠĠ":10281,"ĠRegionInfo":10282,"addChild":10283,"()}":10284,"Committer":10285,"Naming":10286,"ĠcacheConf":10287,"ĠCellUtil":10288,"ĠHeap":10289,"Ġfos":10290,"Ġreg":10291,"classNode":10292,"Describe":10293,"getContainerID":10294,"ĠResourceProfile":10295,"ĠHFileBlock":10296,"Correlation":10297,"TestAdapter":10298,"mainder":10299,"ĠHBaseAdmin":10300,"ĠJobGraphUtils":10301,"launch":10302,"getOrCreate":10303,"llation":10304,"Footer":10305,"onymous":10306,"TreeMap":10307,"AMRM":10308,"sessionId":10309,"advanced":10310,"Sm":10311,"hl":10312,"ĠStats":10313,"ĠRexNode":10314,"kahad":10315,"background":10316,"VALUES":10317,"DULE":10318,"DegreeOfParallelism":10319,"vide":10320,"Ġshuffle":10321,"PED":10322,"ReplicationState":10323,"ĠReference":10324,"Accumulators":10325,"LOCATION":10326,"getDeclaredField":10327,"ĠStorageType":10328,"aker":10329,"logs":10330,"Standalone":10331,"Ġpeek":10332,"createProducer":10333,"ACID":10334,"ĠcontainerManager":10335,"HttpResponse":10336,"GeneratedMessageV":10337,"peated":10338,"toMillis":10339,"blocks":10340,"vv":10341,"ObjectInputStream":10342,"Ġjoined":10343,"browse":10344,"getProto":10345,"ĠnewInstance":10346,"ToLive":10347,"Ġunmarshal":10348,"metricName":10349,"SafeMode":10350,"getRMContext":10351,"Sim":10352,"hazelcast":10353,"selector":10354,"commState":10355,"Vm":10356,"FileSize":10357,"springboot":10358,"binding":10359,"()+\"":10360,"getStats":10361,"getInterpreter":10362,"nextLong":10363,"ATEG":10364,"StorageService":10365,"Ġdelimiter":10366,"ĠConfigConstants":10367,"Cont":10368,"ĠActiv":10369,"ildcard":10370,"Meteor":10371,"LEFT":10372,"Evict":10373,"getExecutorService":10374,"StringBuilder":10375,"viders":10376,"getInputStream":10377,"Ġtp":10378,"Ġ17":10379,"GenericFile":10380,"NCY":10381,"Ġdifferent":10382,"SORT":10383,"Rolling":10384,"EpochMilli":10385,"Ġmonitor":10386,"ĠgetUnknownFields":10387,"ates":10388,"ContainerManager":10389,"HttpServletRequest":10390,"ĠJUnit":10391,"LINK":10392,"Frequency":10393,"Ne":10394,"Press":10395,"Ġallocator":10396,"ArrayUtil":10397,"ĠExprNodeDesc":10398,"rew":10399,"Sopremo":10400,"ĠCompare":10401,"Ġbit":10402,"createConsumer":10403,"Ġskipped":10404,"ĠPolicy":10405,"WI":10406,"InOut":10407,"ĠSl":10408,"ĠMed":10409,"getRegionNameAsString":10410,"FUNCTION":10411,"ĠcolumnFamilies":10412,"spy":10413,"Least":10414,"ĠGridCacheEntryEx":10415,"autoconfigure":10416,"irror":10417,"ĠMAP":10418,"\\\\\\\"":10419,"ĠSimpleSlot":10420,"Ġscheduled":10421,"ĠDispatcher":10422,"PredMatched":10423,"ĠsynPredMatched":10424,"AtomicBoolean":10425,"Ġincoming":10426,"getReceived":10427,"HexString":10428,"102":10429,"wh":10430,"uent":10431,"ĠassertNot":10432,"Ġzkw":10433,"router":10434,"COPE":10435,"ether":10436,"ĠGenericsType":10437,"Ġutility":10438,"Dictionary":10439,"ManagerFactory":10440,"ĠLongValue":10441,"ĠStomp":10442,"marine":10443,"Ġdeep":10444,"valuationContext":10445,"watch":10446,"PartitionDesc":10447,"Ġprocessed":10448,"VERSIONS":10449,"decrement":10450,"ators":10451,"Ġ25":10452,"OnMock":10453,"fference":10454,"ĠSearch":10455,"liest":10456,"transition":10457,"Physical":10458,"MENTS":10459,"InTransition":10460,"getError":10461,"ĠAP":10462,"fold":10463,"scale":10464,")){":10465,"ĠMatcher":10466,"RegionState":10467,"ĠWrap":10468,"ĠnoteId":10469,"WO":10470,"Ġevict":10471,"ĠLOCAL":10472,"NodeLabelsManager":10473,"CONNECTOR":10474,"ĠRetry":10475,"Ġshell":10476,"TBL":10477,"ĠLinkedBlockingQueue":10478,"grant":10479,"Ġig":10480,"OnHeap":10481,"ĠColumnDefinition":10482,"KernalContext":10483,"Declaration":10484,"sasl":10485,"ancy":10486,"Ġprogram":10487,"StateMetaInfo":10488,"ĠMail":10489,"writeBytes":10490,"ĠINSTANCE":10491,"conc":10492,"evt":10493,"ĠgetProperty":10494,"LaunchContext":10495,"RECORDS":10496,"StreamComponentName":10497,"Ġfutures":10498,"Hub":10499,"INCLUDE":10500,"Ġprecision":10501,"WALEntry":10502,"submitApp":10503,"Son":10504,"hook":10505,"Ġinte":10506,"writable":10507,"holder":10508,"Ġnet":10509,"ĠstartRow":10510,"cycle":10511,"ĠSegment":10512,"RSGroupInfo":10513,"Movement":10514,"getParameterTypes":10515,"esting":10516,"ĠDataNode":10517,"PARALLELISM":10518,"antlr":10519,"Ġcombin":10520,"CreateTable":10521,"servations":10522,"RootElement":10523,"Credential":10524,"routeContext":10525,"color":10526,"ĠKMS":10527,"ĠContract":10528,"display":10529,"firm":10530,"RunnerFactory":10531,"ggr":10532,"ToBe":10533,"ĠMO":10534,"ĠJSONObject":10535,"================":10536,"Ġspecify":10537,"ĠRegionServer":10538,"ĠInputSplit":10539,"Ġ}));":10540,"Red":10541,"LABLE":10542,"Encrypted":10543,"ĠMetastoreConf":10544,"anis":10545,"ĠPersist":10546,"Vari":10547,"sal":10548,"SEQUE":10549,"DISK":10550,"REGIONINFO":10551,"SPEC":10552,"Ġimage":10553,"ĠIG":10554,"))),":10555,"ColumnOrSuperColumn":10556,"ĠrowKey":10557,"FLAG":10558,"atural":10559,"ĠFIL":10560,"ExpiryPolicy":10561,"Ġbin":10562,"Ġinstantiate":10563,"ĠRewrite":10564,"\\\\.":10565,"HANDLER":10566,"oice":10567,"zen":10568,"getRegistry":10569,"Vectors":10570,"Ġleast":10571,"ĠOrcProto":10572,"Ġ\"\"));":10573,"REMOVE":10574,"Evt":10575,"ReplicationPeerConfig":10576,"requireNonNull":10577,"FileWriter":10578,"Polling":10579,"GridCacheContext":10580,"TaskManagerLocation":10581,"GHT":10582,"js":10583,"ually":10584,"xB":10585,"ĠStringWriter":10586,"ĠConstants":10587,"Ġmob":10588,"ough":10589,"ĠClassPathXmlApplicationContext":10590,"ĠInstantiation":10591,"Ġcallable":10592,"Authorizer":10593,"Ġactor":10594,"items":10595,"EndOf":10596,"Origin":10597,"ĠExtended":10598,"Ġhook":10599,"ĠFileDataSource":10600,"getShortName":10601,"Ġbf":10602,"ĠSUCCESS":10603,"mutate":10604,"rollback":10605,"ĠReentrant":10606,"Seek":10607,"Normalizer":10608,"publish":10609,"soap":10610,"THER":10611,"DOC":10612,"pageSize":10613,"TaskManagerOptions":10614,"PrimitiveObjectInspector":10615,"ĠRelNode":10616,"containers":10617,"Signal":10618,"PrintStream":10619,"Ġprocedure":10620,"InputStreamOperatorTestHarness":10621,"ĠgetInstance":10622,"ĠCI":10623,"StructMetaData":10624,"Ġqb":10625,"waitUntil":10626,"optional":10627,"Ġbest":10628,"IntWritable":10629,"ĠCH":10630,"Filesystem":10631,"containermanager":10632,"Ġdecimal":10633,"resp":10634,"TMap":10635,"ugi":10636,"CANCE":10637,"ĠNAME":10638,"Ġgenerated":10639,"Ġchain":10640,"OrMerge":10641,"SIGN":10642,"Google":10643,"Mismatch":10644,"RocksDB":10645,"MetaException":10646,"Perms":10647,"ĠDataSource":10648,"handled":10649,"INTERNAL":10650,"MetaStoreClient":10651,"kahadb":10652,"Respon":10653,"JobConfig":10654,"ĠcreateCamelContext":10655,"Form":10656,"Round":10657,"DataStructure":10658,"ĠrmContainer":10659,"Redeliveries":10660,"ond":10661,"getHBaseCluster":10662,"Resp":10663,"Infinispan":10664,"ducing":10665,"Cancelled":10666,"GATION":10667,"ĠAsyncCallback":10668,"diff":10669,"Foreign":10670,"ffff":10671,"KeyStore":10672,"acent":10673,"utex":10674,"RegionCoprocessorEnvironment":10675,"IgniteKernal":10676,"bitfield":10677,"Timers":10678,"cogn":10679,"AsyncProcessor":10680,"NEXT":10681,"naming":10682,"Ġconsole":10683,"ĠCompute":10684,"ĠHRegionLocation":10685,"ĠdataStream":10686,"Ġits":10687,"COUNTER":10688,"HColumnDescriptor":10689,"flatMap":10690,"Extr":10691,"Ġrr":10692,"Ġthreshold":10693,"ĠSI":10694,"Means":10695,"Ġanalyz":10696,"SessionId":10697,"OPTIONS":10698,"SASL":10699,"xpath":10700,"readMap":10701,"hosts":10702,"192":10703,"ĠURISyntaxException":10704,"iated":10705,"ĠgetVersion":10706,"credentials":10707,"initialized":10708,"IPAL":10709,"ElectionService":10710,"INCIPAL":10711,"$.":10712,"ĠregionServer":10713,"HStoreKey":10714,"ifo":10715,"tempted":10716,"ĠDataTypes":10717,"DriverStrategy":10718,"ĠDFSTestUtil":10719,"ĠDecoratedKey":10720,"ĠSortedMap":10721,"encry":10722,"ookie":10723,"adaptor":10724,"ObjectNode":10725,"TYPES":10726,"Submitter":10727,"Kryo":10728,"Bug":10729,"ĠisUse":10730,"BaseRow":10731,"PARENT":10732,"Blacklist":10733,"ĠALL":10734,"ĠJDBC":10735,"ĠUnavailableException":10736,"References":10737,"Ġaudit":10738,"SHORT":10739,"IColumn":10740,"Ġdeploy":10741,"Backlog":10742,"Ġprimitive":10743,"ĠScanner":10744,"getCurrentUser":10745,"INF":10746,"Ġhdr":10747,"servers":10748,"SourceAST":10749,"ĠConcurrentLinked":10750,"ĠFILTER":10751,"clock":10752,"Ġpublish":10753,"assertArrayEquals":10754,"ClientFactory":10755,"MetricsConstants":10756,"CharSequence":10757,"OLUME":10758,"SEGMENT":10759,"ĠLITERAL":10760,"high":10761,"Ġreconnect":10762,"ĠgetResource":10763,"DataTypes":10764,"LogFile":10765,"Ġfetcher":10766,"Blueprint":10767,"Amount":10768,"HCat":10769,"lazy":10770,"ĠoutV":10771,"UNI":10772,"HiveException":10773,"ĠScript":10774,"Ġti":10775,"Ġtoo":10776,"Rewrite":10777,"TableNames":10778,"RowCount":10779,"Username":10780,"Ġusers":10781,"Branch":10782,"ĠdataFile":10783,"duplicate":10784,"upplier":10785,"LEEP":10786,"MISSION":10787,"Related":10788,"ĠRMAppAttempt":10789,"ĠtaskTracker":10790,"ĠFailed":10791,"ĠrunStatementOnDriver":10792,"Ġwithout":10793,"orders":10794,"Ġdetermine":10795,"Ġdestroy":10796,"Ġcorrelation":10797,"Depth":10798,"RegionLoad":10799,"Sessions":10800,"IsMutable":10801,"ĠFileUtil":10802,"ChangeRequest":10803,"ĠRMNode":10804,"Ġgeneric":10805,"getTaskConfig":10806,"InMB":10807,"union":10808,"RowMutation":10809,"Ġnamenode":10810,"GridNode":10811,"ĠINDEX":10812,"Crc":10813,"getenv":10814,"Seg":10815,"ĠNodeId":10816,"ObjectMapper":10817,"until":10818,"ĠUP":10819,"OperationContext":10820,"completeExceptionally":10821,"Ġattrs":10822,"Cloud":10823,"frame":10824,"definition":10825,"Ġthrough":10826,"ĠassertExpression":10827,"Ġ\")\";":10828,"ĠSTRUCT":10829,"rowKey":10830,"Profiling":10831,"ListExpression":10832,"OperationFailedException":10833,"legacy":10834,"CompactionStrategy":10835,"ĠNODE":10836,".\"),":10837,"isFile":10838,"Ġbasic":10839,"Unre":10840,"ĠBulk":10841,"ĠKinesis":10842,"RpcTimeout":10843,"ynth":10844,"Car":10845,"Issue":10846,"Zookeeper":10847,"Ġblk":10848,",,":10849,"BA":10850,"LD":10851,"Shift":10852,"ĠsendMessage":10853,"ĠPrepared":10854,"()]);":10855,"anned":10856,"Placeholder":10857,"dOutException":10858,"Ġ).":10859,"getComparator":10860,"Ġfire":10861,"101":10862,"ById":10863,"ĠResourceID":10864,"SSLContextParameters":10865,"ĠImmutableList":10866,"Ġacknowledge":10867,"omm":10868,"getHBaseAdmin":10869,"Ġtransformation":10870,"Compilation":10871,"ĠMaterialized":10872,"RegionResponse":10873,"Ġinstances":10874,"MetricsImpl":10875,"ĠSets":10876,"PRIMARY":10877,"TRANSACTIONAL":10878,"stripe":10879,"asc":10880,"Ġmarshal":10881,"unique":10882,"Complex":10883,"ALE":10884,"XmlRootElement":10885,"ĠParser":10886,"setAccessible":10887,"program":10888,"ĠstateStore":10889,"Inc":10890,"Collision":10891,"ContainerCommand":10892,"COMPRESSION":10893,"Ġ));":10894,"locator":10895,"ĠcurrentTime":10896,"comment":10897,"Ġversions":10898,"ĠEntryProcessor":10899,"Tracing":10900,"aranteed":10901,"getExpression":10902,"ĠChannelType":10903,"ĠConsumerRecord":10904,"CAST":10905,"Ġcast":10906,"AsStream":10907,"CharArray":10908,"BEROS":10909,"ĠCOUNT":10910,"kill":10911,"ĠProtocol":10912,"ĠTwitter":10913,"interceptor":10914,"Ġreading":10915,"setUse":10916,"ĠSend":10917,"111":10918,"ĠSync":10919,"TaskAttempt":10920,"FeatureNotSupportedException":10921,"ĠviaProto":10922,"Pax":10923,"threshold":10924,"rich":10925,"BlockInfo":10926,"Cookie":10927,"oton":10928,"DOUBLE":10929,"ĠCoGroup":10930,"Ġsecure":10931,"JSONObject":10932,"Ġmutations":10933,"ĠERROR":10934,"contrib":10935,"Builders":10936,"Ġptr":10937,"UNC":10938,"ĠProducerTemplate":10939,"gable":10940,"Ġ\"{":10941,"pointed":10942,"Ġmatching":10943,"Thrott":10944,"CommonConfigurationKeys":10945,"Lambda":10946,"Ġconsumed":10947,"Ġdetails":10948,"ĠOZONE":10949,"SIMISTIC":10950,"PORTED":10951,"hes":10952,"ThreadLocal":10953,"enceAdapter":10954,"operations":10955,"failover":10956,"ĠexitCode":10957,"appings":10958,"Ġcommitted":10959,"Measure":10960,"Ġprob":10961,"ContextImpl":10962,"ContainerID":10963,"Ġapps":10964,"GH":10965,"Rejected":10966,"Ġmaterialized":10967,"Ġacquire":10968,"fficient":10969,"STRI":10970,"Ship":10971,"Ġprime":10972,"modified":10973,"Ġoverride":10974,">\";":10975,"Flat":10976,"Ġduplicate":10977,"120":10978,"paths":10979,"Ġdirs":10980,"getAnnotation":10981,"Codes":10982,"ipelin":10983,"versions":10984,"hn":10985,"rowser":10986,"third":10987,"*_":10988,"mgr":10989,"ĠRecordWriter":10990,"II":10991,"public":10992,"come":10993,"ĠcreateBroker":10994,"Adding":10995,"Ġdisplay":10996,"Ġspecific":10997,"invokable":10998,"replay":10999,"alt":11000,"Ġconverted":11001,"ĠgetNode":11002,"ĠdoStart":11003,"ĠUnion":11004,"WindowStore":11005,"SpringCamelContext":11006,"follow":11007,"ĠFactory":11008,"Ġtrunc":11009,"Ġelapsed":11010,"ved":11011,"aas":11012,"Ġoptim":11013,"TestRule":11014,"createAnd":11015,"Ġintermediate":11016,"Flushed":11017,"usage":11018,"ServiceState":11019,"SharePreemption":11020,"unmodifiableMap":11021,"Brokers":11022,"queries":11023,"Ġ...":11024,"ĠREPE":11025,"Ġkeyed":11026,"COMPLETE":11027,"druid":11028,"ĠgraphBuilder":11029,"Ġneeds":11030,"ĠParseException":11031,"Snap":11032,"ĠSalesforce":11033,"isStatic":11034,"Ġrebalance":11035,"scal":11036,"ĠCONNE":11037,"otonic":11038,"Grp":11039,"SO":11040,"ingLevel":11041,"izing":11042,"ĠbuildPartial":11043,"MetastoreProto":11044,"Greater":11045,"setConf":11046,"fileSystem":11047,"ErrorMsg":11048,"Spilling":11049,"CHECKPOINT":11050,"ĠMockRMApp":11051,"Save":11052,"Style":11053,"Explicit":11054,"Ġunexpected":11055,"Ġ128":11056,"ĠTimeoutException":11057,"Ġfault":11058,"Dot":11059,"Pause":11060,"PartitionInfo":11061,"digest":11062,"Lsnr":11063,"ĠnodeManager":11064,"Less":11065,"ĠWe":11066,"Assignments":11067,"doAs":11068,"ĠpropertyName":11069,"Try":11070,"Ġdflt":11071,"ĠLongAdder":11072,"ĠendpointUri":11073,"ĠOzoneManager":11074,"import":11075,"xE":11076,"Ġfragment":11077,"ĠPRE":11078,"ĠProcessorDefinition":11079,"Am":11080,"ĠAuto":11081,"ContainerState":11082,"MvccCandidate":11083,"Ġksm":11084,"ĠHEADER":11085,"uls":11086,"There":11087,"NANO":11088,"Ġunregister":11089,"GroupsHandler":11090,"Ġtake":11091,"ĠcolNames":11092,"EnumSet":11093,"Ldr":11094,"processing":11095,"Ġpojo":11096,"methods":11097,"Are":11098,"Ġpid":11099,"getPart":11100,"Beat":11101,"Sources":11102,"Protocols":11103,"RouteContext":11104,"ApiKeys":11105,"kewed":11106,"getUsed":11107,"FileInputStream":11108,"testutils":11109,"emit":11110,"ĠLongColumnVector":11111,"PropertyPlaceholders":11112,"getContextClassLoader":11113,"Seed":11114,">>[]":11115,"ĠJobStatus":11116,"module":11117,"Ġsummary":11118,"Ġgr":11119,"ĠDefaultExchange":11120,"BIT":11121,"MINUTE":11122,"RSGroup":11123,"ĠMina":11124,"Merger":11125,"ĠDi":11126,"getSSTable":11127,"SERVERS":11128,"Enforce":11129,"Ġround":11130,"commands":11131,"ĠArgumentCaptor":11132,"artBeat":11133,"ĠLine":11134,"Uncompressed":11135,">>)":11136,"WithRank":11137,"OnException":11138,"expectedHeader":11139,"ĠFSDataInputStream":11140,"<<":11141,"rase":11142,"Ġexch":11143,"ĠdoRead":11144,"SubmissionContext":11145,";)":11146,"SG":11147,"setMessage":11148,"ĠElasticsearch":11149,"ĠServiceHelper":11150,"ĠActiveMQQueue":11151,"Too":11152,"Ġcor":11153,"fair":11154,"ĠDr":11155,"ĠcreateFile":11156,"NATIVE":11157,"validation":11158,"StorageHandler":11159,"getPeer":11160,"JndiRegistry":11161,"getRead":11162,"arer":11163,"ĠCql":11164,"AddressBook":11165,"ĠRuntimeCamelException":11166,"ulsar":11167,"Strict":11168,"ĠCredentials":11169,"LongWritable":11170,"Ġ?>)":11171,"++,":11172,"ĠpathTo":11173,"datab":11174,"ĠAsyncProcessor":11175,"real":11176,"Exact":11177,"ĠAcl":11178,"imen":11179,"LogAggregation":11180,"BlockCache":11181,"queues":11182,"help":11183,"Ġrq":11184,"ĠgetLocal":11185,"Interrupt":11186,"QueueItem":11187,"ĠjobVertex":11188,"anyString":11189,"Ġann":11190,"etic":11191,"accumulator":11192,"ĠAuthorization":11193,"Ġcapability":11194,"live":11195,"reverse":11196,"Recovered":11197,"perly":11198,"ĠcreateConnection":11199,"carding":11200,"vr":11201,"STAR":11202,"Ġauthentication":11203,"Ġmsgs":11204,"ĠMethodCaller":11205,"day":11206,"getSystem":11207,"ConsistencyLevel":11208,"batchSize":11209,"ardwareDescription":11210,"Ġincluded":11211,"ĠregionsTo":11212,"Ġfollowing":11213,"ĠHTTP":11214,"ioe":11215,"LocationInfo":11216,"ĠoldVal":11217,"DeletionTime":11218,">=":11219,"iable":11220,"(\"(":11221,"BuilderFactory":11222,"SharingGroupId":11223,"Ġpreemp":11224,"STNode":11225,"ColumnDesc":11226,"ĠSQLFeatureNotSupportedException":11227,"ĠNoOp":11228,"weet":11229,"ĠRewriteRule":11230,"ĠBTree":11231,"createFile":11232,"inputColumnVector":11233,"PRINCIPAL":11234,"incoming":11235,"ColumnDefinition":11236,"ĠpageAddr":11237,"native":11238,"addSink":11239,"withDescription":11240,"LUSTER":11241,"getTableDescriptor":11242,"Classification":11243,"AndHeaders":11244,"ĠBackup":11245,">{":11246,"sock":11247,"IntValue":11248,"fake":11249,"RequestsCount":11250,"CachedClass":11251,"ĠSTART":11252,"ĠNet":11253,"LAIN":11254,"DiscoverySpi":11255,"sstables":11256,"ĠKSMetaData":11257,"But":11258,"Ġbld":11259,"ĠBloomFilter":11260,"ĠReturnCode":11261,"LogLevel":11262,"ĠmemStore":11263,"containerID":11264,"ĠLinkedHashSet":11265,"OzoneConsts":11266,"ĠMethodCallExpression":11267,"strumentation":11268,"}\\":11269,"SITION":11270,"CHANGE":11271,"ContainerData":11272,"Ġretries":11273,"InternalName":11274,"igital":11275,"Janitor":11276,"KeepAlive":11277,"Ġartifact":11278,"getList":11279,"ĠSavepoint":11280,"TransportFactory":11281,"tearDown":11282,"compressor":11283,"ĠmessageId":11284,"Detail":11285,"ĠMetricName":11286,"(\"</":11287,"MetaRegion":11288,"OnDisk":11289,"ĠIgniteSpi":11290,"(__":11291,"BIG":11292,"SCOPE":11293,"TStruct":11294,"BlobKey":11295,"ZooKeeperProtos":11296,"Ġoccurred":11297,"ĠPart":11298,"arning":11299,"ĠfileSystem":11300,"ĠKeyValueTimestamp":11301,"mlink":11302,"atable":11303,"ĠIF":11304,"JobResult":11305,"ĠAcc":11306,"GridToString":11307,"ĠTypeComparator":11308,"NonBlocked":11309,"executorService":11310,"DeliveryMode":11311,"234":11312,"kinesis":11313,"deployment":11314,"rozen":11315,"messaging":11316,"getSchema":11317,"paragraph":11318,"ĠgroupName":11319,"Ġwrapper":11320,"osen":11321,"Ġschemes":11322,"iumTests":11323,"ĠAccum":11324,"ATABLE":11325,"getRecord":11326,"Demand":11327,"arrayAccess":11328,"VOLUME":11329,"rowId":11330,"ĠgetMessage":11331,"authorization":11332,"Ġbetween":11333,"ĠTypeExtractor":11334,"TOTAL":11335,"TopVer":11336,"ĠVERSION":11337,"getKind":11338,"OutputGate":11339,"FuncDesc":11340,"ĠMojo":11341,"Jvm":11342,"ĠUtil":11343,"ĠSign":11344,"ĠLE":11345,"ĠcreateConsumer":11346,"bez":11347,"Ġonline":11348,"getActive":11349,"twimg":11350,"300":11351,"Negative":11352,"[\"":11353,"getExecution":11354,"readBinary":11355,"mmediate":11356,"ByteBuf":11357,"TestingUtils":11358,"Closing":11359,"KeyArgs":11360,"Implementation":11361,"marshall":11362,"setState":11363,"ĠCross":11364,"ifications":11365,"bezium":11366,"ĠCompilation":11367,"dispatcher":11368,"ĠgetNumberOf":11369,"OutputCollector":11370,"Ġupdates":11371,"Plain":11372,"RandomAccessFile":11373,"DFLT":11374,"Ġrequires":11375,"variable":11376,"Ġcmp":11377,"ĠcreateEndpoint":11378,"Ġpoint":11379,"yyyy":11380,"ĠNoSuchObjectException":11381,"Zip":11382,"Ġzero":11383,"RootPath":11384,"ĠstopAll":11385,"BuiltIn":11386,"dto":11387,"rithmetic":11388,"ĠgetId":11389,"Ġgrouped":11390,"Ġstandby":11391,"Ignoring":11392,"(\"{":11393,"ĠfileStatus":11394,"ProcessorSupplier":11395,"blocking":11396,"Expect":11397,"Ġexternal":11398,"getShortUserName":11399,"Fallback":11400,"Ks":11401,"classes":11402,"RegionObserver":11403,"GRID":11404,"ĠImport":11405,"ĠStatic":11406,"Cop":11407,"ĠMain":11408,"ĠIgniteUuid":11409,"ĠmaxSize":11410,"TASKS":11411,"CAMEL":11412,"KB":11413,"Pan":11414,"ĠPython":11415,"cheese":11416,"))))":11417,"writeByte":11418,"ĠCondition":11419,"TAINS":11420,"compatible":11421,"Ġoldest":11422,"width":11423,"getLock":11424,"ResourcePlan":11425,"Ġ22":11426,"STOM":11427,"keyValue":11428,"ĠHand":11429,"Alt":11430,"SplitOrMerge":11431,"Ġoverwrite":11432,"owerMock":11433,"Ds":11434,"micro":11435,"ĠQUEUE":11436,"TimeStamp":11437,"TATION":11438,"clusterId":11439,"HbaseMetastoreProto":11440,"Fac":11441,"iring":11442,"deliveryPolicy":11443,"stit":11444,"getOperation":11445,"EventHandler":11446,"Ġchoose":11447,"CompactProtocol":11448,"ViolationPolicy":11449,"]+":11450,"ClassResolver":11451,"Ġdeprecated":11452,"ServiceProtos":11453,"GridClient":11454,"aim":11455,"aken":11456,"rees":11457,"GridPortable":11458,"ĠTupleTypeInfo":11459,"Wrapped":11460,"ĠomMetadataManager":11461,"Shims":11462,"ĠJetty":11463,"Ġprepared":11464,"Ġwithin":11465,"EXT":11466,"pagemem":11467,"cn":11468,"Ġrdd":11469,"ĠAbstractJobVertex":11470,"Ġweight":11471,"getPartitioner":11472,"ServiceDiscovery":11473,"ĠThreadPoolExecutor":11474,"Ipc":11475,"ĠdataSize":11476,"memtable":11477,"ĠAllocated":11478,"ĠTH":11479,"consistent":11480,"\")))":11481,"expectedHeaderReceived":11482,"Ġintercept":11483,"ĠIllegalAccessException":11484,"ksName":11485,"ĠDruid":11486,"ctual":11487,"REP":11488,"Soap":11489,"ĠCapacitySchedulerConfiguration":11490,"mv":11491,"getSuper":11492,"shutdownNow":11493,"BEAT":11494,"getNextNonBlocked":11495,"AW":11496,"jdk":11497,"IND":11498,"ClassRule":11499,"Ġcompress":11500,"IgniteUuid":11501,"ĠTRANS":11502,"ĠTO":11503,"Ġdes":11504,"Nothing":11505,"Ġ?)\",":11506,"Ġpercent":11507,"ĠsnapshotName":11508,"SkipList":11509,"Ġ{\\":11510,"ship":11511,"CacheStore":11512,"Workers":11513,"HiveDecimal":11514,"RATIS":11515,"KERBEROS":11516,"Ġauthorizer":11517,"ĠresultType":11518,"ĠrowCount":11519,"RANDOM":11520,"ENDPOINT":11521,"JobInfo":11522,"Subpartition":11523,"IgniteFs":11524,"Wire":11525,"dag":11526,"latch":11527,"Filtered":11528,"ENTITY":11529,"databind":11530,"getDatanode":11531,"Ġcorrupt":11532,"ĠPlease":11533,"ĠkeyBytes":11534,"ĠStreamsConfig":11535,"getContent":11536,"Ġstores":11537,"OzoneAcl":11538,"ĠHeartbeat":11539,"JAVA":11540,"Ġmq":11541,"collector":11542,"br":11543,"RequestBody":11544,"pageAddr":11545,"ĠAcidUtils":11546,"tml":11547,"Decre":11548,"ĠCacheProjection":11549,"Ġbuckets":11550,"SUMER":11551,"SQ":11552,"getByName":11553,"Ġbuff":11554,"cacheConfiguration":11555,"StateHandles":11556,"Skipping":11557,"getRegions":11558,"Between":11559,"defined":11560,"\\\".":11561,"ĠMQ":11562,"signature":11563,"Coder":11564,"InputPlanNode":11565,"umeTrue":11566,"Ġagain":11567,"Membership":11568,"FY":11569,"Ġbr":11570,"VariableExpression":11571,"iq":11572,"Ġč":11573,"Ġcore":11574,"Ġthrottle":11575,"ĠSum":11576,"Ġsetter":11577,"ĠIgniteFuture":11578,"HIST":11579,"HENTIC":11580,"pause":11581,"Increase":11582,"ĠdoStop":11583,"Checkpointing":11584,"ĠhostName":11585,"setVar":11586,"ĠsetValue":11587,"Ġgp":11588,"Ġgreater":11589,"CompletedCheckpoint":11590,"Acknowledgement":11591,"sCount":11592,"Serialize":11593,"ĠLicense":11594,"TopicName":11595,"Ġmp":11596,"Ġ23":11597,"memoryManager":11598,"ĠDriverManager":11599,"latency":11600,"ĠisEmpty":11601,"storeName":11602,"RestartStrategy":11603,"activate":11604,"iCaSchedulerApp":11605,"Ġrate":11606,"KED":11607,"Rex":11608,"Ġhere":11609,"ĠsetMax":11610,"inux":11611,"throwable":11612,"ĠDistributionPattern":11613,"createExchange":11614,"ĠonException":11615,"kaha":11616,"ĠcolumnIndex":11617,"Ġcounts":11618,"Ġmarshaller":11619,"writeBinary":11620,"ĠlogDir":11621,"lastIndexOf":11622,"AlterTable":11623,"Ġrender":11624,"ĠRich":11625,"ĠstopAllGrids":11626,"TU":11627,"ĠStat":11628,"ableExpression":11629,"ORM":11630,"BucketInfo":11631,"AbstractType":11632,"Ġxmlns":11633,"ceiverClientManager":11634,"ĠMBeanServer":11635,"TCompactProtocol":11636,"ingDirectory":11637,"IDX":11638,"ĠFull":11639,"Ġpartitioned":11640,"Decision":11641,"Ġobtain":11642,"RetentionPolicy":11643,"ĠSH":11644,"junits":11645,"Volumes":11646,"TProtocolUtil":11647,"Ġinode":11648,"Ġexcludes":11649,"ierarchical":11650,"ĠTool":11651,"Ġexchanges":11652,"ĠDataInputView":11653,"ĠJAXB":11654,"TaskManagers":11655,"BUFFERS":11656,"ByteChannel":11657,"++);":11658,"GridNear":11659,"IgniteConfiguration":11660,"StreamTransport":11661,"ĠOFF":11662,"ĠEmbedded":11663,"inputGate":11664,"ĠTaskExecutor":11665,"00000000000000":11666,"Enumeration":11667,"LocatedBlock":11668,"getExchanges":11669,"ĠDDL":11670,"FileUtils":11671,"Expire":11672,"ĠNotify":11673,")?":11674,"PING":11675,"reuse":11676,"Ġsupports":11677,"world":11678,"ĠnumRecords":11679,"parallel":11680,"ĠbuilderForValue":11681,"GenericFuncDesc":11682,"Interceptors":11683,"bulk":11684,"edFor":11685,"ĠtypeId":11686,"ĠdataIn":11687,"ĠKer":11688,"PARSER":11689,"ĠContainerProtos":11690,"MutableObjectIterator":11691,"EasyMock":11692,"toHexString":11693,"ĠCLUSTER":11694,"ĠDFSConfigKeys":11695,"TIOStreamTransport":11696,"always":11697,"rmContext":11698,"Udf":11699,"ĠStringSerializer":11700,"Ġinspector":11701,"Shut":11702,"Workset":11703,"RMStateStore":11704,"ksm":11705,"Implicit":11706,"ĠnumRegions":11707,"getMemorySize":11708,"parquet":11709,"Ġcombine":11710,"ĠjobMaster":11711,"Ġcharacter":11712,"isSetSuccess":11713,"leaf":11714,"intp":11715,"ĠassertSame":11716,"ĠinputEvents":11717,"Ġupd":11718,"Phone":11719,"SubtaskState":11720,"PPELIN":11721,"getDatabase":11722,"SECRET":11723,"typeId":11724,"ZEPPELIN":11725,"ĠuserFunction":11726,"Ġlocks":11727,"Resettable":11728,"ĠALLOW":11729,"Contain":11730,"upload":11731,"Outbound":11732,"MiniHBaseCluster":11733,"Ġfallback":11734,"ĠtestData":11735,"Quant":11736,"Ġ]":11737,"Ġ\"*":11738,"ĠWITH":11739,"inputColVector":11740,"Ġdispatch":11741,"HBaseTestingUtility":11742,"BINARY":11743,"IMA":11744,"elements":11745,"yet":11746,"readMessage":11747,"ResourceTypes":11748,"ĠendTime":11749,"ĠDeserializer":11750,"Ġedits":11751,"IMP":11752,"Sampl":11753,"ĠDescriptor":11754,"anning":11755,"ĠWord":11756,"aud":11757,"Ġrecursive":11758,"Ġverb":11759,"PrimitiveTypeInfo":11760,"Ġaggregator":11761,"getBase":11762,"echo":11763,"checksum":11764,"ĠpartNames":11765,"Backed":11766,"getRowLength":11767,"''":11768,"getTemp":11769,"cacheKey":11770,"makeQualified":11771,"WARN":11772,"abbit":11773,"getColumnFamilyStore":11774,"ĠSpace":11775,"ATEGY":11776,"Ġjmx":11777,"ErrorHandlerBuilder":11778,"ĠLogicalSlot":11779,"ĠtaskExecutor":11780,"Ġnever":11781,"anism":11782,"savepoint":11783,"SSE":11784,"getSub":11785,"Ġjm":11786,"Ġdt":11787,"cacheCtx":11788,"Ġpossible":11789,"=\");":11790,"Neighbors":11791,"Ġtries":11792,"InSec":11793,"spect":11794,"platform":11795,"localNodeId":11796,"CoreOptions":11797,"RPCProtos":11798,"JAXB":11799,"probe":11800,"keystore":11801,"ĠIgniteEx":11802,"visitMethod":11803,"getEncodedNameAsBytes":11804,"xC":11805,"yb":11806,"Ġ(;":11807,"ĠgetData":11808,"Ġready":11809,"SSLContext":11810,"getProtocol":11811,"ĠgetProxy":11812,"ĠBind":11813,">>,":11814,"Ġstreamer":11815,"Criter":11816,"Materialized":11817,"anization":11818,"Pop":11819,"ContainerReport":11820,"visitInsn":11821,"MILLIS":11822,"unmodifiableList":11823,"Durability":11824,"ResourceUsage":11825,"ĠcolNum":11826,"Ġbeing":11827,"SerializerSnapshot":11828,"ĠcontainerID":11829,"ĠstoreName":11830,"ĠbaseDir":11831,"Chunks":11832,"ĠDataOutputBuffer":11833,"Pressure":11834,"UB":11835,"Ġcoord":11836,"newRecord":11837,"TaskEvent":11838,"thriftId":11839,"Ġ{}.":11840,"ReturnCode":11841,"ĠContent":11842,"broadcast":11843,"Ġdf":11844,"cursor":11845,"LeaderId":11846,"ĠTBaseHelper":11847,"ExecutionContext":11848,"bytesTo":11849,"ĠgridName":11850,"Jetty":11851,"ions":11852,"anit":11853,"ĠEventType":11854,"coders":11855,"KA":11856,"Ġar":11857,"(\"_":11858,"Ġrepair":11859,"Keytab":11860,"NotExists":11861,"iteration":11862,"LoggingLevel":11863,"Ġok":11864,"ConsumerConfig":11865,"ĠOperatorDesc":11866,"UDAF":11867,"Malformed":11868,"FileOutputStream":11869,"('\\":11870,"SpringTestSupport":11871,"tpUrl":11872,"Ġmodify":11873,"110":11874,"setUser":11875,"ĠArrayNode":11876,"Ġaccum":11877,"UnsupportedEncodingException":11878,"Ġeither":11879,"setText":11880,"Returned":11881,"Break":11882,"title":11883,"alf":11884,"TestDir":11885,"TableAccessor":11886,"ĠVAR":11887,"OutputStreamOperator":11888,"STRATEGY":11889,"Ġmer":11890,"ĠSW":11891,"ObjectOutputStream":11892,"TimeProvider":11893,"createRegistry":11894,"Collect":11895,"RIFT":11896,"ĠdoWrite":11897,"Ġtargets":11898,"GroovySourceAST":11899,"NonceGroup":11900,"BROKER":11901,"ommission":11902,"JM":11903,"readUTF":11904,"TokenStream":11905,"BB":11906,"Ġmid":11907,"StateMachine":11908,"DataRow":11909,"Ġlease":11910,"ĠbytesRead":11911,"ĠmetadataManager":11912,"ĠattemptId":11913,"Ġpassed":11914,"CI":11915,"PLAIN":11916,"catch":11917,"updated":11918,"words":11919,"VerbHandler":11920,"CacheName":11921,"SImage":11922,"},\\\"":11923,"getAuth":11924,"redit":11925,"Some":11926,"IsNull":11927,"ActorSystem":11928,"Destroy":11929,"OuterJoin":11930,"Ġrecovered":11931,"Ġmultiple":11932,"taskName":11933,"Ġconnections":11934,"Compactions":11935,"ĠBlockInfo":11936,"ĠCONF":11937,"Layer":11938,"sable":11939,"ĠLocation":11940,"ĠgetLast":11941,"ĠNative":11942,"ĠrpcService":11943,"ĠsecretKey":11944,"DIRECTORY":11945,")\"":11946,"Amqp":11947,"ĠShell":11948,"Busy":11949,"ĠgetAnd":11950,"ProtoFormat":11951,"executeQuery":11952,"PreparedStatement":11953,"ĠIgnition":11954,"stricted":11955,"will":11956,"iding":11957,"BuilderInitialization":11958,"ĠSerialized":11959,"ElementException":11960,"BufferedReader":11961,"ĠmaybeForce":11962,"ALLOCATION":11963,"ĠNetUtils":11964,"ĠmaybeForceBuilderInitialization":11965,"icrom":11966,"Ġexplicit":11967,"strict":11968,"ĠKerberos":11969,"IgniteSystemProperties":11970,"fromElements":11971,"Msgs":11972,"procExec":11973,"fy":11974,"Ġ\"@":11975,"Ġpairs":11976,"ĠtoList":11977,"ĠcfDef":11978,"icrometer":11979,"balancer":11980,"Handling":11981,"DefaultCamelContext":11982,"Namesystem":11983,"Linear":11984,"Launcher":11985,"GroupedIterator":11986,"ĠcNode":11987,"Ġfn":11988,"ĠUniform":11989,"Opport":11990,"Ġwriting":11991,"ĠMasterProcedure":11992,"ĠPrimitiveObjectInspectorFactory":11993,"SEQUENCE":11994,"roll":11995,"VectorExpression":11996,"SYS":11997,"getReceivedExchanges":11998,"TypeWrapper":11999,"Perf":12000,"StartN":12001,"allest":12002,"ĠFAI":12003,"Raft":12004,"Ġpretty":12005,"SISTENC":12006,"SISTENCY":12007,"Zk":12008,"Compile":12009,"ATTRI":12010,"ENG":12011,"boun":12012,"ĠfunctionName":12013,"aid":12014,"Dependent":12015,"ĠAck":12016,"NodeList":12017,"ĠcreateRegistry":12018,"NODES":12019,"getFunction":12020,"ĠgetPartition":12021,"ybrid":12022,"LING":12023,"Configurer":12024,"Enter":12025,"TypeInfos":12026,"Ġspecial":12027,"Retrying":12028,"ĠSecure":12029,"getStartKey":12030,"isArray":12031,"ColNames":12032,"ĠLONG":12033,"ARTBEAT":12034,"ratis":12035,"Ġrenew":12036,"STAND":12037,"ĠcacheConfiguration":12038,"ShutdownHook":12039,"112":12040,"Capacities":12041,"Hits":12042,"Ġrp":12043,"Ġrw":12044,"AccessToken":12045,"ĠLogAggregation":12046,"Clusters":12047,"asb":12048,"readFully":12049,"lank":12050,"DatanodeProtocolProtos":12051,"ĠDead":12052,"RelatedTo":12053,"Direction":12054,"adding":12055,"repair":12056,"Ġ\"$":12057,"ĠmiddleEvent":12058,"AssignmentManager":12059,"Datanodes":12060,"ZERO":12061,"Labeled":12062,"Prun":12063,"ived":12064,"localPeek":12065,"Relative":12066,"ĠHCat":12067,"GroupName":12068,"Scanners":12069,"ĠTransformer":12070,"ĠDiscovery":12071,"ĠGridCommonAbstractTest":12072,"ĠValidation":12073,"Rob":12074,"irected":12075,"TaskContext":12076,"MethodCall":12077,"Quietly":12078,"FLOAT":12079,"TestPlan":12080,"ibly":12081,"ĠModel":12082,"Azure":12083,"Ġmask":12084,"CacheAtomicityMode":12085,"ĠfieldNumber":12086,"ĠthreadPool":12087,"Ġ4096":12088,"ĠProxy":12089,"StreamShard":12090,"ĠSELECT":12091,"3000":12092,"sens":12093,"MAIN":12094,"Attrs":12095,"ĠDense":12096,"ĠProgram":12097,"cean":12098,"ĠgetStart":12099,"ĠBO":12100,"ĠMapJoin":12101,"Abs":12102,"normalizeIdentifier":12103,"Ġbloom":12104,"UpdateRequest":12105,"ĠByteBuf":12106,"Title":12107,"uzz":12108,"started":12109,"Ġfixed":12110,"ableState":12111,"ĠIColumn":12112,"axon":12113,"written":12114,"ĠCREATE":12115,"Modes":12116,"ĠTimelineFilterList":12117,"ĠTemporaryFolder":12118,"getBroker":12119,"Ġconcurrent":12120,"Ġlatency":12121,"Clients":12122,"ĠrouteId":12123,"ActiveMQConnectionFactory":12124,"Ġmillis":12125,"ĠMessageProducer":12126,"assignContainers":12127,"HBaseConfiguration":12128,"StopRow":12129,"ĠopCtx":12130,"Expiration":12131,"ĠBlockingQueue":12132,"ingState":12133,"quorum":12134,"SerializerConfigSnapshot":12135,"ĠDisk":12136,"ATTRIBU":12137,"600":12138,"Exclu":12139,"ames":12140,"fire":12141,"Customer":12142,"addAndGet":12143,"seed":12144,"REMO":12145,"ServiceProvider":12146,"CENDING":12147,"ĠappAttemptId":12148,"Flight":12149,"COMMAND":12150,"rnd":12151,"dez":12152,"Deserialize":12153,"topicName":12154,"Sorter":12155,"fragment":12156,"Ġbounds":12157,"Lost":12158,"vous":12159,"Ġabsolute":12160,"ĠClustering":12161,"labels":12162,"dezvous":12163,"512":12164,"616":12165,"getMetadata":12166,"ConfigFile":12167,"ĠGauge":12168,"ĠNamed":12169,"ynthetic":12170,"Inbound":12171,"Ġsy":12172,"ConstantDesc":12173,"coordinator":12174,"settings":12175,"Ġdc":12176,"ĠLabeled":12177,"ithub":12178,"ĠzooKeeper":12179,"ĠkeepBinary":12180,"Ire":12181,"SLEEP":12182,"()==":12183,"ĠFUNCTION":12184,"ResourceProfile":12185,"Truncate":12186,"ĠResourceInformation":12187,"ĠXPath":12188,"3333":12189,"windowStore":12190,"Znode":12191,"Ġer":12192,"ĠId":12193,"Ġrhs":12194,"\\\"\"));":12195,"LISH":12196,"WorkDirectory":12197,"KeyedState":12198,"########":12199,"ĠYARN":12200,"ĠMerge":12201,"Elasticsearch":12202,"Ġpacket":12203,"ĠGridQuery":12204,"WithKey":12205,"Always":12206,"Decor":12207,"Ġstopping":12208,"peerId":12209,"OnlineRegions":12210,"acro":12211,"ĠSP":12212,"newSize":12213,"ches":12214,"ĠStreamTask":12215,"partitioned":12216,"Suites":12217,"getRowOffset":12218,"ĠprintUsage":12219,"AggFunction":12220,"ĠCLIENT":12221,"AsyncCallback":12222,"calculate":12223,"SparkContext":12224,"CMD":12225,"Recipient":12226,"PECTED":12227,"Federation":12228,"erse":12229,"Renew":12230,"WithHeader":12231,"dataFormat":12232,"SnapshotRequest":12233,"FFFF":12234,"EXPI":12235,"Ġcommands":12236,"Exhausted":12237,"ĠConverter":12238,"ClusterDescriptor":12239,"AccessReader":12240,"JavaObject":12241,"TxnId":12242,"setContextClassLoader":12243,"(*)":12244,"Complet":12245,"Ġseparator":12246,"QueryParam":12247,"Connectors":12248,"Trim":12249,"addLast":12250,"ĠtestTask":12251,"ĠDist":12252,"ĠFileWriter":12253,"ĠHddsProtos":12254,"Vendor":12255,"getTransport":12256,"Configurable":12257,"TableScan":12258,"createStatement":12259,"Ġfailover":12260,"Ġ[%":12261,"ĠPoint":12262,"Ldap":12263,"getAllocation":12264,"ĠSee":12265,"csv":12266,"ExitCode":12267,"yetus":12268,"Moving":12269,"Ġri":12270,"ĠORDER":12271,"ĠlogPrefix":12272,"Does":12273,"Restrictions":12274,"]=":12275,"KeyGroups":12276,"Detection":12277,"Boundary":12278,"AUTHENTIC":12279,"/{":12280,"github":12281,"ĠcolStats":12282,"Milliseconds":12283,"transactional":12284,"={},":12285,"audience":12286,"ganization":12287,"getDouble":12288,"ĠJar":12289,"ĠcheckAnd":12290,"blueprint":12291,"ĠKeyStore":12292,"ĠScheme":12293,"SendTo":12294,"parsed":12295,"ĠInner":12296,"getRaw":12297,"ĠgetServer":12298,"('.":12299,"getBroadcast":12300,"embler":12301,"znode":12302,"Ġmatched":12303,"Ġtablename":12304,"RunId":12305,"awt":12306,"TxId":12307,"Iterative":12308,"Estimator":12309,"ersey":12310,"Ascii":12311,"EDED":12312,"atibility":12313,"ĠDataOutputView":12314,"--------------------------------":12315,"ĠCapacityScheduler":12316,"Ġptn":12317,"Ġescape":12318,"Coordin":12319,"ĠgetTableName":12320,"ĠwireFormat":12321,"Ġdegree":12322,"Timeouts":12323,"ĠClock":12324,"ĠOT":12325,"KEYSTORE":12326,"SnapshotResponse":12327,"getHostname":12328,"cret":12329,"tests":12330,"IndexEntry":12331,"IgniteEx":12332,"FET":12333,"TWO":12334,"std":12335,"constraint":12336,"ĠcreateTask":12337,"UMMY":12338,"SnapshotDone":12339,"forClass":12340,"forward":12341,"YarnException":12342,"XmlAccessor":12343,"dating":12344,"DayTime":12345,"Facade":12346,"grees":12347,"ĠProgress":12348,"atom":12349,"Ġmime":12350,"Ġharness":12351,"QueueInfo":12352,"SlotRequest":12353,"ElementType":12354,"Ġzookeeper":12355,"party":12356,"secondary":12357,"Guard":12358,"CLOSED":12359,"CLEAN":12360,"isClosed":12361,"ĠFiniteDuration":12362,"gue":12363,"identifier":12364,"attach":12365,"Ġstomp":12366,"ToRegistry":12367,"Ġws":12368,"objectweb":12369,"WebSocket":12370,"ahaDB":12371,"uzzy":12372,"ĠIs":12373,"ĠFault":12374,"tmpDir":12375,"Ġask":12376,"Ġkeytab":12377,"ĠFederation":12378,"entities":12379,"BR":12380,"typeName":12381,"Ġshard":12382,"ĠjobName":12383,"Ġclause":12384,"150":12385,"FTP":12386,"XmlAccessorType":12387,"since":12388,"xA":12389,"Ġincr":12390,"Ġprojection":12391,"ĠPrincipal":12392,"SizeMB":12393,"transformation":12394,"Ġqueries":12395,"ĠWALEdit":12396,"DeserializationSchema":12397,"Selected":12398,"stores":12399,"ASYNC":12400,"ĠImmutableMap":12401,"(\"$":12402,"StreamTask":12403,"MajorCompaction":12404,"EVT":12405,"writeUTF":12406,"ĠcurrentThread":12407,"MultiThreaded":12408,"Ġwindows":12409,"ĠSortedSet":12410,"NFA":12411,"reducer":12412,"Ġjournal":12413,"INVOKE":12414,"ĠisValid":12415,"Ġtrying":12416,"Interfaces":12417,"getInputs":12418,"Merging":12419,"Ġregistration":12420,"DataStreamer":12421,"getIs":12422,"EndpointUri":12423,"DECIMAL":12424,"ĠRemoteFile":12425,"ĠschemeField":12426,"ĠstreamsMetrics":12427,"equal":12428,"FSDataInputStream":12429,"ĠpartId":12430,"TIMELINE":12431,"Ġcntr":12432,"DataOutputView":12433,"ircu":12434,"Rout":12435,"quill":12436,"Adaptor":12437,"AndWait":12438,"ĠwriteId":12439,"BUILD":12440,"Ġgeneration":12441,"ĠgetDefaultInstanceForType":12442,"addStructMetaData":12443,"Ġeval":12444,"ĠMapContract":12445,"Versioned":12446,"CORES":12447,"VarInsn":12448,"TreeReader":12449,"finder":12450,"modify":12451,"quillian":12452,"addStructMetaDataMap":12453,"private":12454,"addComponent":12455,"atic":12456,"stored":12457,"ĠSort":12458,"Ġworld":12459,"ThreadName":12460,"InvalidRequestException":12461,"CLUSI":12462,"ClassTestRule":12463,"secure":12464,"OptimizerNode":12465,"xm":12466,"ĠQuota":12467,"ĠSimpleDateFormat":12468,"kvs":12469,"Consistent":12470,"ĠcreateClient":12471,"ĠstartIndex":12472,"TupleTypeInfo":12473,"ĠserviceName":12474,"GridCacheEntry":12475,"Relation":12476,"countered":12477,"ĠTStruct":12478,"product":12479,"ĠtestPut":12480,"Beans":12481,"chain":12482,"Ġprofile":12483,"Shot":12484,"ExecutionAttempt":12485,"UnknownHostException":12486,"Spout":12487,"fab":12488,"ĠMe":12489,"StreamFactory":12490,"RowResult":12491,"taskContext":12492,"ĠcommandLine":12493,"Preempted":12494,"ircuit":12495,"cb":12496,"urator":12497,"ĠgetState":12498,"ĠoutputVector":12499,"CREATED":12500,"folder":12501,"viceWith":12502,"SchemaHelper":12503,"Ġ[-":12504,"SslContextParameters":12505,"Ġrestriction":12506,"PriorityQueue":12507,"XA":12508,"fit":12509,"buffers":12510,"ClassDoc":12511,"ĠnumSubTasks":12512,"AggregationBuffer":12513,"****************":12514,"LOBAL":12515,"ĠMemStore":12516,"Serial":12517,"resultPath":12518,"hcatalog":12519,"TableEnvironment":12520,"ĠBPlus":12521,"<>(),":12522,"completedFuture":12523,"pub":12524,"slices":12525,"isc":12526,"EventId":12527,"Ġouts":12528,"componentName":12529,"Ġ']',":12530,"prepareResponse":12531,"ĠparsedMessage":12532,"ĠCSV":12533,"AddressBookProtos":12534,"Dn":12535,"Hour":12536,"mapping":12537,"PathParam":12538,"JobMaster":12539,"Perm":12540,"ĠStateStore":12541,"Cql":12542,"Ġjid":12543,"ĠparseDelimitedFrom":12544,"ĠnamespaceSerializer":12545,"configured":12546,"EMON":12547,"ErasureCodingPolicy":12548,"LITY":12549,"ErrorMessage":12550,"Ġstates":12551,"ĠthreadId":12552,"ĠFieldSchema":12553,"ĠKafkaStreams":12554,"ORIZATION":12555,"onit":12556,"Ġcrc":12557,"Ġfl":12558,"ĠCompact":12559,"FORE":12560,"Ġcons":12561,"GridGain":12562,"Ġresponses":12563,"RpcCallback":12564,"VolumeArgs":12565,"ĠobjectName":12566,"cert":12567,"ĠWRITE":12568,"103":12569,"ĠtestingSlotProvider":12570,"SLO":12571,"pable":12572,"Ġca":12573,"retrieve":12574,"visitVarInsn":12575,"ĠCacheEntryPredicate":12576,"Ġordinal":12577,"sources":12578,"ARGET":12579,"NumRecords":12580,"XmlAccessType":12581,"Ġputs":12582,"expired":12583,"ĠCheckpointOptions":12584,"Ġinteger":12585,"Varchar":12586,"Stomp":12587,"KeyValues":12588,"messageId":12589,"Different":12590,"PrivateKey":12591,"BI":12592,"Micro":12593,"jax":12594,"cyc":12595,"FilesTo":12596,"servable":12597,"vertices":12598,"CREMENT":12599,"Extra":12600,"bck":12601,"Ġ+\"":12602,"throttle":12603,"projection":12604,"())),":12605,"ĠblockId":12606,"evict":12607,"ĠAddress":12608,"Goss":12609,"capture":12610,"(\")\");":12611,"ĠPER":12612,"ĠcreateTest":12613,"ControllerFactory":12614,"ĠCreateMode":12615,"stubs":12616,"ĠSIZE":12617,"Ġmb":12618,"getResourceAsStream":12619,"FeatureChecker":12620,"ĠcontentType":12621,"Vs":12622,"Ġnegative":12623,"ĠgetBlock":12624,"ResourceHandler":12625,"startMiniCluster":12626,"NoOp":12627,"ĠMockNM":12628,"getDeclaringClass":12629,"thirdparty":12630,"FETCH":12631,"Cr":12632,"ĠnewExchange":12633,"Ġsim":12634,"Ġproperly":12635,">>>>":12636,"ĠEOF":12637,"ProducerConfig":12638,"Ġ(%":12639,"IgniteInternalTx":12640,"={}\",":12641,"Bolt":12642,"Dual":12643,"decessor":12644,"lower":12645,"ĠExchangePattern":12646,"SecurityException":12647,"Ġvalidation":12648,"Ear":12649,"isAlive":12650,"(\"#":12651,"ĠvalueSerializer":12652,"Ġcustomizer":12653,"Bounded":12654,"ĠkeyType":12655,"ĠDELETE":12656,"ĠCoprocessor":12657,"REPORT":12658,"ResponseStatus":12659,"IntervalMs":12660,"ĠComb":12661,"GENER":12662,"Ġtemporary":12663,"ĠREPEATABLE":12664,"={}":12665,"(\":":12666,"OnFailure":12667,"ĠwriteObject":12668,"CTOR":12669,"ĠappAttempt":12670,"DSL":12671,"ĠdeepCopy":12672,"ĠWordCount":12673,"AMQ":12674,"Tuples":12675,"ĠIndexOutOfBoundsException":12676,"Ġvariables":12677,"Known":12678,"subtract":12679,"PARK":12680,"Replicate":12681,"Periodic":12682,"DISABLED":12683,"Na":12684,"ClientProvider":12685,"Ġadvance":12686,"ynamo":12687,"ĠgcBefore":12688,"Sens":12689,"hemer":12690,"Ġincrease":12691,"Ġwatermark":12692,"ĠDI":12693,"Targets":12694,"getExchangeId":12695,"Pull":12696,"ĠKeys":12697,"ĠfieldID":12698,"DAEMON":12699,"ENCE":12700,"InterpreterContext":12701,"ĠHttpClient":12702,"define":12703,"weight":12704,"ĠMiniCluster":12705,"descriptors":12706,"ListState":12707,"ĠFast":12708,"HeaderFilterStrategy":12709,"ProcessFunction":12710,"145":12711,"getAndIncrement":12712,"JSon":12713,"ĠStack":12714,"MethodName":12715,"=\"+":12716,"subList":12717,"ĠpartVals":12718,"InterpreterSetting":12719,"ĠFlinkKafka":12720,"ĠONE":12721,"iles":12722,"ĠSUP":12723,"Numbers":12724,"Decommission":12725,"Puts":12726,"PipelineFactory":12727,"ĠAggregator":12728,"activity":12729,"DNS":12730,"added":12731,"getN":12732,"RemoteFile":12733,"generator":12734,"PactString":12735,"ĠDeferred":12736,"Ġnamesystem":12737,"Ġcreation":12738,"Await":12739,"BAL":12740,"WRI":12741,"StateMap":12742,"LAST":12743,"ĠStreamThread":12744,"AtomicReference":12745,"LeaderRetrievalService":12746,"getVirtual":12747,",_":12748,"jav":12749,"KeyLocationInfo":12750,"ĠWatcher":12751,"tinuation":12752,"PrimaryKey":12753,"gularObject":12754,"appen":12755,"PactTask":12756,"Ġinterfaces":12757,"Twitter":12758,"Ġimplementation":12759,"ims":12760,"ĠfileId":12761,"deletion":12762,"getRowArray":12763,"Bag":12764,"ipfinder":12765,"ĠcontainerName":12766,"Deleting":12767,"acenter":12768,"Ġ\\\\":12769,"FileInputFormat":12770,"Ġ{\"-":12771,"GenerationStamp":12772,"TXN":12773,"aphore":12774,"asMap":12775,"bundle":12776,"GroupBy":12777,"BucketName":12778,"GridCacheVersion":12779,"ĠStage":12780,"Balancing":12781,"oral":12782,"Ġpause":12783,"getHive":12784,"Des":12785,"locations":12786,"ĠMvcc":12787,"ComponentConfiguration":12788,"secretKey":12789,"isRunning":12790,"ĠGoogle":12791,"NotRetry":12792,"Archived":12793,"MANAGED":12794,"Ġrelative":12795,"SUPPORTED":12796,"maybe":12797,"gp":12798,"Attempted":12799,"ĠByteBufferUtils":12800,"Expand":12801,"ĠBytecode":12802,"Ġ\"_\"":12803,"InfinispanConstants":12804,"Overflow":12805,"Reads":12806,"ĠstateDesc":12807,"journal":12808,"ruptor":12809,"DESCRIPTION":12810,"ObjectInspectors":12811,"InvocationTargetException":12812,"VO":12813,"MessageSize":12814,"ĠRex":12815,"ĠMR":12816,"ServerCnxn":12817,"Ġcompressor":12818,"Iterators":12819,"517":12820,"DDS":12821,"typedOther":12822,"ASSIGN":12823,"Ep":12824,"ĠEn":12825,"PartitionSpec":12826,"Ġevts":12827,"propertyName":12828,"AddedSchedulerEvent":12829,"StreamOperator":12830,"reads":12831,"Ġdeserialized":12832,"ĠtestConfig":12833,"ĠFlow":12834,"Ġmapped":12835,"requested":12836,"MODULE":12837,"Allocations":12838,"lingo":12839,"nti":12840,"clusterframework":12841,"ASTTransformation":12842,"MultiNode":12843,"ĠPreparedStatement":12844,"ĠSchemeFactory":12845,"HY":12846,"Parquet":12847,"NumberFormatException":12848,"Ġsubscriber":12849,"ĠLogging":12850,"INK":12851,"DescriptorBuilder":12852,"oush":12853,"Ġsched":12854,"Ġyour":12855,"ĠIOError":12856,"ĠFILTERING":12857,"createTempFile":12858,"ĠCacheOperationContext":12859,"merged":12860,"REGIONS":12861,"UnderConstruction":12862,"Ordinal":12863,"Html":12864,"ĠMllp":12865,"ĠbyName":12866,"BOOT":12867,"Extensions":12868,"ĠSingleOutputStreamOperator":12869,"swing":12870,"Fix":12871,"hex":12872,"Ġhfile":12873,"Ġsee":12874,"FAIL":12875,"ATO":12876,"ĠReplicationPeerConfig":12877,"icator":12878,"Ġconstruct":12879,"IOUtils":12880,"expiry":12881,"CatalogJanitor":12882,"tblName":12883,"ĠNotebook":12884,"ARE":12885,"uman":12886,"ProcessorResponse":12887,"ĠreadObject":12888,"ĠCacheException":12889,"Aggr":12890,"small":12891,"BlockEncoder":12892,"Ġservlet":12893,"ĠinputChannel":12894,"OperatorTable":12895,"ĠChecksum":12896,"InvocationOnMock":12897,"lemented":12898,"Ġcontrol":12899,"Ġ3000":12900,"Ġspan":12901,"Ġspill":12902,"mkList":12903,"ĠConcurrentLinkedQueue":12904,"na":12905,"ĠConnect":12906,"Ren":12907,"TableRequest":12908,"createSerializer":12909,"segments":12910,"ĠExternalizable":12911,"lazz":12912,"intercept":12913,"ĠtimeUnit":12914,"ĠvalBytes":12915,"Accessors":12916,"AvailableException":12917,"ILABLE":12918,"caught":12919,"deserializer":12920,"TimeZone":12921,"Ġhealth":12922,"Warning":12923,"ĠfindByThriftId":12924,"Planner":12925,"threads":12926,"balancing":12927,"Thin":12928,"izedKey":12929,"OPTI":12930,"ĠFieldSet":12931,"Ġ[{}]":12932,"ĠRouter":12933,"ContainerResource":12934,"RowFilter":12935,"grace":12936,"ĠHBaseFsck":12937,"Ġjoiner":12938,"ĠDatanodeInfo":12939,"Ġincremental":12940,"IMAGE":12941,"=?":12942,"addConnector":12943,"ĠsetKey":12944,"FSDataOutputStream":12945,"ĠIncrement":12946,"ĠKeySelector":12947,"BlobStore":12948,"ĠStorm":12949,"schemeField":12950,"Smpp":12951,"World":12952,"idden":12953,"RouteTest":12954,"dispose":12955,"PRESSION":12956,"getArguments":12957,"NodeName":12958,"TERATION":12959,"\"))));":12960,"ĠĠĠĠĠĠĠĠĠĠĠĠĠĠĠĠĠĠĠĠĠĠĠĠĠ":12961,"OzoneConfiguration":12962,"images":12963,"KILL":12964,"DStream":12965,"getAcl":12966,"Ġbus":12967,"ĠJournal":12968,"240":12969,"Dag":12970,"stage":12971,"getZooKeeper":12972,"Ġhint":12973,"ĠoutputColumn":12974,"Spool":12975,"getRest":12976,"Submitted":12977,"Catch":12978,"Ġregular":12979,"Ġattach":12980,"foobar":12981,"cor":12982,"Reducers":12983,"Ġdag":12984,"ĠPGP":12985,"ĠBound":12986,"ĠVR":12987,"ReplicationType":12988,"Ġextr":12989,"ranges":12990,"INIT":12991,"ĠMigration":12992,"ĠkeyClass":12993,"ĠGridRest":12994,"EXECU":12995,"ĠYou":12996,"Ring":12997,"Ġcont":12998,"ReplicationFactor":12999,"ĠschemaName":13000,"identitymanagement":13001,"repo":13002,"Ġcql":13003,"Ġneeded":13004,"Reload":13005,"ĠgetQueue":13006,"ExecSvc":13007,"Ġquorum":13008,"ĠGossiper":13009,"Ġbarrier":13010,"AppId":13011,"deleteTable":13012,"Ġattempts":13013,"MandatoryEndpoint":13014,"():":13015,"Ġcert":13016,"keyStore":13017,"\\\"\",":13018,"ĠFileDataSink":13019,"Verification":13020,"Ġknown":13021,"},{\\\"":13022,"ĠQueryCursor":13023,"ĠVectorExpressionDescriptor":13024,"Inclusive":13025,"setResource":13026,"ĠgetField":13027,"IntPair":13028,"Converters":13029,"ĠSopremoUtil":13030,"Ġestimated":13031,"IntegrationTest":13032,"PK":13033,"TaskVertex":13034,"lying":13035,"DefaultValue":13036,"WriteIds":13037,"Ġzip":13038,"ĠTopologyBuilder":13039,"icip":13040,"setTask":13041,"ĠCQL":13042,"Ġargv":13043,"aryExpression":13044,"PortFinder":13045,"components":13046,"SchedulingRequest":13047,"Bar":13048,"IJsonNode":13049,"Cond":13050,"Bytecode":13051,"Locally":13052,"ofMillis":13053,"ĠgroupBy":13054,"ĠtopicName":13055,"StreamWrapper":13056,"readByte":13057,"ContainerInfo":13058,"Lex":13059,"func":13060,"ĠMETA":13061,"Ġsopremo":13062,"Overwrite":13063,"ByteRange":13064,"ĠImmutableSet":13065,"ĠtimerService":13066,"Sw":13067,"ĠSize":13068,"Ġ1000000":13069,"[];":13070,"ccup":13071,"Ġexpressions":13072,"NotExistException":13073,"ĠsetProperties":13074,"EntryProcessor":13075,"ĠpartName":13076,"ĠStorageContainer":13077,"schemaName":13078,"ĠinternalGet":13079,"ĉĉĉĉ":13080,"ĠDynamicCache":13081,"imension":13082,"Crypto":13083,"Ġsr":13084,"ldap":13085,"\\\"\");":13086,"Additional":13087,"SourceFunction":13088,"Ports":13089,"SERV":13090,"ĠServiceSupport":13091,"ĠDeserialization":13092,"ĠOrcFile":13093,"Ġcipher":13094,"abling":13095,"yped":13096,"MessageConsumer":13097,"Ġverifier":13098,"PEND":13099,"AsyncMethodCallback":13100,"ĠtotalSize":13101,"getResponseCode":13102,"Decompressor":13103,"reed":13104,"Ġmiss":13105,"board":13106,"Signer":13107,"GenericsTypes":13108,"ĠDOUBLE":13109,"xD":13110,"completion":13111,"hibernate":13112,"Ġcss":13113,"ĠAMQ":13114,"ĠTaskAttempt":13115,"disableTable":13116,"ĠOpcodes":13117,"ARCHIVE":13118,"']":13119,"CATION":13120,"NG":13121,"Offer":13122,"rocks":13123,"getTags":13124,"NullWritable":13125,"ĠtheClass":13126,"deleted":13127,"Ġ57":13128,"Ġabs":13129,"attemptId":13130,"baos":13131,"ĠgetService":13132,"ĠActive":13133,"readFields":13134,"ranul":13135,"CheckpointStats":13136,"lowedBy":13137,"getQueueName":13138,"'\\":13139,"Verbose":13140,"HEARTBEAT":13141,"ĠTimelineReader":13142,"ĠtransactionManager":13143,"privileges":13144,"Vers":13145,"iro":13146,"srv":13147,"Ġimplemented":13148,"ĠTR":13149,"ĠgetParent":13150,"ĠPORT":13151,"Forwarded":13152,"Ġgu":13153,"MODI":13154,"ĠkvState":13155,"IllegalStateException":13156,"ReadableWritable":13157,"Publish":13158,"Tier":13159,"getWork":13160,"Dirty":13161,"Leaders":13162,"IgnitePredicate":13163,"authorize":13164,"ĠStart":13165,"StreamReader":13166,"LongColumn":13167,"ĠobjectStore":13168,"Dropped":13169,"RUCache":13170,"HttpServletResponse":13171,"ĠEncoding":13172,"ĠretVal":13173,"RAW":13174,"ĠchannelID":13175,"ĠStreamsBuilder":13176,"ValidationException":13177,"accessKey":13178,"integration":13179,"fabric":13180,"Ahead":13181,"BAD":13182,"ca":13183,"Ġ\"\")":13184,"setLast":13185,"LogManager":13186,"ĠmessageCount":13187,"ĠInMemory":13188,"getRegionLocation":13189,"ConcurrentMap":13190,"Recursively":13191,"Ġma":13192,"Ġcoll":13193,"Overlay":13194,"ĠBloom":13195,"Ġencoder":13196,"ĠREGI":13197,"MongoDb":13198,"}));":13199,"ĠCode":13200,"ndertow":13201,"ĠTList":13202,"ĠZip":13203,"getOutputs":13204,"HddsProtos":13205,"setAttribute":13206,"NoDelay":13207,"Ġcaught":13208,"Ġmultipart":13209,"ĠgetRuntimeContext":13210,"NAMIC":13211,"Ġportable":13212,"CLA":13213,"ĠStandalone":13214,"getFloat":13215,"getReturnType":13216,"').":13217,"Ġitr":13218,"ĠtestSet":13219,"OutputVertex":13220,"slider":13221,"Ġless":13222,"numOf":13223,"PredicateLeaf":13224,"EXIT":13225,"RelNode":13226,"MRJobConfig":13227,"CEEDED":13228,"filters":13229,"2009":13230,"ti":13231,"Ġreload":13232,"quote":13233,"comparison":13234,"ĠpeerConfig":13235,"ĠFailover":13236,"zxid":13237,"ĠDelegationToken":13238,"asters":13239,"Chance":13240,"Procedures":13241,"ĠOzoneException":13242,"ickfixj":13243,"Positive":13244,"ATTEMPT":13245,"ĠProtobuf":13246,"getMetaClass":13247,"Included":13248,"Ġstill":13249,"ColName":13250,"ApplicationStatus":13251,"VertexKey":13252,"ITCH":13253,"ĠinitialValue":13254,"ĠKSTREAM":13255,"ShipStrategyType":13256,"Ġblacklist":13257,"MemstoreSizePhase":13258,"Annotated":13259,"Decorator":13260,"fd":13261,"onDone":13262,"Ġ100000":13263,"Localization":13264,"StartRow":13265,"SchemaChange":13266,"Views":13267,"Weights":13268,"ĠTOPIC":13269,"Ġee":13270,"TypeInfoFactory":13271,"ĠRelOpt":13272,"very":13273,"Ġliteral":13274,"newFolder":13275,"HttpServer":13276,"ranularity":13277,"Blank":13278,"lsec":13279,"SERDE":13280,"ĠConsul":13281,"->":13282,"Revision":13283,"ĠAzure":13284,"fileId":13285,"Ġtransformed":13286,"getPassword":13287,"flip":13288,"TezSession":13289,"getPosition":13290,"ORUM":13291,"OnExit":13292,"MITIVE":13293,"tential":13294,"QUORUM":13295,"ĠHRegionServer":13296,"ĠTerm":13297,":{}":13298,"OW":13299,"redirect":13300,"Ġprun":13301,"getOutputStream":13302,"Ġnd":13303,"setDegreeOfParallelism":13304,"JobVertexID":13305,"Resolved":13306,"ĠIGNITE":13307,"ZIP":13308,"Ġcat":13309,"Ġaliases":13310,"THAN":13311,"ĠColumnParent":13312,"returnType":13313,"ĠGridFutureAdapter":13314,"JVM":13315,"ĠStandard":13316,"getConnect":13317,"getLeft":13318,"ĠSyntaxException":13319,"ĠCSTNode":13320,"igned":13321,"retries":13322,"getCreate":13323,"resourceManager":13324,"ĠendKey":13325,"offheap":13326,"ĠINTER":13327,"Preempt":13328,"RUNTIME":13329,"ĠACL":13330,"document":13331,"NORM":13332,"Ġ\"=":13333,"newValue":13334,"communication":13335,"Ġ{};":13336,"RMContext":13337,"pbs":13338,"synchronized":13339,"ONCE":13340,"LETED":13341,"TaskInfo":13342,"GridH":13343,"ĠofEpochMilli":13344,"columnId":13345,"ĠActiveMQTopic":13346,"ĠinterpreterSetting":13347,"TrustStore":13348,"={{":13349,"Fn":13350,"Since":13351,"DEST":13352,"Algo":13353,"Screen":13354,"SCredentials":13355,"MQTT":13356,"Multiplier":13357,"ĠmetricName":13358,"Ġsuccessfully":13359,"Ġcreating":13360,"ĠmemoizedSerializedSize":13361,"getDescription":13362,"setDaemon":13363,"ĠtestDir":13364,"ĠJVM":13365,"Ġsuch":13366,"ĠqueryId":13367,"ĠIOManager":13368,"syntax":13369,"InSegment":13370,"Ġcost":13371,"CacheMetrics":13372,"Ġhistogram":13373,"ĠTimedOutException":13374,"ACLsManager":13375,"Carrying":13376,"Must":13377,"isTable":13378,"PartitionKey":13379,"ĠResourceSpec":13380,"STRAP":13381,"ZeroCopy":13382,"Removing":13383,"ObjectPrivilege":13384,"ptr":13385,"Alternative":13386,"ĠuserId":13387,"ĠappState":13388,"Flusher":13389,"Costs":13390,"rule":13391,"getFull":13392,"ĠfieldNames":13393,"Reduces":13394,"ĠFieldValue":13395,"serdeConstants":13396,"ĠentityType":13397,"Ġdropped":13398,"Attachment":13399,"ByteBuff":13400,"prepared":13401,"QueryService":13402,"nextToken":13403,"LineNumber":13404,"ĠAssignment":13405,"aut":13406,"104":13407,"Detached":13408,"Recoverable":13409,"Grace":13410,"Mdl":13411,"Ġcent":13412,"hest":13413,"encer":13414,"ĠgetScheme":13415,"RequestPBImpl":13416,"COVERY":13417,"ConsumerRecord":13418,"fixed":13419,"Ġcurrently":13420,"ĠDoubleWritable":13421,"ĠFieldNode":13422,"ĠChannelID":13423,"TcpDiscoverySpi":13424,"Robin":13425,"infinite":13426,"ERS":13427,"major":13428,"Ġ300":13429,"Ġdelivery":13430,"Ġeviction":13431,"ĠImmutableBytesWritable":13432,"Ġtn":13433,"unistic":13434,"ĠAll":13435,"ĠkeyStore":13436,"TRACE":13437,"ĠReflectionUtils":13438,"Console":13439,"ToRead":13440,"OutputChannels":13441,"Ġordered":13442,"HomeSubCluster":13443,"Ġplace":13444,"ruption":13445,"decimal":13446,")];":13447,"ĠtestNo":13448,"ĠsetName":13449,"iving":13450,"joinZNode":13451,"ImmutableBytesWritable":13452,"Ġrecv":13453,"AFTER":13454,"ColumnStatsData":13455,"ĠMojoExecutionException":13456,"mmediately":13457,"mult":13458,"omet":13459,"HeartBeat":13460,"Schemas":13461,"SinkFunction":13462,"ĠExecutionAttemptID":13463,"Capt":13464,"ĠSep":13465,"ĠLeg":13466,"ĠTextNode":13467,"Ġredirect":13468,"applicationContext":13469,"OPTIONAL":13470,"Ġfix":13471,"ĠMode":13472,"ForTests":13473,"Transacted":13474,"ELE":13475,"Xid":13476,"Ġ`":13477,
[...]
